[PAD]
[unused1]
[unused2]
[unused3]
[unused4]
[unused5]
[unused6]
[unused7]
[unused8]
[unused9]
[unused10]
[unused11]
[unused12]
[unused13]
[unused14]
[unused15]
[unused16]
[unused17]
[unused18]
[unused19]
[unused20]
[unused21]
[unused22]
[unused23]
[unused24]
[unused25]
[unused26]
[unused27]
[unused28]
[unused29]
[unused30]
[unused31]
[unused32]
[unused33]
[unused34]
[unused35]
[unused36]
[unused37]
[unused38]
[unused39]
[unused40]
[unused41]
[unused42]
[unused43]
[unused44]
[unused45]
[unused46]
[unused47]
[unused48]
[unused49]
[unused50]
[unused51]
[unused52]
[unused53]
[unused54]
[unused55]
[unused56]
[unused57]
[unused58]
[unused59]
[unused60]
[unused61]
[unused62]
[unused63]
[unused64]
[unused65]
[unused66]
[unused67]
[unused68]
[unused69]
[unused70]
[unused71]
[unused72]
[unused73]
[unused74]
[unused75]
[unused76]
[unused77]
[unused78]
[unused79]
[unused80]
[unused81]
[unused82]
[unused83]
[unused84]
[unused85]
[unused86]
[unused87]
[unused88]
[unused89]
[unused90]
[unused91]
[unused92]
[unused93]
[unused94]
[unused95]
[unused96]
[unused97]
[unused98]
[unused99]
[UNK]
[CLS]
[SEP]
[MASK]
<S>
<T>
!
##!
"
##"
#
###
$
##$
%
##%
&
##&
'
##'
(
##(
)
##)
*
##*
+
##+
,
##,
-
##-
.
##.
/
##/
0
##0
1
##1
2
##2
3
##3
4
##4
5
##5
6
##6
7
##7
8
##8
9
##9
:
##:
;
##;
<
##<
=
##=
>
##>
?
##?
@
##@
A
##A
B
##B
C
##C
D
##D
E
##E
F
##F
G
##G
H
##H
I
##I
J
##J
K
##K
L
##L
M
##M
N
##N
O
##O
P
##P
Q
##Q
R
##R
S
##S
T
##T
U
##U
V
##V
W
##W
X
##X
Y
##Y
Z
##Z
[
##[
\
##\
]
##]
^
##^
_
##_
a
##a
b
##b
c
##c
d
##d
e
##e
f
##f
g
##g
h
##h
i
##i
j
##j
k
##k
l
##l
m
##m
n
##n
o
##o
p
##p
q
##q
r
##r
s
##s
t
##t
u
##u
v
##v
w
##w
x
##x
y
##y
z
##z
{
##{
|
##|
}
##}
~
##~
Рѕ
##Рѕ
Рµ
ВЈ
##ВЈ
##Рµ
В¦
В§
##В§
Р°
В©
##Р°
В«
##В«
В¬
##В¬
В®
##В®
В°
##В°
В±
##В±
ВІ
##ВІ
Ві
##Ві
Вµ
В¶
В·
##В·
Рё
##Рё
Вє
##Вє
В»
##В»
Вј
##Вј
ВЅ
##ВЅ
С‚
##С‚
РЅ
##РЅ
СЃ
##СЃ
СЂ
##СЂ
РІ
##РІ
Р»
##Р»
Рє
##Рє
Рј
##Рј
Рґ
##Рґ
Рї
##Рї
Сѓ
##Сѓ
С‹
##С‹
СЊ
##СЊ
СЏ
##СЏ
Р±
##Р±
С‡
Г—
##Г—
##С‡
Р·
##Р·
Рі
##Рі
Р№
##Р№
Р¶
Гџ
##Гџ
Г 
##Г 
ГЎ
##ГЎ
##Р¶
С…
##С…
С€
Г¤
##Г¤
ГҐ
##ГҐ
Г¦
##Г¦
Г§
##Г§
ГЁ
##ГЁ
Г©
##Г©
ГЄ
##ГЄ
Г«
##Г«
Г¬
##Г¬
Г­
##Г­
##С€
СЋ
##СЋ
С†
Г°
##Г°
Г±
##Г±
##С†
СЌ
Гі
##Гі
Гґ
##Гґ
##СЌ
С‰
Г¶
##Г¶
Г·
##Г·
Гё
##Гё
##С‰
С„
Гє
##Гє
##С„
Рџ
Гј
##Гј
ГЅ
##ГЅ
##Рџ
Р’
##Р’
Рќ
##Рќ
ДЃ
##ДЃ
РЎ
##РЎ
вЂ”
Рђ
Д…
##Д…
##Рђ
Д‡
##Д‡
Рљ
##Рљ
ДЌ
##ДЌ
вЂ“
Рћ
##Рћ
Р
##Р
Д“
##Д“
С‘
##С‘
Рў
##Рў
Р”
##Р”
Д™
##Д™
Д›
##Д›
Рњ
##Рњ
Р 
##Р 
Р•
##Р•
РЇ
##РЇ
Р‘
##Р‘
Д«
##Д«
Р­
##Р­
РЈ
##РЈ
Д±
##Д±
Р“
##Р“
Р—
##Р—
Р›
##Р›
Р§
##Р§
РҐ
Е‚
##Е‚
##РҐ
Р¤
##Р¤
СЉ
##СЉ
РЁ
##РЁ
Р–
##Р–
Р¦
##Р¦
ЕЌ
##ЕЌ
Р®
##Р®
С–
##С–
вЂ¦
Р«
##Р«
Р™
##Р™
Е™
##Е™
Р¬
##Р¬
Е›
##Е›
вЂњ
вЂќ
в„–
##в„–
Е 
##Е 
ЕЎ
##ЕЎ
Р©
##Р©
вЂў
##вЂў
С—
##С—
РЃ
##РЃ
С”
##С”
вЂ™
в†‘
в„ў
##в„ў
МЃ
##МЃ
вЂћ
##вЂћ
в€’
##в€’
РЄ
##РЄ
Р†
Еј
##Еј
##Р†
в‚¬
Еѕ
##Еѕ
##в‚¬
С•
`
вЂљ
##вЂљ
в†’
##в†’
Зђ
в™Є
Сћ
##Сћ
Р…
в—Џ
СЈ
##СЈ
Рѓ
вЂ
вЂ•
О±
##О±
Р‚
Й™
##Й™
Й›
##Й›
в†
С
##С
вЂ‘
ЙЄ
##ЙЄ
Р„
##Р„
гЃҐ
Т‘
ПЃ
##ПЃ
С“
О»
##О»
РЉ
Оµ
##Оµ
вЂ№
Ої
##Ої
Ш§
##Ш§
РЏ
в†ђ
##в†ђ
ПЂ
##ПЂ
П‚
##П‚
Л€
##Л€
Лђ
##Лђ
в…
Ој
##Ој
в‰€
##в‰€
вЂЎ
в–€
П„
##П„
Ч™
##Ч™
вЂї
МІ
в–є
Ч•
##Ч•
Щ„
##Щ„
ОЅ
##ОЅ
О”
##О”
ЩЋ
##ЩЋ
О№
##О№
пјЊ
##пјЊ
ТЇ
##ТЇ
вЂі
##вЂі
Щ…
##Щ…
Оґ
##Оґ
Оі
##Оі
Ч”
##Ч”
зљ„
пјџ
гЂ‚
О›
##О›
в”Ђ
##в”Ђ
ОІ
##ОІ
Чњ
##Чњ
Пѓ
##Пѓ
ЧЁ
##ЧЁ
У™
##У™
Оє
##Оє
в‰ 
Р‡
П‰
##П‰
ЩЏ
##ЩЏ
ЧЄ
##ЧЄ
Чђ
О¬
##О¬
О­
##О­
##Чђ
Щ€
ОЇ
##ОЇ
##Щ€
Щ†
##Щ†
гѓ„
Ш±
##Ш±
Ч‘
##Ч‘
П†
##П†
ЩЉ
##ЩЉ
О·
##О·
Оё
##Оё
Чћ
##Чћ
в†“
У©
##У©
вЂІ
##вЂІ
Щ’
##Щ’
Т›
##Т›
в™¦
Щђ
##Щђ
пјЃ
ПЊ
##ПЊ
Ч©
##Ч©
Р‹
ШЁ
##ШЁ
в– 
ж€‘
П…
##П…
в™Ґ
в‰¤
##в‰¤
Ц°
##Ц°
е­¦
РЊ
а®њ
Щ‡
##Щ‡
Ч 
##Ч 
Ч“
##Ч“
Цё
##Цё
вЂ 
##вЂ 
пј‰
##пј‰
ж•°
в‰Ў
дёЂ
пј€
##пј€
в–Є
в€љ
е‡є
аІ 
в€ћ
дЅ 
Чў
РЋ
##Чў
з¤ѕ
ШЇ
##ШЇ
еЌЃ
з‰€
дєє
##дєє
Чќ
##Чќ
Т“
##Т“
Ші
##Ші
ТЈ
##ТЈ
##С‚Рѕ
##РЅРѕ
##СЃС‚
##СЂРѕ
##РµРЅ
РїРѕ
##РµС‚
##СЂР°
##Р»Рё
РЅР°
РЅРµ
##РєРѕ
##РµСЂ
##С‚СЊ
##Р»СЊ
##РІР°
##РЅРё
##РіРѕ
##Р»Рѕ
##СЂРё
##Р»Р°
##РєР°
##РЅР°
##РЅС‹
##РІРѕ
##РµРј
##РєРё
##РґР°
##СЃСЏ
##С‚Р°
С‚Рѕ
Р·Р°
РєРѕ
С‡С‚Рѕ
##С‚Рё
##Р°Рє
##СЂРµ
##С‚Рµ
РїСЂРѕ
##РµРЅРё
##Р»Рµ
##РґРё
СЂР°
##РІРё
##РґРµ
##РјРё
СЌС‚Рѕ
##РЅРµ
Р±С‹
РјРѕ
##Р»СЏ
##СЂСѓ
##РјРѕ
##РјР°
РІРѕ
РѕС‚
##Р±Рѕ
РґРѕ
СЃРѕ
##РµСЃ
РІС‹
##РґРѕ
##С‡Рё
##СЃРµ
РїСЂРё
##Р¶Рµ
##С‡Р°
##РїРѕ
##С†Рё
##СЃС‚Р°
##СЃСЊ
##СЂС‹
##СЃРё
РіРѕ
##РІРµ
##СЃС‚СЊ
##РµР№
##Р·Р°
РѕР±
РєР°
##РєСѓ
##РЅСѓ
##РґСѓ
##СЃС‚Рё
РЅРѕ
##СЃС‚Рѕ
##РјСѓ
РєР°Рє
##С€Рё
С‚Р°
##Р»СЊРЅРѕ
РёР·
##СЃРѕ
##СЋС‚
РґР°
РЅРё
РІСЃРµ
##С…Рѕ
##РїР°
##Р»Сѓ
##С€Рµ
СЂР°Р·
##РіР°
##С‰Рµ
Р±Рѕ
##РіРё
##РµСЂРµ
##Р¶РЅРѕ
СЂРµ
##РЅС‹Р№
##С‚Сѓ
##РІС‹
С‚Рµ
##РјРµ
##РЅС‹Рµ
##СЃР°
РґРµ
##РЅСЏ
##РµРЅРЅРѕ
##РїРё
##РµРЅСЊ
##С‚С‹
РџРѕ
##РєРѕР№
С…Рѕ
##РµС‚СЃСЏ
РїРѕРґ
##..
##Р¶Рё
##РµРЅРёСЏ
##С‡Рµ
СЃР°
РІР°
РјР°
##РІР°С‚СЊ
С‚Р°Рє
##Р±Рё
##С‡РЅРѕ
РєРѕС‚Рѕ
##Р»СЊРєРѕ
РїСЂРµ
##РіРґР°
##С‰Рё
Р±Сѓ
##РЅС‹С…
##СЃР»Рё
##РµРЅРёРµ
##Р¶Р°
Р¶Рµ
##РІРµСЂ
Р»Рё
##СЂСЏ
РїР°
##СЃС‚РІ
##РґРЅРѕ
##СѓС‚
##Р±С‹
РґР»СЏ
СЃРІРѕ
##Р·Рѕ
##Р±Рµ
##С€СЊ
##СЃРєРё
##С‡РµСЃ
##Р»СЋ
СЃС‚Р°
##РґРµС‚
##СЃРєРѕ
##РЅР°СЏ
СЃРё
РјРµ
СЃС‚
##Р·Рё
РІРё
РјРё
Р»СЋ
##РјРµРЅ
СЃС‚Рѕ
##РјРµСЂ
...
##РІРЅРѕ
Р·РЅР°
##РїРµ
##РєРµ
СЃРµ
##РІРµС‚
##С€Р°
##СЂРµРј
##РјС‹
##Р¶РµС‚
##РґС‹
РјРµРЅ
##РѕР±
##РЅРѕРіРѕ
##С‚РµСЂ
##РїСЂРѕ
РѕРЅ
##С‚СЊСЃСЏ
##СЏС‚
##РµР·
РќР°
##РєР°Р·Р°
##СЃС‚РІРѕ
РјС‹
##СЃР»Рµ
РёР»Рё
##СЂРѕРІ
РµСЃС‚СЊ
РёРЅ
РєРѕС‚РѕСЂС‹
##РѕСЃ
РїСЂР°
##Р±Р°
РїРµСЂРµ
С‚С‹
РµСЃР»Рё
РІРµ
##Р·С‹
РІСЃ
РґСЂСѓ
СЂР°СЃ
Р¶Рё
##РЅРѕР№
С‡Рµ
РµРіРѕ
##РЅРёСЏ
##РіСЂР°
РќРѕ
##СЃРєР°
РјРµРЅСЏ
##Р»СЃСЏ
##С‚РµР»СЊ
Р±РѕР»СЊ
РЅСѓ
##РіСѓ
##С‚СЃСЏ
##РЅРёРјР°
##С†РёРё
##РїСѓ
С‚РѕР»СЊРєРѕ
##РЅРёРµ
##РµРјСѓ
СѓР¶Рµ
Р±С‹Р»Рѕ
РЅРµС‚
РѕС‡
##РЅС‹Рј
##РЅРѕРІ
РїРµСЂ
##РєРѕРІ
##00
##Р»С‹
Р”Р°
СЃСѓ
Р­С‚Рѕ
##С‚РµР»СЊРЅРѕ
##С…Р°
РєРѕРЅ
РєСѓ
СЂСѓ
Р’Рѕ
СЂР°Р±Рѕ
##СЃСѓ
##РІСѓ
##С‚РѕРј
##РїСЂР°
РёСЃ
##Р·Сѓ
##РѕРЅ
С‡Р°
РїРё
##Р±Сѓ
РѕРЅРё
##РѕСЂ
##er
РќРµ
##РµС‚Рµ
С‚Р°Рј
РїСЂРѕСЃС‚Рѕ
##С‰Р°
##С†Р°
##РІР»СЏ
Р±СѓРґРµС‚
##РєРѕРј
##С‡РµСЃРєРё
##РґСЊ
РєРѕРј
РїСЂРµРґ
##Р±СЏ
##С‚РѕРІ
##Р°РЅ
РІСЂРµРј
##СЂР°РЅ
##С…РѕРґРё
РјРЅРµ
РєРѕРіРґР°
РјРѕР¶РЅРѕ
##Р»РѕСЃСЊ
##РѕСЃСЃРё
РґРѕР»
РёРј
##СЃС‹
РѕС‡РµРЅСЊ
РІРѕР·
##РјРѕС‚
РІРѕС‚
##Р»РёСЃСЊ
##С„Рё
РёС…
##С‚РѕРјСѓ
##СЂРµС‚
РјРѕР¶РµС‚
##СЂРѕРІР°
##Р°СЂ
##С†Рµ
##СЃС‚РІР°
СЂРѕ
С‡С‚РѕР±С‹
##РЅРѕРµ
##РЅСѓСЋ
СЃР»Сѓ
РµС‰Рµ
##СЂРѕРј
##Р»РѕРІРµ
##РєСЂР°
СЃР°РјРѕ
С‡РµРј
РіРѕРІРѕ
РґСѓ
РґР°Р¶Рµ
##РїРµСЂ
РїСѓ
РґРµР»Р°
##Р»РµРЅ
##СЋС‰Рё
Р±С‹Р»
РїРѕР»Сѓ
РїРѕСЃР»Рµ
СЌС‚Рё
##РґРµР»Р°
##ot
Р’С‹
##С†РёСЏ
С‚Р°РєРё
##Р·РЅР°
##С€Рѕ
РѕСЃС‚Р°
Р±РµР·
СЃС‚СЂР°
СЃР»Рѕ
##СЃС‚РІРё
##РІРѕР№
РѕРґРЅРѕ
Р»РµС‚
##РїСЂРё
##СЋС‚СЃСЏ
С‡РµР»РѕРІРµ
##СЂРѕР№
РќСѓ
РѕРЅР°
##РєРѕРіРѕ
РєС‚Рѕ
РѕРї
##Р»РµР№
##СЃРЅРѕ
Р±Р°
Р РѕСЃСЃРё
РЅР°СЃ
##РєР°СЏ
##Р№С‚Рµ
РљРѕ
С„Рё
##РґРёРЅ
РїР»Р°
СЃРєРѕ
##СЃС‚Сѓ
##СЃС‚Рµ
РїРѕС‡
##СЂС‚Рё
##СѓС‡
Р±С‹С‚СЊ
).
##РµРЅР°
##Р»РµРј
РўРѕ
РіРґРµ
Р»Рµ
##РєС‚Рё
Р—Р°
##РІС‚Рѕ
##С‚СЏ
РґРё
##Р·С‹РІР°
##РѕР±С‰Рµ
СЌС‚РѕРј
С‚РѕР¶Рµ
Р•СЃР»Рё
="
РџСЂРѕ
РјСѓ
С‡Рё
##РµС€СЊ
РІСЃС‘
РїСЂРѕРё
РІРµСЂ
##СЃС‚РІРµРЅРЅРѕ
qu
РЅР°РґРѕ
РїРѕР»
20
##Р»РµРµ
quot
##С‡Р°СЃ
РёРЅС‚РµСЂ
С‚РѕРј
##С‡РёС‚Р°
##РґРµСЂ
##РµР№С‡Р°СЃ
РІСЂРµРјСЏ
РєСЂР°
##РєРѕРµ
##Р»Р°СЃСЊ
##Р¶РµРЅ
РєРѕС‚РѕСЂС‹Рµ
С‚РµРј
РљР°
СЃРґРµР»Р°
##РЅСЊ
##СЃС‚РІСѓ
##Р¶РґР°
Р§С‚Рѕ
##СЃРєРёР№
##РёС‚
##РґРЅРё
С‚РѕРіРѕ
РњРѕ
С…РѕСЂРѕ
##РЅРµРµ
##СЃС‚РѕСЏ
РјРѕРі
С‚СѓС‚
".
##С‚РЅРѕ
РљР°Рє
СЃРІРѕРё
РєР°Р¶
##С‡РµРіРѕ
##Р°Р»СЊРЅРѕ
##РєС‚Рѕ
##РЅС‹РјРё
##РєР»СЋ
Р±РѕР»СЊС€Рµ
##РІР»
РѕР±СЂР°
##РµС‚Р°
##in
СЂР°Р±РѕС‚Р°
##С†С‹
СЌС‚РѕРіРѕ
##РЅРµР№
##РІСЏ
РіР»Р°
СЃР»СѓС‡Р°
Р±СѓРґСѓ
##РЅРѕРј
##Р°Р»СЊ
РїРѕРЅСЏ
С‡Сѓ
##РЅРёРё
С‚Сѓ
##Р¶Сѓ
РіРѕРІРѕСЂРё
РІРѕРѕР±С‰Рµ
##РІР°Р»Рё
##СЃС‚СЂРѕ
СЃРєР°Р·Р°
##СЃРѕРІ
##РїРѕР»
##Р·РІРѕ
РџСЂРё
РўР°Рє
##СЃР»Рѕ
##РєСЂС‹
10
##РІР°СЏ
##РїС‹
РјРЅРѕРіРѕ
##РІС‹Р№
##РµСЃС‚Рѕ
##РєС‚
##РјРµС‚
Р±Рµ
РІР·
##РІС‹Рµ
##РІР°РµС‚
##an
##on
##РїРёСЃР°
РєР»Р°
##РґРµР№
СЃРїРѕ
##С‡Сѓ
РіСЂР°
##СЏС‚СЊ
С‚РµС…
##РєРёРµ
СЃРѕРІ
##РґСЏ
##СЃРєРѕР№
Р’Р°
Р¶РёР·
##РёРЅ
РІРѕРїСЂРѕ
РёРјРµ
##РјРѕР¶РЅРѕ
Р±С‹Р»Р°
##РІР°Р»
РґРµРЅСЊ
##РЅРµС‡РЅРѕ
##С‚СЂР°
РІР°СЃ
##РЅРёРє
РЎРѕ
Р°РІС‚Рѕ
РґСѓРјР°
##С‰С‘
РєРѕС‚РѕСЂС‹Р№
РІР°Рј
##РґР°СЂ
РёРі
##РµРЅРёРё
##РґРµР»
##РѕРЅР°
Р»СѓС‡
СЃРµР±СЏ
##СЃС‚СЂР°
РєРё
Р±С‹Р»Рё
##at
РҐРѕ
##СЃС‚РІРµРЅ
РїРѕРјРѕ
##РєРёС…
##С‡РµРј
РіРѕР»Рѕ
Р’РѕС‚
СЃРµР№С‡Р°СЃ
##СЃРјРѕС‚
РЅРёС…
##Р¶Рґ
СЃСЂР°
##РІРёС‚СЊ
##РґРёС‚Рµ
##СЃРѕР±
##Р»РѕРіРё
Р»Рѕ
СЃРµСЂ
##РіР»Р°
РїРѕРєР°
),
##РЅРёРєР°
##СЃС‚С‹
С„Рѕ
РїРѕР»Рё
РЅР°С‡Р°
РїРѕРЅРёРјР°
##Р±СЂР°
##or
РґСЂСѓРіРѕ
РїРѕС‚РѕРјСѓ
##РІС‹С…
##Р±РёСЂР°
##ar
##С‡СЊ
СЃР»Рµ
РЅСѓР¶РЅРѕ
РіР°
##С‚РёРІ
##СЃРєРѕРіРѕ
##Р±РѕР№
РЅРёС‡РµРіРѕ
##С€Сѓ
РёРЅС‚РµСЂРµСЃ
РїСЂРѕР±
РўС‹
Р±РѕР»РµРµ
РµРµ
##С…Рё
##РµРЅС‹
##СЂРµРґ
##Р·РѕРІР°
РІСЃРµРіРѕ
##СЂС‚
##Р»РµС‚
##РєСЃ
СЌС‚РѕС‚
##РѕРІ
РµС‰С‘
Р Р°
">
##РІС€Рё
##С„РѕСЂ
##РЅСѓС‚
##РµРЅРёСЋ
##РґРѕР±
С†Рµ
##СЂРѕРґ
19
##СЂРµРЅ
",
##С‚РѕСЂС‹
РѕР±СЉ
РіРѕРґР°
##РіРµ
##СЃС‚Р°РІ
##РёС‚СЊ
РґРµР№
РґСЂСѓРіРё
##С†РёСЋ
РїР»Рѕ
##en
Р РѕСЃСЃРёРё
##РіР»СЏ
##С€РµР№
##С‘С‚
##СЋСЃСЊ
##Р»Р»Рё
##РІР°С‚СЊСЃСЏ
##РїРѕР»СЊ
РґРµС‚
##РЅРµС‚
РќРё
РїРѕС‚РѕРј
С‚РµР±СЏ
РѕРґРёРЅ
##РєР°РјРё
Р‘Рѕ
РћРЅ
##РґСЏС‚
..
РїРѕС‡РµРјСѓ
РїСЂР°РІРё
РўР°
##РґРѕРј
Р±РµСЃ
РІСЃРµС…
РЅРµРіРѕ
##СЃС‚СЊСЋ
##РїР»Р°
##СЃРє
##СЃРєРёС…
Р·Р°РєРѕ
##Р°Р»
##РѕР»
##РєР»Р°
С‚Р°РєРѕР№
##РµР»
РґРѕСЂРѕ
РїСЂРѕР±Р»РµРј
СЃС‚РѕСЂРѕ
##РїРµСЂСЊ
##РµСЂРµР·
РїСЂ
##РѕРј
##РґРµРЅ
##СЂРµС‚СЊ
РёСЃС‚Рѕ
РњР°
##Р»РѕРј
##СЂРёРё
##РµРЅРёР№
##РІРѕРµ
##РЅРёРєРё
РІРµСЃ
##РІР°СЋС‚
##РїСЂРёРјРµСЂ
Р’СЃРµ
РїРѕР»СѓС‡Рё
Р»Р°
РєРѕРЅРµС‡РЅРѕ
##СЃС‚СЂРµ
##СЃРєРёРµ
СЃРµР±Рµ
РёРјРµРЅРЅРѕ
##СЃСЃРё
##С‡РµС‚
##С‘Рј
##РµРЅРёРµРј
##СЃРїРѕ
С‚Рё
РІР»Р°
СЌС‚РѕР№
РњС‹
##РјРµРЅС‚Р°
РћС‚
СЃС‡РёС‚Р°
##С‡РєРё
##СЃРµРј
re
##СЂРјР°
Р·РЅР°СЋ
РЅРёРєР°
##al
РќРµС‚
СЃРєР°
##РјРµРЅС‚
##РєР°С…
РІРёРґРµ
##РЅСЋ
##РґРёС‚СЊ
РѕСЂ
##Р±Р»Рё
##Р°С‚
##РЅРёР№
##РёР»
##РґРµСЃСЊ
##С‚РѕСЂ
##СЃР»Р°
##РµРґ
РєР°РєРѕР№
##РІРѕРіРѕ
##СЃРєРѕР»СЊРєРѕ
РєСЂСѓ
С‚РµСЂ
##С„Рµ
РЅР°Рј
##РѕС‚
##РѕР№
##РёРє
РёСЃРїРѕР»СЊ
##С‡РёС‚
##РґРЅР°
##РёРё
##un
Р»СЋРґРµР№
##СЂРѕРІР°С‚СЊ
##РµРЅРµ
##РґРѕРІ
РѕС‚РЅРѕ
.-
СЃРѕР±
С‡РµСЂРµР·
##РїСЂРµ
##СЌС‚РѕРјСѓ
С‡РµР»РѕРІРµРє
##СЂР°РІРё
Р”Рѕ
##С…Сѓ
##РµРІ
РїРѕР»Рѕ
СЃРїРµ
##РµРјРѕ
##СЏС…
##ru
##РІРµРґ
Р»СЋРґРё
##РіРѕРІРѕ
РІРѕР·РјРѕР¶РЅРѕ
РѕС‚РІРµС‚
##РµРјС‹
##СЃС‚РЅРѕ
##Р»СЊРЅС‹Р№
Р»СѓС‡С€Рµ
201
##__
СЃРјРѕС‚
##РјР°РЅ
РІСЃСЏ
##))
##РєРёР№
##СЏСЃ
##Р№С‚Рё
РЅРµРј
##Р°Рј
##РІР°РЅРёСЏ
##Р·РґР°
##РёРј
С„РѕС‚Рѕ
##Р»РµРЅРёСЏ
С‚РµР±Рµ
##РёР№
РёРіСЂР°
РіРѕРґ
##РµРє
РџСѓ
##РёСЏ
##СЂРѕРґРµ
##РёС‡
##С‡РёРЅР°
##РёРІ
С‡РµРіРѕ
РІСЃРµРіРґР°
##РµРіРѕ
РѕР±Рѕ
РґРµР№СЃС‚РІРё
С‚СЂР°
##re
РґРѕР»Р¶
##Р»РѕРІ
РіСЂСѓ
##РЅРЅРѕ
СЃРїР°
##С‚РµСЂРё
РЎР°
##it
С‚СЂРµ
##he
##РІРёР°
##РЅСѓС‚СЊ
РѕС‚Р»Рё
РєСЂРµ
РµРјСѓ
РІС‹Р±Рѕ
##СЂСЋ
##Р¶РµРЅРёРµ
##РЅРёРєРѕРІ
##СЂР°СЏ
РјРѕРіСѓ
##st
##С…РѕРґРёС‚
##РґРёС‚
РїСЂР°РІ
##СЊСЏ
##С‚РёРЅ
##РµРЅС‚
РґРІР°
С‚РѕРіРґР°
##СЊСЋ
##С€РµРЅРёРµ
##С‚РёСЏ
##СѓСЋ
##РІРѕРґ
##РµРјР°
##Р·СЏ
##РіСЂР°Рј
##С€РёС…
Р±СѓРґСѓС‚
##СЃС‚Р°РІР»СЏ
С‚Р°РєРѕРµ
СЃР»СѓС‡Р°Рµ
Р±Рё
Р·РґРµСЃСЊ
РґРµР»Р°С‚СЊ
##С€РєРё
##РѕРіРѕ
##Р°СЏ
##РёСЃ
РјР°С€Рё
##СЃР»Сѓ
##Р»РµРє
РІСЃРµРј
С…РѕСЂРѕС€Рѕ
##РµР»СЊ
СЃР°РјС‹
##РёС…
РїС‹
РўРµ
##РєР°РЅ
##СЃС‚РІРµ
С‚СЂСѓ
РїР°СЂ
РґРµР»Рѕ
РґР°РЅ
##СЃРєР°СЏ
##С‚РµР»СЏ
РѕР±С‹
##РЅРґ
##Р»СЊС‚Р°
РґРІРё
С‚РµРїРµСЂСЊ
##РёРµ
СЃРІСЏ
##СЃРёР±Рѕ
##Р»СЊС€Рµ
##РІСЂР°
В».
##Р¶РґСѓ
##РєСѓСЋ
##РµС…Р°
##СЃРїРµ
СЃРёСЃС‚
СЂСѓСЃ
##Р¶РµРЅРёСЏ
СЃРјРѕ
##Р±СѓРґСЊ
РјРѕРіСѓС‚
##rue
##РІР°РµС‚СЃСЏ
РІРѕР№
##РґРµР»Рё
##СЂСЊ
РґРѕСЃС‚Р°
##Р»РµР·
##РјРµСЂРё
##РјРЅРё
РєСЂРѕ
РЅР°РїСЂРёРјРµСЂ
##СЂСЏРґ
РІРѕРїСЂРѕСЃ
РјРµСЃС‚Рѕ
РЅР°Сѓ
##ig
##С†РµРІ
##С‚СѓСЂС‹
##РґРЅСЏ
##id
true
СѓР±Рё
ref
##СЃС‚Р°С‚Рё
##С†Сѓ
СЃР°РјРё
РєРѕРјРї
РѕРє
##РёСЂ
РїСЂСЏ
С…Сѓ
//
##СЃС‚СѓРї
Р±РѕР»СЊС€Рё
Р°РЅ
##Р°Р»Рё
РЅРµРєРѕ
15
С„Р°Рє
СЃР°Рј
РѕСЃ
РїР°СЂС‚Рё
##РІР°РЅРёРµ
##С€РµР»
РЅРёР±СѓРґСЊ
##СѓСЂ
РР·
Р°СЂ
РїРµ
РµС‘
##Р»СЊРЅС‹Рµ
##С‚РµР»Рё
С„РѕСЂ
РѕСЃРЅРѕ
##РЅРѕРІР°
##РґР°С‚СЊ
##С‚РѕС‡РЅРѕ
##С‚СЂРё
##СЃСЃ
РїСЂРёРјРµСЂ
РњРЅРµ
##С†Рѕ
##С€РµРіРѕ
##РїР»Рѕ
##РІРѕРј
Р»РёР±Рѕ
##С‡РЅС‹Р№
СЂРѕСЃСЃРё
СЃРґРµР»Р°С‚СЊ
С‚РІРѕ
##С‰РµР№
##le
СЌС‚Р°
##РјРёРЅР°
С‚РµР»Рµ
##РёР·
##С‡РµРЅРёРµ
РєР»Р°РІРёР°
РћРЅРё
Р¶РёР·РЅРё
РїСЂРѕРёР·РІРѕ
РїРѕСЂ
РІС‹СЃРѕ
РІРµРґСЊ
РїРѕР»СѓС‡Р°
РІСЂР°
РјРЅРѕ
##С‚СѓСЂР°
##Р»Р°РіР°
СЃРІРѕСЋ
##Р¶Р°С‚СЊ
##РґРµС‚СЊ
##РѕРє
РёРґРµ
РЅР°Рґ
С‚СЂРё
Р»СЋР±Рѕ
##РїРµСЂР°
##РґСѓРјР°
##С‰РµРј
##om
РЅРµСЃРєРѕР»СЊРєРѕ
РїРѕР»СЊ
##РІС‹Рј
##С†РёРѕРЅ
##ic
С…РѕС‚СЏ
##Р·Рµ
##РёСЃС‚
РЅРёРєРѕ
РњРё
##С‚СѓР°
##РІСЂРѕ
РєР°СЂ
СЃС‚РѕРёС‚
##РµСЂС‹
СЃРѕР·РґР°
С‡РёС‚Р°
##С€РµРЅРёСЏ
##РІР°РЅ
##Р»РµРЅРёРµ
##СЂР°Р±Рѕ
СѓРґР°
РіРµ
##РµС‚Рё
РЅР°РїРёСЃР°
##С€Р°СЏ
##СЂРёСЏ
##РґРѕР»
РєРѕСЂ
РєРѕС‚РѕСЂРѕ
СЃРѕРІСЃРµРј
РѕСЂРіР°
##!!
РЅРѕСЂРјР°
##Р»СЊРЅС‹С…
##РЅРѕСЃС‚Рё
##СЃРѕР±РµРЅРЅРѕ
##С‡РєР°
##С„Рѕ
:)
С…Р°
СЃСѓС‰Рµ
РѕР±Р»Р°
С‚Р°РєРёРµ
##С‰РµРіРѕ
##РєСЂРѕ
##С…РѕРґ
РіРѕСЃСѓ
##РєСЂР°Рё
##РЅРѕРјРё
РјРѕР№
СЃР°РјРѕРј
##СЂР°РІ
РїРѕСЃРјРѕС‚
##РјРµРЅРё
С†Рё
##РјРѕР№
РїСЂРѕС‚РёРІ
РјРёР»Р»Рё
С„Р°
РІС‚Рѕ
СЃСЂР°Р·Сѓ
##СЃРІРµС‚
СЃРїРµС†Рё
СЌРєРѕ
##С‡РµСЃС‚РІРѕ
СЌС‚Сѓ
РІСЂРµРјРµРЅРё
РїРѕР»РёС‚Рё
##Р±Р»СЋ
##С‡РµРЅ
РіРѕСЃСѓРґР°СЂ
##СЃС‚Р°РІРё
##С‚СЂРѕ
РјРѕРјРµРЅС‚
##РµСЂРё
РґСЂСѓРіРѕР№
##С‚РµР»РµР№
С„РёР»СЊ
##СЂРѕРґР°
РєСЂРё
РІРѕСЃ
##С€Р»Рё
РјРµР¶РґСѓ
##С†РµРЅ
##РІР»Рµ
##РІРѕР·
Р±СЂР°
Р·Р°РЅРёРјР°
##Р»Р°РіРѕ
С‚РѕС‡РЅРѕ
##СЋС‰РёС…
РР»Рё
РѕРїСЂРµ
##el
СЃРєР°Р·Р°С‚СЊ
РіРѕРґСѓ
РІРёРґРµРѕ
СѓР¶
С‚РѕС‚
СЃРµРј
Р¶РёР·РЅСЊ
##РіР»Рё
##С€Р»Рѕ
##РІРµСЃС‚Рё
##РЅРёС‚СЊ
СЃС‚СЂРѕ
Р Рѕ
##der
СЂР°СЃСЃРєР°
##С€РєР°
СѓСЂРѕРІ
##РЅРє
##С‚РѕРє
В»,
РїРѕР·РІРѕ
СѓС‡Р°
##РєРёРј
##С‡РёС‚СЊ
Р±Р»Рё
##РЅРѕРє
##РµРЅРЅРѕР№
РєРѕС‚РѕСЂР°СЏ
Р Рµ
##РѕР±СЂР°
##РІР°СЋ
РєРѕРіРѕ
РјР°СЃ
СЃС‚РѕР»
##РµС‚СЊ
С‚СЏ
##РїСЂР°РІ
##РІРЅРѕРµ
##РЅРѕРІРё
##Р·Рј
##С‚РёС‚СЊ
##СЂРѕС‚
СЃРјС‹
##Р°СЃ
С€Р°
##РѕР·
##СЃРєРѕРј
##РєР»СЋС‡Р°
##РІР°СЂРё
##СЋС‰РёР№
##Р¶РµРј
СЃРѕРіР»Р°
СЃРєРѕСЂРѕ
##РЅР°С‡Р°
РґРµРЅСЊРіРё
##СЂСѓСЋ
##С‚РѕР№
РІРµСЃСЊ
РіРѕРІРѕСЂСЏ
РєРѕСЃ
##С‡РµСЃРєР°СЏ
СЂРµС€Рё
##СЂРёР°РЅ
##Р»РєРё
##Р±РѕСЂ
С‡РµСЂ
##РІР°Р№
СЃР»РѕРІР°
РЅРµР№
##С‡РєСѓ
С€РєРѕ
СЌС‚РёС…
##РЅРЅС‹Р№
РјРµРЅРµ
С‡РµР»РѕРІРµРєР°
РЅРёРєС‚Рѕ
РЈРєСЂР°Рё
РїС‹С‚Р°
##РґСѓС‚
##hun
##Р·СѓР»СЊС‚Р°
##С‡РµСЃРєРёРµ
СЃРІРё
СЂС‹
РѕС‚РєСЂС‹
##Р»СЊРЅРѕРіРѕ
РїСЂРѕРґР°
##СЃС‚РѕРІ
РјРµРЅСЊ
РіР»Сѓ
СЌРєСЃ
РєР°Р¶РµС‚СЃСЏ
СЃРІРѕР№
РґРѕР»Р¶РµРЅ
##РґРµРј
РґРµР»Рµ
СЂРµР·СѓР»СЊС‚Р°
##СЋС‰РёРµ
СЃРїРё
##С„РѕСЂРјР°
РЅСѓР¶
##РЎРЎ
РєР°РєРёРµ
##РёРґ
##СѓРґ
РјР°Р»Рѕ
РѕРґРЅР°
СЃРІРѕРµР№
##РЁРђ
12
РїРѕС‡С‚Рё
С…РѕС‚СЊ
Р»РёС‡РЅРѕ
РџРѕС‡
##Р°Рґ
СЃС‚Р°С‚СЊ
##РґРѕР№
Р”Р»СЏ
СЃРёС‚СѓР°
Р·РЅР°С‡РёС‚
Р°Рє
##РіСЂРµ
Р·Р°СЏ
##СЂРѕРЅ
РєРЅРё
Р“Рѕ
##РЅРёСЋ
##as
СЌС‚РёРј
РЎРЁРђ
РїРѕСЏ
СЂР°СЃСЃ
##С‡РµСЃРєРѕР№
СЂСѓР±
##СЃС‚СЂСѓ
##Р·Р°Рґ
РјРѕР»Рѕ
##ht
Р»СЋР±Рё
Р»РёС€СЊ
Р¶РµРЅ
РїРѕС‚
##РєСѓРїР°
##РїСѓСЃС‚Рё
##СЃРѕРј
РїСЂР°РєС‚Рё
СЃРѕРІРµСЂ
Р’Рµ
##СЂСѓРі
СЂР°РІРЅРѕ
##Р»РѕРЅ
РёР·РІРµ
##РџР 
РјРµСЃСЏ
РѕРєРѕ
РЅР°С‡РёРЅР°
РЅР°Р·Р°Рґ
Р’Рё
СЃСЂРµРґ
РћРЅР°
##ro
РЎС‚Р°
##РЅСЏС‚СЊ
РґРѕР»Р¶РЅС‹
РѕР±С‰Рµ
##Р±РµСЂ
##am
РїСЂРѕРіСЂР°Рј
##Р»РµРєС‚
##Р»СЊРЅРѕР№
С…РѕС‡Сѓ
РїРµСЂРµРґ
РџР°
##С€Р°С‚СЊ
СЃР»РµРґСѓ
РѕРі
##С‰Р°СЏ
РґРѕСЃС‚Р°С‚РѕС‡РЅРѕ
РЅРµРєРѕС‚РѕСЂС‹
РїРѕС…Рѕ
РѕС‡РµСЂРµ
СЏРІР»СЏ
##РїСЂР°РІРё
##С‰РµРЅРёСЏ
##th
РјРЅРѕРіРё
СЃРІ
##us
СЃС‚РѕСЂРѕРЅС‹
СЂРµР°Р»СЊРЅРѕ
##СЃРї
С‚Р°РєР¶Рµ
##С‚РєРё
СЃС‚Сѓ
РїРѕРїР°
РґСѓРјР°СЋ
##РІР»РµРЅРёРµ
РіСѓ
РґРѕРјР°
##РєР°Рј
СѓСЃС‚Р°
##СЏР·Р°
##С‡РЅС‹Рµ
##РґС‹Р№
РєРІР°
РїР»РѕС…Рѕ
РїРѕР»РЅРѕ
СЃР»Рё
РЅРёРєРѕРіРґР°
##РЅРѕСЃС‚СЊ
РЎРїР°
##РІРёСЃРё
РїРѕСЃР»РµРґ
РџРѕРґ
РјРЅ
РґРµР№СЃС‚РІРёС‚РµР»СЊРЅРѕ
Р›Рё
##С‡РµРЅРёСЏ
РєРѕР»
С…РѕС‚Рµ
СѓРј
##Р»РѕР¶Рё
##РµС‚С‹
С…РІР°
##РЅРµРј
РІР°СЂРёР°РЅ
##il
СЃРєРѕР»СЊРєРѕ
##РґРЅРѕР№
##ol
##С‡РЅР°СЏ
##РЅРµСЂ
РїРѕРєР°Р·Р°
Р”Рµ
##РёСЂРё
РіСЂР°Р¶РґР°
##Р°С‚СЊ
##РІСѓСЋ
СЃРѕРІРµС‚
РїСЂРѕРІРѕ
##Р»СЊРЅРѕРµ
СѓРїРѕ
##С‡РµСЃРєРёС…
РїРѕСЌС‚РѕРјСѓ
РїРёСЃР°
##СЂРёС‚СЊ
РЅР°РґРµ
##СЃС‚РІСѓРµС‚
##РїСЂР°РІР»СЏ
##РєСЂРµС‚
РџРѕС‡РµРјСѓ
СЃРєР°Р·Р°Р»
РІРЅРµ
##С‚РІРµСЂ
РњРѕР¶РµС‚
РІСЂРѕРґРµ
##СЃС‚СЂР°РЅ
##С‘РЅ
##РІР»РµРЅРёСЏ
СЃС‹
],
##СЂРѕРІР°РЅ
##es
id
Р Р¤
РїРѕРґСЃРІРµС‚
##С†РёРѕРЅР°
СЃРµРіРѕ
##РєРІР°
РіРё
##СЂР°РјРё
РљРѕРіРґР°
##СЃР»
##Р»РёРЅ
СЂР°РґРё
РЅР°Р·
РѕСЂРіР°РЅРё
РЅР°РІРµСЂ
РРЅ
##С‡РµСЃРєРёР№
##РІР°Р№С‚Рµ
##РѕРї
##С€РёР№
Р±РѕР»СЊС€Рѕ
СЃРјРµ
100
РїРѕРґРѕ
РҐРѕСЂРѕ
11
##ac
РґРІСѓ
С‚Р°РєРёС…
РіР°СЂ
Р»РµРі
##hunder
30
РїСЂРѕС†
##РіСЂР°С„Рё
Thunder
РѕСЃРѕ
РєРѕС‚РѕСЂС‹С…
##СЃС‚РµР№
##X3
СЌРєРѕРЅРѕРјРё
СЃС‚Рё
ThunderX3
РЅРµРїРѕ
Р±Р»Р°РіРѕ
РїРѕРЅРёРјР°СЋ
РёРјРµРµС‚
СЃРІРµС‚
##РґРёРЅР°
##РїРѕР»РЅРµ
РјРµРЅСЊС€Рµ
##С‰РµРЅРёРµ
##РїСѓСЃРєР°
##ad
##is
РѕСЃРѕР±РµРЅРЅРѕ
РјР°С‚РµСЂРё
РјР°Рє
Р·Р°РґР°
##РЅРёРµРј
##СЃСѓС‚
РїСЂРѕРёСЃ
РїСЂРѕР±Р»РµРјР°
РґРµСЂ
##Р¶Р°Р»
##РјСЏ
РґС‹
##СЂС‚Р°
РїРѕРґРґРµСЂ
СѓРґРё
РєРѕС‚РѕСЂРѕР№
СЃРµРіРѕРґРЅСЏ
РўРѕР»СЊРєРѕ
РЅР°Р·С‹РІР°
РѕС„Рё
##ed
СѓРґРѕР±
СѓСЃР»Рѕ
РєСѓРґР°
##РЅС†Рё
##РµРЅС‚Р°
##РґСЂР°
С‡Р°СЃС‚Рё
РљРё
##РЅРµРіРѕ
РґСЂСѓРіРёС…
##СЂРµРµ
##Р±СЂРѕ
##Р»СЊРЅР°СЏ
РІС‹РіР»СЏ
РѕРєР°Р·Р°
РњРѕСЃ
##СЃС‚СЂРѕР№
РїСЃРё
РЅР°С€
##РјРµСЂРёРєР°РЅ
РєРѕР»Рё
##СѓР±
##СЂР°Р·
##СЂСѓР¶Рё
СЂРё
Р¶РµР»Р°
##СЃСЃР°
##С‰РёР№
200
РЎРїР°СЃРёР±Рѕ
##ight
РіРѕС‚Рѕ
##Р»СѓР№
РІС‹С€Рµ
СЃРІРѕРёС…
РјРѕРё
##СЃР»РµРґРѕ
##ur
РіРµР№
РѕР±СЏР·Р°
РѕС‚РґРµ
50
СЂРѕСЃСЃРёР№
СѓРІРё
РЅРµРґРѕ
##РІРЅРѕР№
##Р°РјРё
РѕРґРЅРѕРіРѕ
Р°Рґ
РґР°РІРЅРѕ
##Р¶РґРµРЅРёСЏ
СЃРѕР±РёСЂР°
РґРµСЃСЏ
Р РѕСЃСЃРёСЏ
СЂСЏ
##Р°С…
РёРЅС„РѕСЂРјР°
Р•СЃС‚СЊ
С‚РѕСЂ
РѕР±СЉСЏСЃ
СѓСЃРїРµ
Р±Р°РЅ
##С‡РёРµ
РЅСЂР°РІРё
С‚С‹СЃСЏ
РїРѕРІРѕ
РєР»Рё
##РµРµ
Р·Р°РєРѕРЅ
С‡Р°СЃС‚Рѕ
##РµРЅРЅС‹Рµ
СЂР°Р·РІРё
Р”Сѓ
РїСЂР°РІРѕ
РѕРЅРѕ
##Р»РµРЅСЊ
РєРѕРјРїР°
##Р»СЊР·СЏ
СѓС‡Рё
##С„РѕРЅ
РїСЂРѕРґРѕР»
##СЂР°С…
С‡СѓРІ
РїРѕСЃС‚Р°
##Р¶Р°Р»СѓР№
##РїРёС‚СЊ
С‚Р°РєР°СЏ
##РІРµР»Рё
##С‰РµРµ
РЅРµРјРЅРѕРіРѕ
Р·Рѕ
##Р°Р·
РјРµСЃС‚Р°
##С„С„Рµ
РїСЂРѕРІРµСЂ
РіР°СЂРЅРё
Р·РµРј
СЌС‚
##РЎРЎР 
##РїСЂ
СЃС‚СЂР°РЅ
##Р·РѕРј
РІР°С€
С‡Р°СЃС‚СЊ
СЃР»
##Р»РёСЏ
РјРёРЅСѓ
РѕРґРЅРѕР№
РІРЅРёРјР°
СЃРѕРІСЂРµРј
РѕР±С‹С‡РЅРѕ
РЅРёРј
##РѕРµ
СЌР»РµРєС‚
РїСЂРёР·РЅР°
Р·Р°С‡РµРј
РџСЂРѕСЃС‚Рѕ
РїРѕР№
##СЂРµР№
РїРѕРІРµСЂ
РІРїРѕР»РЅРµ
##РєСѓРґР°
##Р»РЅ
##РєР°Р·С‹РІР°
##С‡РЅС‹С…
##СЂРѕР±
РїР°СЂР°
##РЅРёС†Р°
С†РІРµС‚
##РЅР°Р»Рё
Р‘Сѓ
##РЅРµС†
##РІРµР·
СЃРѕС‚
##РІР°Р»Р°
СЃСЂР°РІ
СѓРєСЂР°
##С€РµРЅРЅРѕ
РїСЂРµРєСЂР°
РёРЅРѕ
РЎРЎРЎР 
СЏР·С‹
РїРѕРґРѕР±
СЃРїРѕСЃРѕР±
СЃР»Р°
РєР°СЂС‚Рё
СѓРіРѕ
С‚РёРїР°
РїРѕРґР°
РјРѕРЅРё
##РіРѕРІ
Р·Р°РїР°
;&
##СЂР°Рє
##СЃРёС‚СЊ
##РіР°РЅ
СѓРЅРё
С‚СѓРґР°
РµРґРё
СЃРј
РіРѕРІРѕСЂРёС‚
РџРѕСЌС‚РѕРјСѓ
the
##СЃС‚РІРёРµ
##С‰Сѓ
##РІРЅС‹Р№
РІРЅСѓС‚
РїРѕРїСЂРѕ
##Р»РѕРє
СЃСЃС‹
РѕР±Рµ
##С…РІР°
РґРµРЅРµ
С‚СЂРѕ
РЎРё
##С†РёР№
##С†РёРµР№
##СЃРєРёРј
СЂР°Рє
Р•Р 
##С€РєРѕРј
##--
##ing
РєР°Р¶РґС‹Р№
РґРѕРІРѕ
Р·Р°Р±С‹
РІРјРµ
СЂРµР¶Рё
Р¶РµРЅС‰Рё
##РЅРѕР»РѕРіРё
##СЂРёС‚
##Р»РµРЅРЅРѕ
Р›Р°
Р°Р±
##РЅРёС‚Рµ
##ov
С‡СѓС‚СЊ
РўР°Рј
РїСЂРёСЏС‚
##С‚Р°РЅ
##____
Р·Р°РјРµ
СЃРѕСЃС‚РѕСЏ
СЃРІРµСЂ
##С‰РёС…
СЃСЂРµ
##С‚РёРµ
С‚Р°РєРѕРіРѕ
##РїР»Рё
СЃС‚Рµ
##СѓРј
СЃСЋ
РґРѕР»Р¶РЅРѕ
РїРѕРЅСЏР»
РЅРµРѕР±
##РґРєРѕ
##РµСЂС‚
РїРѕСЃ
СЃРІРѕР±Рѕ
##СЏРј
РѕРїС‹
СЃРёР»СЊРЅРѕ
gt
##С‚С‹Рµ
##С„Р°
##СЃС‚РµСЂ
СЃРІРµ
РљСѓ
СѓР·РЅР°
СѓР»Рё
Р°РјРµСЂРёРєР°РЅ
18
##СЂРµРЅРёСЏ
РјРёСЂРµ
Р·Р°С‰Рё
##РєРѕРІРѕ
СЃРїСЂР°
РјРѕР¶РµС‚Рµ
РєСЃС‚Р°С‚Рё
РїСЂР°РІРґР°
##Р¶Рѕ
##РІР°РµРј
РєР°С‡Рµ
##С‚Р°РјРё
РёСЃРєР»СЋ
РѕС€Рё
РІСЃС‚СЂРµ
##РєСѓСЃ
РЅРµР»СЊР·СЏ
РїРѕСЃС‚
##РЅРµРЅРёСЏ
РїСЂСЏРјРѕ
##РЅСѓР»
РёРЅС‚РµСЂРµСЃРЅРѕ
С‚РѕР»
РљС‚Рѕ
25
СЂР°Р±РѕС‚С‹
РєРЅРѕ
РµР№
Р—РЅР°
##Р·РёРґРµРЅ
##СЏРјРё
##РїРµСЂРµ
##С‚РѕСЂР°
РёРіСЂРѕ
##РјРѕРІ
##РїСѓС‚Р°
Р›СЋ
РїРѕР±Рµ
СЃС‚СЂР°РЅС‹
СЃРµСЂРё
РјРµРЅРµРµ
##С€РµРЅ
РїРѕРєСѓРїР°
СѓРІРµСЂ
##С‡Р°С‚СЊ
РїСЂРѕС†РµСЃ
##РґР°РµС‚
##im
РёРіСЂС‹
РєСЂРѕРјРµ
##РЅР°С…
##С‡С‚Рѕ
РїР°СЂСѓ
РјРёСЂ
##С€Р»Р°
РјСЏ
##РЅРµСЃ
РјРµСЃС‚Рµ
##Р»Р°РЅ
РЅСЂР°РІРёС‚СЃСЏ
СЌС‚РѕРјСѓ
РЅРµР·Р°
РІРёРґРё
Р·Р°РјРµС‚
РіСЂСѓРї
РґР°Р»СЊС€Рµ
РЎРєРѕ
РјРёРЅСѓС‚
СЃР»С‹
С‚РѕРјСѓ
##РёРјРѕ
РЅР°С…РѕРґРё
СЌС„С„Рµ
РїСЂРёРЅС†Рё
##av
##РёР»Рё
##Р»СЏСЂ
##et
##Р»СЏРµС‚
....
РџРѕСЃР»Рµ
СЂРµС€РµРЅРёРµ
РјРµС‚
РҐРѕСЂРѕС€Рѕ
СЌРє
##С‘Р»
Р‘С‹
Р”Р°Р¶Рµ
14
РєРѕРјРјРµРЅС‚Р°
РІРµР»Рё
##Р№РЅ
##ch
##С‡Р°С‚
##РґРµР»СЊ
Р Р°Р·
##СЂРєРѕ
РЅР°СЃРµ
##РјРЅСЋ
##Р°Р№
РЅРµРµ
##С€РЅРѕ
##РµСЃСЊ
##СЋС‰РёРј
Р’Р°Рј
РјСѓР¶
##РјРµСЃС‚Рѕ
РіРѕСЂ
##С‚СЏС‚
РЅР°СЃС‚РѕСЏ
РјР°Р»РµРЅСЊ
СЃРє
##СЏР»
##С‹С…
##РєС‚РѕСЂ
РѕР±С‰РµРј
##Р»С‹Р№
РїСЂРµРґРїРѕ
##РґСЂРѕ
##РµРјРµ
РјРµСЃС‚
##РЅР°РјРё
##СЃРєРѕРµ
РјРёРЅРё
##РіСЂСѓ
РєСѓСЂ
РњРѕСЃРє
##С‚РёС‚
СЂР°Р±РѕС‚Р°С‚СЊ
РЅРµСѓ
СЃРёРј
##СЂРёС‚Рµ
СѓС‡
Р±СЂРѕ
##idth
##СЂР°Рј
РІР»Р°СЃС‚Рё
##РѕС‚РІРµС‚
##С‡РµСЃРєРѕРіРѕ
РЅРµРѕ
РґРµРЅРµРі
СѓСЃР»РѕРІРё
СЂР°Р±РѕС‚Р°РµС‚
Р·РґРѕ
Р•РґРё
СЃРјРµСЂ
СЃР°РјРѕРµ
РѕРґРЅРё
РїРѕСЃС‚РѕСЏ
СЃРѕР±СЃС‚РІРµРЅРЅРѕ
##С‚Р°Р№
##РґРІРё
##С€РёРµ
##ut
##Р°Р»Р°
;&#
С€Рё
СЂРµР±
##СЂРѕСЏС‚
##С‹Рµ
РІСЃСЋ
##С‚РёС‚Рµ
РџРѕС‚РѕРјСѓ
СЃРµСЂСЊ
##Р·РёРЅ
РЎРµР№С‡Р°СЃ
РѕРґ
##СЏРЅ
РЅРµРѕР±С…РѕРґРё
##СЂРµР»
##СЃС‚СЂР°Рё
РџРµСЂ
С‚Р°РєРёРј
РґСЂСѓРіРёРµ
РґРІРёРіР°
##С‡РµРЅСЊ
РїРѕРјРѕС‰
##РґРµСЂР¶Р°
##С€РєСѓ
##С‡РµРІРё
##Р¶РµС€СЊ
##РјРѕР±Рё
РњРµ
СѓРі
РѕРїСЏС‚СЊ
РҐРѕС‚СЏ
##СЃС‚РІРѕРј
РґРµС‚РµР№
##С‘СЂ
##С‡РµР№
РёСЃС‚РѕСЂРё
##Р·РјР°
##СЃРєСѓСЋ
Р»СЋР±РѕР№
РґРІСѓС…
СЃР°РјР°
Р»Сѓ
##С‹Р№
##СЂРёС‚Рѕ
РїСЂРёС‡Рё
РёСЃРїРѕР»СЊР·РѕРІР°
РЅР°СЂСѓ
С†РµРЅ
##СЂРѕРє
##РґРµСЂР°
СЃР»СѓС‡Р°Р№
he
С‡Р°СЃРѕРІ
##СЃС‚СѓРїР°
РєРІР°СЂС‚Рё
РЅРѕРІРѕ
СЏРІР»СЏРµС‚СЃСЏ
РєРѕРјСѓ
РјР°СЂ
##Р»РёС‚
РЎСѓ
РїСЂРѕС‚Рё
##С€Р°РµС‚
00
##Р»СЋС‚
Р–РёСЂРё
РєР°РєР°СЏ
##РЅРёРј
РєСЂР°СЃРѕ
##РІРЅРѕРј
##С‚РµР»СЊСЃС‚РІР°
СЂСѓР±Р»РµР№
##Р±Р»Рѕ
РЅР°СЃС‚Рѕ
##РЅР°РІ
##ie
РєСЂР°СЃРё
СЃС‚Р°РЅ
##СЃРєРѕР»СЊ
##С‡РёРє
##СЊРµ
##РїРµСЂРё
##С‡РЅРѕРµ
##С€РёРј
##РґРёР»
##Р¶РєРё
СЃРІРѕРёРј
##С‡РЅРѕР№
РѕРіСЂРѕРј
РїРѕРјРµ
СЃРІРѕРµРіРѕ
СЃРї
РЅР°Р№С‚Рё
##РѕРЅРѕРІ
РІРјРµСЃС‚Рµ
РІРѕР»
СЃРєРѕСЂРµРµ
##РџР Р¤
РґСЂСѓРі
СЃРѕС†Рё
РїСЂРёС…РѕРґРё
##С‡Рѕ
Р±РѕР»СЊС€РёРЅ
##Р·Р°С†РёРё
СЃРѕРІРµСЂС€РµРЅРЅРѕ
##С‚С‹Р№
РљРџР Р¤
##СѓСЃ
С‚РµС…РЅРѕР»РѕРіРё
С‚СЂР°РЅ
##ion
РєСЂР°Р№
РїРµСЂРІС‹Р№
С„РёР·Рё
##Р»СЏС‚СЊ
РїРѕР·
##РїРёС‚Р°
##РіСѓР»Рё
РјРѕР·
РјРёРєСЂРѕ
Р¶Р°
РіРѕРІРѕСЂРёС‚СЊ
##РєР»Рё
##РґР°Р»
С‚РµСЂСЂРёС‚Рѕ
##РїРѕРјРЅРё
##Р·С‹РІР°С‚СЊ
РїРѕРё
##С…РѕРґСЏС‚
##РЅРєРё
РґРѕР±Р°
##РµРЅСЃРё
##С‚РёРЅР°
##РєС‚РёРІРЅРѕ
С„Сѓ
##С‚РµСЂР°
РјРѕРіР»Рё
С…РѕС‡РµС‚
##РЅРёС…
##РіСЂР°РЅРё
РёРґРµС‚
##РµСЃРїРµ
##РјРѕРј
##С‚Р°С…
##СЂР°С‚
##РІРёР»Рё
РіРѕРІРѕСЂСЏС‚
СЃРїСЂРѕ
##20
РїСЂРёРІС‹
##СЂРёР№
##РІРёР»
РїСЂРµРґСЃС‚Р°РІР»СЏ
РЅРµР±Рѕ
##СЃРёР»Рё
РїРѕСЂСЏРґ
##РїРєРё
##С‡РµРє
РєРѕС‚РѕСЂРѕРј
СЃРјРѕС‚СЂРµС‚СЊ
РѕРєРѕР»Рѕ
РґРµСЂРµ
РґРѕР»РіРѕ
##РєРѕРЅ
СЂР°СЃРїРѕ
РєСЂС‹
С€С‚Сѓ
##РєС‚РёРІ
##СЂСѓРµС‚
Р°Р»
##С‚РµСЂРµСЃ
##Р±РѕС‚
РіРѕСЂРѕРґ
##СЊСЋС‚
СЃС‚Р°Р»
РіР»Р°Р·Р°
СЃР»РёС€РєРѕРј
Р‘Р°
##С‰РёРµ
##РµРї
Р›Рµ
РїР°СЂС‚РёРё
РњР°СЂ
РџРё
##С…РѕРґСЏ
РїСЂР°РєС‚РёС‡РµСЃРєРё
##os
##СЃС‚Р°РІРёС‚СЊ
РіСЂР°Р¶РґР°РЅ
##СЃРµРЅ
РїСЂРёРјРµСЂРЅРѕ
РЅР°Р±Р»СЋ
РІРјРµСЃС‚Рѕ
РјС‹С€Рё
##РЅСЏС‚
РЅРµРІРѕР·
СЃРѕРѕР±
##СѓРЅ
##==
##СЊС‚Рµ
##С‹Рј
))
##Р¶РёС‚Рµ
##С‚Р°Рј
##РґР°Р»Рё
##РµРЅРЅРѕРµ
##СЃРєСѓ
СЃРѕР±РѕР№
РћР±
РљСЂС‹
РїСЂР°РІРёР»СЊРЅРѕ
##nd
РєРѕСЃРјРѕ
РѕС‚РІРµ
РёС‚Рѕ
##РµРЅРЅРѕРіРѕ
РїСЂРѕРґСѓ
##РЅРёС†С‹
##Р»РµРєРѕ
РёСЃРїРѕР»СЊР·Рѕ
РїРѕРЅ
##С‚РёР№
##ag
СЂРµСЃ
РґРѕРєР°Р·Р°
##РїРѕР»РЅРё
##СЃС‚РѕР№
##РґРєР°
С€Рµ
РјРѕС‰
РєРѕРЅРєСЂРµС‚
РїСЂРѕР±Р»РµРјС‹
Р•РІСЂРѕ
Р·РЅР°РµС‚
РЅР°СЂРѕРґ
"?
РђРЅ
##Р¶РґРµРЅРёРµ
СЃС‚СЂР°РЅРµ
Р±РµР·Рѕ
РёРґ
РїРѕС‚РµСЂ
РїРѕРЅСЏС‚РЅРѕ
РєРѕРјР°РЅ
##СЂРµР±
С€Сѓ
РІР·РіР»СЏ
Р¶РёС‚СЊ
40
СЃР»РѕР¶РЅРѕ
##ik
РРј
##РІС€РёР№
##РІРѕР»СЊ
##СЃС‚РІРёСЏ
##РѕРЅРµ
РёРіСЂР°С‚СЊ
##Р»Р°РІ
РІР°Р¶РЅРѕ
РїР»СЋ
СЃРїР°СЃРёР±Рѕ
##Р°Р±
Р°РІ
СѓРјРµ
СЃРѕРѕС‚РІРµС‚
##РјРµРЅСЏ
width
height
!!!
##od
##ir
##РєР°Р·
Р’РѕР·
Р·Р°РїРё
##С‚РѕРЅ
СЂР°Р±РѕС‚Сѓ
##РЅРґРё
Р§Рµ
СЃРѕСЃС‚Р°РІ
Р°РІС‚РѕРјРѕР±Рё
##СЃС‚РІРµРЅРЅС‹Р№
##РµС€
РєРѕС‚РѕСЂРѕРіРѕ
СѓРєСЂР°РёРЅ
##Р¶Р°Р»СѓР№СЃС‚Р°
СЂР°Р·РЅС‹Рµ
РІС‹СЂР°
##РЅР°Р»
Р±С‹СЃС‚СЂРѕ
##РёРЅР°
##РїР°СЃРЅРѕ
СЌРЅРµСЂ
РїРѕСЏРІРё
РёСЃРєР°
РґРѕР»Р¶РЅР°
РґРµС€Рµ
##РґРЅРѕРіРѕ
##РїР°СЂР°
##С…СЂР°
РєР°Р¶РґРѕ
РѕРїРµСЂР°
##Р»РёС‚СЊ
Р±РѕР»СЊС€РѕР№
##СЂСѓСЋС‚
##С‡РЅРѕРіРѕ
##РґР¶
##Р»СЊРЅС‹Рј
##РЅСЊС€Рµ
С‚СЏР¶Рµ
РјР°РіР°
000
РєРѕСЂРѕ
РѕР±СЂР°Р·РѕРІР°
СЂР°Р№
РџРµСЂРµ
РљСЃС‚Р°С‚Рё
##РґРёС‚РµР»СЊ
РіРѕСЂРѕРґР°
Р»РѕРіРё
РѕС‚РЅРѕСЃРё
СЂРµРіРё
СЂР°Р·СЂРµ
С„РѕС‚РѕРіСЂР°С„Рё
##РґСѓРјС‹
РѕР±РµСЃРїРµ
##С‡РµСЂ
##РґРёР»Рё
##Р¶РёС‚
РїСЂРѕС‚РёРІРѕ
##СЋС‰РµР№
Р·РІСѓ
РєРѕРјРјСѓ
##РіСЂС‹
##РґРµС‚Рµ
##РІС€РёС…
##Р¶РµРЅРёРё
РґРёР°
РћРґРЅР°
##С‡РёС‚С‹
Р•С‰Рµ
##Р»С‹Рµ
РѕС‡РµРІРё
##СЏС‚СЃСЏ
##РґР¶РµС‚
РµРІСЂРѕ
##С‚РєР°
16
РІРёРґРµР»
РЅР°СЃС‚РѕР»СЊРєРѕ
СЂР°РЅСЊС€Рµ
##РЅР°Рј
##РґРєРё
##С…РѕРІ
Р Сѓ
##С…РѕРґР°
##РєР»Р°РґС‹
##РІР°СЋС‚СЃСЏ
Р’СЃ
##).
##РІСЂР°С‰Р°
##РµРЅРЅС‹С…
РѕР±СЂР°Р·РѕРј
Р¶РёРІ
РѕР±СЃСѓ
СЃС‚СЂРё
РєРѕР»РёС‡РµСЃС‚РІРѕ
РїРѕСЃРјРѕС‚СЂРµС‚СЊ
РЅРµРїСЂРё
РєРѕС‚РѕСЂСѓСЋ
СЃС‚РѕР»СЊРєРѕ
РЅР°РІРµСЂРЅРѕРµ
Р°Рї
##РІСЃРµ
##С€РµРј
РїСЂРµР·РёРґРµРЅ
Р·Р°РІРёСЃРё
РІРёР¶Сѓ
РїРѕРїС‹
##С€Р°Р»
РєРѕРЅС†Рµ
РїРµСЂРІС‹С…
РІС‚РѕСЂРѕР№
РґРѕРІРѕР»СЊРЅРѕ
##Р»РµРЅС‹
РµР·
РґРµРІСѓ
РґРµРјРѕ
of
РґРЅСЏ
РєРѕРјРїР»РµРє
РїСЂРѕС„
##Р»РєР°
Р”Рё
##РјРµРЅС‚С‹
РїСЂРёРЅСЏ
##РјРѕРµ
Р“РґРµ
РІРѕР·РјРѕР¶РЅРѕСЃС‚СЊ
##РІР°Р»СЃСЏ
13
С…Рё
##РґРµР»СЏ
РґСЂСѓРіР°
РЅР°С‡
##СЃРёС‚
Р·РЅР°С‚СЊ
##С‡РµС€СЊ
##С‡Р°РµС‚
РёСЃРїРѕР»СЊР·Сѓ
##СЃРёР»
РІР°С€РµР№
Р“РѕСЃ
РґСЂСѓР·
Р±СЋ
##РґРѕРє
##РЅРєР°
Р¶РёРІРѕ
РїСЂРѕРїР°
##РµСЂР°
##РµРєС‚
Р·Р°РєСЂС‹
РџСЂРµ
##СЃС‚СЂСѓРє
Р‘Рµ
СѓР±Рµ
##РґР°СЋС‚
##РµСЃСЃРё
##Р±СЂР°С‚СЊ
Р±РµСЂ
##РїРёР»
##РІРѕР»СЋ
##СЂС‚Сѓ
РІРѕР·СЂР°
РµРґРёРЅ
РЅРµРІРѕР·РјРѕР¶РЅРѕ
##РјР°С…
##РІР°СЂ
Р±РµСЃРїРѕ
##РµР±
60
СЂР°Р·РЅС‹С…
##РЅР°С‡Рµ
##С‚С‹С…
СЃР°Р№
##СЃС‚Р°РІРєР°
СЃРІРѕРµ
РјРѕР»
##СЂС‹Р№
РёР·РІРµСЃС‚РЅРѕ
С‚РѕР№
##Р»РѕРі
##РґРёРѕ
##СЃРѕР»СЋС‚
##РјСѓРј
С…РѕС‚РµР»
##С€СЊСЃСЏ
РњРѕР¶РЅРѕ
СЃРѕСЃРµ
РїРѕР»РµР·
##СЃС‚РёС‚Сѓ
##РіРѕР№
РўСѓС‚
СЃС‚РѕР»Рµ
РјРѕРµР№
СЃРЅРѕРІР°
РћС‡РµРЅСЊ
СѓРІР°
##РЅРі
##С‚СѓСЂСѓ
РґРІРµ
##СЃС‚РІРѕРІР°С‚СЊ
РґРѕРєСѓ
##С‚Р°Рє
РѕРїРёСЃР°
##ata
С‚С‹СЃСЏС‡
РјРµРґРё
РїРѕРЅСЂР°РІРё
СЃС‚Р°РЅРѕРІРё
РІРѕРє
##ay
СЃРІСЏР·Р°
Р·РЅР°РєРѕ
РўРµРїРµСЂСЊ
РЅР°Р№
##Р·РѕРІ
РїРѕРґСѓРјР°
С‡Р°СЃС‚
СЃСЉ
СѓРґРѕ
Р–РёСЂРёРЅРѕРІ
##Р°Рі
РїРѕСЃС‚Рµ
##С€СѓСЋ
##РЅР°С‡Р°Р»Р°
##Р·С‹РІР°РµС‚
##РјРѕСЃС‚Рё
##РЅРЅС‹Рµ
##С„РµСЂ
##СЃРєРµ
С‚РµРє
##Р»РµС‚Р°
##РµРЅРЅС‹Р№
СЂР°Р·Р°
РљРѕРЅ
##РµС€СЊСЃСЏ
##РµРјРѕРЅ
##СЃРѕРЅР°
##СЃС‚СЂРё
РІРґ
##С‚Р°С‚СЊ
РїСЂРѕРёСЃС…РѕРґРёС‚
##Р¶РµР№
##СЂРѕСЃ
РіРѕР»РѕСЃРѕ
##С‚РµР»СЊСЃС‚РІРѕ
СЃРёС…
##РўРћ
##РјРµРЅР°
СѓС‚РІРµСЂ
С‚РѕРЅ
РќР°РїСЂРёРјРµСЂ
##С‘С‚СЃСЏ
РѕС‚СЃСѓС‚
##Р¶РґРµ
##РїРµР№
Р РѕСЃСЃ
РїРѕР»СЊР·Сѓ
##С€РµРє
90
РїРѕРЅСЏС‚СЊ
РЅРёРєР°Рє
РЅР°СЃС‚СЂРѕ
Р’Р»Р°
РїСЂРµСЃС‚СѓРї
##РїР°Рґ
РїРµСЂРµСЃ
РєРѕРЅРєСѓ
РђР»РµРє
##РєРѕРІР°
РЅР°С€Рё
СЃР°РјС‹Р№
##С‡РµС‚СЃСЏ
РїРёС€
##Р±РёС‚СЊ
РјРѕРµРјСѓ
РїРѕРјРЅСЋ
РїРѕРІС‚Рѕ
##РіРёРё
РЅРµРєРѕС‚РѕСЂС‹С…
##Р°Р»СЊРЅС‹Рµ
РџСЂР°РІ
СЃС‚Р°Р»Рё
##РЅР°Рґ
РјРѕРЅРёС‚РѕСЂ
РїСЂРёРЅРёРјР°
##С‚РµР»СЊРЅС‹Р№
##РµР·РґРµ
##С‡РЅСѓСЋ
РїСЂР°РІР°
РёСЃСЃР»РµРґРѕ
РїРѕР»РЅРѕСЃС‚СЊСЋ
##Р»РѕРІР°
РєРѕС‚РѕСЂРѕРµ
РєРѕРЅС‚СЂРѕ
##С†РѕРІ
##РґРѕРІР°
Р“Р°
##С‡РёС‚РµР»СЊРЅРѕ
СЃС‚Р°Р»Рѕ
Р”СѓРјР°
##РёРѕ
?-
17
##СЃРєРѕРІ
РІР°СЂРёР°РЅС‚
Р›Сѓ
##ent
##РіРѕРј
СЃРґРµР»Р°Р»
Р±РёР·
##Р±Р°С‚С‹
##СЃСЃРѕ
РїРѕР·Рё
РѕР±Рё
РїРѕСЂР°
РјРёР»Р»РёРѕРЅРѕРІ
##РіР°С‚СЊ
СѓР±РёР№
СЃРѕР±С‹
РѕС‚РєР°Р·Р°
РјРЅРµРЅРёРµ
##iv
##Р¶РЅРѕР№
РґР°Р»РµРєРѕ
РїРѕР»СѓС‡Р°РµС‚СЃСЏ
РјРµС‚Рѕ
Р·Р°РјРµС‡Р°
##СЂСѓРї
РєСѓР»СЊ
РѕР±СЉРµ
##РіРѕРІРѕСЂ
РґРІРѕ
##РІСЂРµРј
in
##С‚Р°РµС‚
РќРђ
##Р»Р°РјРё
Р·Р°Рї
РєРѕС‚РѕСЂС‹Рј
РІРµСЂРЅСѓ
##С€РµРµ
РІР·СЏ
##РґРЅСѓ
РїСЂРѕРёР·Рѕ
##СЃС‚РёС‚СЊ
##Р·РёС‚СЊ
##Р±РµСЂР°
##ub
##РїРѕРјРёРЅР°
##Р·РµСЂ
С‡С‚РѕР±
##Р»С‘
##ap
Р°РЅР°
##С†РµРЅРё
Р’СЃС‘
AI
##Р¶РёС‚СЊ
##С‚РѕРіРѕ
##Р»РµСЂ
РїСЃРёС…Рѕ
##РІРµСЃ
СЂР°Р·Сѓ
СЂР°Р±РѕС‚
РІРѕР№РЅС‹
##РґРЅРёР№
С‚РµС…РЅРё
РјРѕСЏ
##СЋС‰Р°СЏ
РєР°Р·Р°
РґРѕСЂРѕРіРё
Р·РЅР°РµС‚Рµ
РёР·РІРµСЃС‚
РїСЂРµРґРѕ
РџРѕРєР°
##РІРѕРє
РІРєР»СЋС‡Р°
РєР»Р°РІРёР°С‚СѓСЂС‹
##С‚СѓСЂ
РџСЂР°РІРґР°
##С‡РµСЂР°
РїСЂРѕСЃС‚СЂР°РЅ
С€Рѕ
РЅР°С€РёС…
##80
РїСѓСЃС‚СЊ
##С‚Р°СЏ
С†РµРЅС‚
РєР°РєРѕРіРѕ
РїСЂРѕРёР·РІРѕРґ
РёРЅРѕРіРґР°
##СЂРѕРІР°СЏ
##С‚РёРё
##Р°РЅС‚Р°
Р°Р±СЃРѕР»СЋС‚
РЅР°РїСЂР°
РїСЂРёРґ
##РєСЃРё
РЅР°С€РµР№
РўРѕРіРґР°
##Р№С‚РµСЃСЊ
СЃРµСЂСЊРµР·
##РµС†
РёСЃРї
РЅРµР±РѕР»СЊ
##СЃСЃРµ
Р“РµСЂ
РѕРєСЂСѓ
РѕРїСЂРµРґРµР»
РЅРѕСЂРјР°Р»СЊРЅРѕ
РЅРёРєР°РєРѕРіРѕ
СЃРЅРё
РјРµС…Р°
РІРѕРїСЂРѕСЃС‹
##СѓР·
СЂР°СЃСЃРєР°Р·Р°
##Р»РѕР№
РІРїРµСЂРµ
РѕРіСЂР°РЅРё
РґРµР»Р°РµС‚
РїСЂРµРґР»Р°РіР°
##СЃС‚Р°РЅ
##РґРµС€СЊ
Р·Р°Р±Рѕ
Р°СЂРјРё
##Р»С‹С…
##РёР»Р°
РјРЅРѕР№
РЅРµРЅР°
РіР°СЂРЅРёС‚СѓСЂС‹
##Р»Р°Рґ
##РІС€РёРµ
##РµСЃСЃ
##РЅРµРЅРёРµ
##??
СЃР»РѕРІРѕ
##РІР»РµРєР°
##РјРµСЂР°
РєРёР»Рѕ
##СЂСѓРґРЅРё
AIR
РјРЅРѕРіРёРµ
##СѓР»
?"
##РіРѕС‚РѕРІ
РЎРµ
data
РїРµРЅСЃРё
РєР°РєРѕРµ
РїРѕРїСѓ
##Р¶РЅС‹Р№
##Р°РЅР°
##РІС‹РјРё
##СЃР»СѓР¶Рё
РёР·РјРµРЅРё
РѕР¶Рё
##РІРЅРѕРіРѕ
##Р°РЅС‚
Р’Р°СЃ
Р°РЅС‚Рё
##С‚РЅС‹С…
РѕС‰Сѓ
to
СЃРѕРѕР±С‰
РЅСѓР¶РµРЅ
##С‚РµР»СЊРЅС‹Рµ
РїСЂРѕС‰Рµ
РЅРёРєР°РєРёС…
РЅС‹
##РЅР°РЅ
РїР»Р°РЅ
РџСѓС‚РёРЅ
РЅРµРґР°
РІСЃРµР№
РљРѕРЅРµС‡РЅРѕ
СЂРµР»Рё
##С‡РЅС‹Рј
РЅР°С‡Р°Р»Р°
РґР»Рё
РѕР±РµС‰Р°
РўРё
##Р»РєСѓ
199
РёСЃС‚РѕСЂРёРё
##РµР»Рё
РїСЂРёРЅ
##РёРјРё
##Р»РµРЅР°
##СЂРґ
СѓС‡Р°СЃС‚
СѓСЃС‚Р°РЅРѕРІ
СЃРёР»Сѓ
РґРµРїСѓС‚Р°
##РіРѕР»Рѕ
РџР°СЂ
##Р»Р°СЃ
С„РѕСЂРјР°
СЃРѕР»
##РёР»СЃСЏ
РЎРµСЂ
РјРµРґ
СЃР»СѓС‡Рё
РёСЃРїРѕР»СЊР·РѕРІР°С‚СЊ
Р·РЅР°РµС€СЊ
СЂРѕРґРёС‚Рµ
РІРѕРєСЂСѓРі
##СЃРѕРє
##С‡РµСЃРєРѕРµ
##С†РµР№
РІРµС‰Рё
РѕСЃРѕР±Рѕ
РєСЂСѓРї
РєРј
##СЂР°Р·Сѓ
РѕСЂСѓР¶Рё
##РѕСЂС‚
СЃС‡Р°
РѕС‚РЅРѕС€РµРЅРёСЏ
СЃС‚РµРЅ
СЃРїРµС†РёР°Р»СЊРЅРѕ
РїСЂРѕРІ
РїСЂРѕС‚
##РІРµС‚Рѕ
##СЂР°С‡Рё
##em
РѕС€РёР±
СЃРјРѕР¶РµС‚
РїРѕСЃС‚СЂРѕ
Р»РµРіРєРѕ
##С„РёС†Рё
##Р¶РґС‹
РІР°РјРё
РёС‚РѕРіРµ
."
##РЅСѓСЃ
##С‚РµР»СЊРЅР°СЏ
СЂРµРґРєРѕ
СЂРµС‡СЊ
##СЂР°Р±
РіРѕРІРѕСЂСЋ
##РјР°С‚Рё
##Р¶Р°РµС‚
##РІРёС‡
##Р±СѓС€
РїРµСЂРµРґР°
РѕРґРЅСѓ
РїРѕР»СѓС‡
##С‚РЅС‹Р№
СѓР¶Р°
Р·Р°Рє
##Р°СЂР°
РѕС„РёС†Рё
##РєР°СЂ
##РЅСЏСЏ
С€С‚Р°
##Р°С†РёРё
?!
СЃРѕР¶Р°Р»
РіРѕРІРѕСЂРёР»
##С‚СѓСЂРµ
##РіР°РјРё
РєР°РєРёС…
##СЂР°Р·РґРѕ
##вЂ“вЂ“
РґР°РµС‚
##РїРѕРЅ
##РёРєРё
##РґРёРё
РЅР°СЂРѕ
##Р±СЂСЏ
##РєСЂРµ
С…РѕР»Рѕ
РІРµСЂРѕСЏС‚
##РґР°РјРё
##СѓС…
##РѕР»РѕРіРё
РєРёРЅРѕ
РјРёСЂР°
Р»СЊ
##СЏР·
С„Р°РєС‚
##Р»СЏС…
РїРѕР¶Р°Р»СѓР№СЃС‚Р°
##РёС‚СЃСЏ
СЃС‡РµС‚
##С‡РµРµ
РјР°С‚РµСЂРёР°
Р—РµРј
##РёРЅС‹
СЂР°СЃРї
##РёРЅРі
РїСЂРѕРґ
РЅРµСЃ
СЂСѓРєРё
РЅР°РєРѕ
194
##ak
РїРµСЂРµСЃС‚Р°
Р·Р°РЅСЏ
##С‚РµСЃСЊ
РґРѕРІРµСЂ
##Р»РёРІРѕ
##С‚РµР»СЊРЅРѕРµ
##РЅРёС†Сѓ
СЃСѓРј
С‡РµС‚
##Р·Рґ
РЅРёРјРё
##Р·РѕСЂ
##СЃС‚РѕРј
РѕРґРёРЅР°
##СЂРѕРІРєРё
Р·Р°СЂР°
##РїСЂСЏ
##РїРёСЃС‹
Р·Р°С‚
СЂР°Р·СЂР°Р±Рѕ
СЃРѕР¶Р°Р»РµРЅРёСЋ
##С…Рµ
РїРµСЃ
##ow
РѕСЃРЅРѕРІРЅРѕРј
РіРµСЂРѕ
СЃС‚Р°РЅРµС‚
СЃР°РјС‹Рµ
РєРѕР»Р»Рµ
##РїРёР»Рё
##СЃРєРѕСЂ
РЅРѕРІ
##С…РѕРґРёС‚СЊ
РїРѕСЃС‚РѕСЏРЅРЅРѕ
РїРѕРІРѕРґСѓ
СЌР»РµРєС‚СЂРѕ
СЂСЏРґРѕРј
РёСЃС‚РѕС‡
##РµРЅРЅР°СЏ
Р·Р°СЂ
СЃСЋРґР°
##СЂРѕРІР°Р»Рё
Р±СѓРґ
РјРЅРѕРіРёС…
##СЊСЋС‚РµСЂ
Р¶СѓСЂ
РїРѕР»РѕРІРё
##СЂР°Р»
РєРѕРјРЅР°
СЃР°РјРѕРіРѕ
РїР»
С‚РµРѕ
РЅРµРґРµ
РіРµР№Рј
РІС‹Р±РѕСЂ
##С‚РЅС‹Рµ
СЃС‚СЂРµ
##СЃРїРѕСЂС‚
С‡С‘Рј
РєСЂР°СЃ
РґРѕР±
РґРѕСЃС‚Рё
##Р·РѕРЅ
С‚СЂРµР±Сѓ
РґРµР»Р°СЋС‚
РІС‚РѕСЂС‹
РЅСѓР¶РЅС‹
##РІРµСЃС‚
РІС‹РІРѕ
##С‡РѕРє
##РґР°С…
С„РёР»СЊРј
##Р·РёРё
СѓСЃ
РєР°Р±Рµ
##РіР°РµС‚
##РїСѓР±Р»Рё
С‚СЂ
РґРѕР»Р»Р°
РїСЂРѕРёР·
РљСЂР°
РёСЃС‚
РѕР±СЂР°Р·
Р»СЋРґСЏ
##um
##СЊРё
РїСЂРѕС€Р»Рѕ
РїРѕР»СѓС‡РёС‚СЊ
##С‡РµСЃС‚РІР°
Р±СѓРґРµРј
##С‰СѓСЋ
Р°РЅРіР»Рё
Р±РѕР»СЊС€РёРµ
РЅСѓР¶РЅР°
СЃС‚Р°СЂ
##СЂРµС‚Рё
СЃС‚Р°РЅРѕРІРёС‚СЃСЏ
РЅР°Р»Рё
РЎС‚
##РїСЂРёСЏ
РїРѕРІРµСЂС…
РјРµСЃСЏС†
##РѕР±Рѕ
СЃРёС‚СѓР°С†РёСЏ
РЅРѕРІС‹Р№
РІСЃС‚СЂРµС‡Р°
Р±Р»РёР·
##СЂСѓРµС‚СЃСЏ
РѕСЂРё
РёСЋ
РїРµСЂРёРѕ
##С‚РёР»Рё
СЂРѕРґ
РїСѓР±Р»Рё
Р·СЂРµРЅРёСЏ
С„Рµ
РЅР°С†РёРѕРЅР°
##ce
С‡РёСЃР»Рµ
СЂРµРє
##СЃР°С…
СЃС‚Р°Р»Р°
РІР°С€Рё
РџСЂ
РђР»
st
РІРѕР·РґСѓ
Р»СЋР±РѕРіРѕ
РџСЂРµРґ
##РІС‚СЂР°
С†РІРµС‚Р°
##ab
РїСЂРѕРґСѓРє
РґРЅРµР№
СЂР°Р·РІРµ
Р·Р°СЂРїР»Р°
С…РѕС‡РµС‚СЃСЏ
Р±РµСЃРїР»Р°
##СѓРє
##Р·Р°С‚СЊ
РіРѕСЂР°Р·РґРѕ
РІРґСЂСѓРі
С‚СЂРµС‚СЊ
##ou
РІРёРґРЅРѕ
С…СѓР¶Рµ
РІСЃС‚Р°
СЃРѕС‚СЂСѓРґРЅРё
РјР°РєСЃРё
##С†Р°РјРё
Р·Р°РІ
##С€РЅРёРєРё
##РµРјС‹Рµ
##РіР»Рѕ
Р»РёС€
РѕРґРЅРёРј
##СЋС‰РµРіРѕ
##РІР°Р»РёСЃСЊ
РІРµСЂСЃРё
##С‡РєРµ
С†РµРЅР°
РѕС‚СЂРµ
РґРµС‚Рё
С…Р°СЂР°Рє
РєРѕРјРјСѓРЅРё
)))
РєР°Р¶РґРѕРіРѕ
Р”Р¶
РёРЅР°С‡Рµ
РІР»Р°СЃС‚СЊ
РѕР±С‰
РІРёРґ
РїРѕРјРѕР¶РµС‚
##РЅРЅС‹С…
##С‚РЅРѕРµ
Р±С‹РІР°РµС‚
С‚РѕС‡РєРё
Р»РёР±РµСЂР°
##Р»РѕР¶
РњСѓ
##ly
##Р»РёРє
РґРѕРј
РґСЂСѓРіРёРј
##СЃС‚СЏ
РїРѕС…РѕР¶Рµ
РїСЂРµРґСЃС‚Р°РІРё
РїРёР·
##СЂРёРј
РЅР°С…РѕРґРёС‚СЃСЏ
##РїРѕР·Рё
РЅРµРєРѕС‚РѕСЂС‹Рµ
РїРѕРґСЂРѕР±
РЅРѕС‡СЊ
##РѕСЂР°
СѓРєР°Р·Р°
РёСЃС‚РѕСЂРёСЏ
РіСЂСЏ
##С‚С‹Рј
Р“РµСЂРјР°
##СЂРѕРІР°Р»
Р°Рј
##С„С‚
##РІСЂРµ
РҐР°
РјРѕСЂ
РїСЂРµРґСЃС‚Р°РІ
Р±Р»Рѕ
СѓРјРµСЂ
##iew
##Р·Р°С†РёСЏ
СЃРёСЃС‚РµРјР°
РїСЂРѕРµРє
СЃСЂРµРґРё
СЃС‚РѕР»Р°
СЃС‚СЂР°С€
РѕР±Р»Р°СЃС‚Рё
С…РѕР·СЏ
##Р»РµС‚Рµ
РёР·РјРµРЅ
РѕР±СЏР·Р°С‚РµР»СЊРЅРѕ
##РІРѕР±Рѕ
РїСЂРёС€
РґРІРµСЂ
##СЂР°С‚СЊ
РїРѕРґС‚РІРµСЂ
РІРµС‚
##С‚РёРєРё
80
С…РѕС‡РµС€СЊ
РљРѕРј
##50
##РїРµС‡Р°С‚
##РµРЅСЏ
РџСѓС‚РёРЅР°
СЃР»СѓР¶
##Р¶РґР°С‚СЊ
Р—Р°С‡РµРј
РїРµСЂРµРІРѕ
РєСѓРїРёС‚СЊ
РЅР°Рё
РѕС‚СЂР°
РєРёС‚Р°Р№
РєР°Рј
РґРµСЂРµРІ
##РЅСѓР»Рё
РїСЂРѕРµ
РІР·СЏС‚СЊ
С‚СЂРµР±Рѕ
РЎРѕР±
##С‡РёР»
СЂРµС€РёР»
СЂР°Р·Р»Рё
##Р»Р°СЏ
РїСЏ
РџРµС‚
СЃС‚РѕСЂРѕРЅСѓ
СЃРµРє
РїСЂР°Р·
СЃС‚РѕСЏ
##РґРµРєРІР°
СѓС‚Рѕ
РїРѕСЂСЏРґРєРµ
РјР°С‚
РєРЅРѕРїРєРё
РІРёРґРёРјРѕ
РѕС‚РєСѓРґР°
##РѕРІР°
РІС‹РїРѕР»
РїСЂРѕРёР·РІРѕРґРёС‚Рµ
СѓС‡Рµ
РЅР°С…РѕРґ
##СЂРѕРї
РґРµСЏ
РіСЂСѓРїРї
##РјРёРЅРё
РїР»РѕС‰Р°
##РґР°СЂСЏ
##С‚Р°Р»Рё
##С‚РµР№
СЃРІРµСЂС…Сѓ
РІРЅРёРјР°РЅРёРµ
РїРѕРІС‹
##РЅРёРєРѕРј
##Р»СЊРЅСѓСЋ
РїРѕРєРѕ
##С‡С‘С‚
##С‚РёР»
РЅР°СЂРєРѕ
Р±РѕРіР°
СЃРјС‹СЃР»
СѓСЂРѕРІРЅСЏ
РѕСЃС‚
РєРѕСЃРјРё
##РјРѕСЃ
РєРѕРјР°РЅРґ
Р’РѕРѕР±С‰Рµ
##РќРћ
РјРѕР¶РµС€СЊ
РїСЂРѕРіСЂР°РјРјРё
##РґР°РЅРёСЏ
pre
##РјР°С‚СЂРё
РіР»Р°РІРЅС‹Р№
РћРґРЅР°РєРѕ
##12
С‡РµС‚С‹
##С‚РµРЅ
##Р»Р°Рј
РѕС‚Рµ
Р•РіРѕ
СЂРµР±РµРЅ
##С‡РµСЃРєРѕРј
РїСЂРѕС€
Р±СЋРґР¶РµС‚
РєСЂРµСЃР»Рѕ
РјСѓР·С‹
Р РѕСЃСЃРёСЋ
СЃРёСЃС‚РµРјС‹
##РјС‹Р№
##С‡РµСЃРєСѓСЋ
##СЏРІ
РјРµС…Р°РЅРё
РїРѕРґРґРµСЂР¶Рё
РіР°СЂР°РЅ
СЂР°Р·Рѕ
РѕР±РЅР°
РџРѕС‚РѕРј
СЃРЅРёРјР°
СЃРїСЂР°С€Рё
С…РѕС‚РёС‚Рµ
;.
РџРѕСЃ
##РјС‹С…
##РµРјСЃСЏ
РіР»Р°РІРЅРѕРµ
Р·РІРѕ
Р±СѓРјР°
С†РёС„
Р“Р»Р°
РќР°РґРѕ
##РµРЅРЅРѕРј
Р±СѓРґРµС‚Рµ
СЃРїРµС†РёР°Р»Рё
РєР»Рµ
СѓРЅРёС‡С‚Рѕ
РІС‹СЃ
С‚РµРјСѓ
СЂРµСЃСѓСЂ
##РёРєР°
##Р°Р»СЊРЅС‹Р№
Р»РµСЃ
##СЂРµРІ
##С„РѕСЂРј
Р’Р»Р°РґРё
СЃРјРѕРі
СЃРµСЂРґ
##Р¶Р°Р№
##РґРµСЂР¶Рё
##Р¶РЅС‹Рµ
РЈРєСЂР°РёРЅС‹
РјРёСЂРѕ
##Р°Рї
##РЅРёР»
СЃРёС‚СѓР°С†РёРё
##РјС‹Рµ
РїРµСЂСЃРѕРЅР°
РђСЂ
С‚Р°РєСѓСЋ
РћРґРёРЅ
РІР»РёСЏ
РіР»Р°РІ
РјР°РіР°Р·Рё
РІРЅСѓС‚СЂРё
РЅР°СЃРµР»РµРЅРёСЏ
РіРѕС‚РѕРІ
РѕРїСЂР°РІ
РќР°РІРµСЂ
##С†РёР°
РёР±Рѕ
##art
РњР°Рє
##С‘Р·
РЎРєРѕР»СЊРєРѕ
Р»СЋР±Р»СЋ
Р±РѕРЅСѓСЃ
РґСЂСѓРіРѕРµ
СЃРІРѕРёРјРё
РІРїРµСЂРµРґ
and
##Р±СЏС‚Р°
РєР°РєРёРј
##СЃС‚РІРµРЅРЅРѕР№
##СЃСЏС‚
Р·Р°РїСЂРµ
##С„РёРєР°
РќРёРєР°
##ist
Р±СЂР°С‚СЊ
Р·Р°С…Рѕ
##РєРѕРјСѓ
##С‚РёРІР°
Р°Р±СЃРѕР»СЋС‚РЅРѕ
Р±РѕРј
РїСЏС‚СЊ
РЅРµР·Р°РІРёСЃРё
СЃРјС‹СЃР»Рµ
СЃРѕРј
РґРѕСЃС‚СѓРї
С†РµРЅС‹
РјР°РєСЂРѕ
##РїРѕРє
##РјС‹С€
##СЃРєРѕР»СЊРєСѓ
##РєРёРјРё
##СЃС‚РІСѓСЋС‚
РјР°С€РёРЅС‹
С‚РµСЂСЂРёС‚РѕСЂРёРё
РѕС‚РїСЂР°РІРё
th
##Р±СЂРё
##РЅРґР°
СѓРїСЂР°РІР»СЏ
##С‚РµР»СЊРЅС‹С…
РЅР°СѓС€РЅРёРєРё
##РѕР±РѕСЂРѕС‚
РёСЃРєР°С‚СЊ
РѕРґРЅРѕРј
СЃРїРѕСЂС‚
##СЃСЋ
РЎРјРѕС‚
РѕР±Сѓ
РєР°С‡РµСЃС‚РІРµ
##Р»РѕРіРѕ
РёСЃРїС‹
##С‡РµСЃРєРёРј
##С…Р°С‚СЊ
РѕС†РµРЅРё
##РІРµРґРµРЅРёСЏ
.)
РјРёРєСЂРѕС„РѕРЅ
.,
РїРѕРј
##С‚РёРєР°
РјРµСЂРµ
##РІРёРґСѓ
108
##РЅРєРµ
##60
РЅРµРјРµ
СЃРєРё
##РµС‚РµСЃСЊ
С…РѕС‚СЏС‚
##D3
РєРѕР»Рѕ
##СЂРѕРµ
##Р±РёР»Рё
##og
РїРѕСЃР°
СЃРµРєСѓ
СЂР°СЃРїСЂРѕ
##....
С†РµР»СЊ
РјРµСЂ
РјРёРЅРёРјСѓРј
СѓРІРµР»Рё
РљР°СЂ
##РґРµС†
РїСЂРѕС„РµСЃСЃРё
РѕС‚Р»РёС‡Р°
РњРѕСЃРєРІРµ
РєРѕРјРїР°РЅРёРё
##РіСЂСѓР·
##РЅРЅРѕР№
Р¤Рµ
РІС‚РѕСЂС‹С…
РіРѕР»РѕРІСѓ
##ff
##EX
СЃРєСѓ
С‚РѕР±РѕР№
РјРѕР¶РµРј
##ter
##РЅСЏС‚РЅРѕ
РЅР°СЃРєРѕР»СЊРєРѕ
РєРѕРЅРєСѓСЂРµРЅ
##РєРѕРјРµРЅ
##Р·СЊ
РєР»Р°РІРёР°С‚СѓСЂР°
##ec
РѕР·РЅР°
РґСѓРјР°Р»
СЂРµР·
Р°Р»СЊ
##----
СѓСЃС‚
198
##РіРёСЏ
СѓРїР°
Р°С‚
##СЂРёСЋ
СѓРїСЂР°
Р’РѕР·РјРѕР¶РЅРѕ
СЃРІСЏР·Рё
СЃРЅР°С‡Р°Р»Р°
СЃС‚Р°РЅРґР°СЂ
СЃРѕР±СЂР°
##________
РЈРєСЂР°РёРЅРµ
РґРµР»
РѕС‡РµСЂРµРґСЊ
##СЂРѕРІР°РЅРёСЏ
РґСЂР°
St
##РЅРёР»Рё
С€СѓС‚
##СЃСЃРёРё
##С‚РµР»СЊРЅРѕСЃС‚Рё
##90
СЂРµР°Рє
##РµС…Р°Р»
РјРѕРµРіРѕ
##СЃС‚РІРµРЅРЅС‹Рµ
Р’РµСЂ
РІС‹Р±РѕСЂС‹
##С‡РёС‚Р°С‚СЊ
Р»СЋРґСЏРј
С‚СѓРїРѕ
СЂР°Р±РѕС‚Рµ
РїСѓС‚Рё
РІРѕРІСЃРµ
РѕСЂРіР°РЅ
##РіРµРЅ
21
СѓРІРµСЂРµРЅ
РЎС‚Рѕ
##СЏСЃСЊ
Р·РґРѕСЂРѕРІ
##РЅР°РєРѕ
##РёРЅРѕ
##РєСЂСѓ
РІРµСЃСЊРјР°
##РќРђ
СЌРєСЃРїРµСЂРё
##РїР°СЃ
##РґРёРј
РіРѕСЂРѕРґРµ
РЅР°РїРёСЃР°Р»
РїР°Р»СЊ
РіРѕСЂРѕ
РїСЂРёРґСѓРјР°
СЃРїРѕРєРѕР№
СЃРѕР±Р°
##СЃС‚Р°РІРєРё
Р±СѓРґС‚Рѕ
РєР°РєСѓСЋ
##Р Рћ
РІРЅРµС€
##РґС‹РґСѓ
##С‚Р°СЂ
РјРµС‚Р°
al
РґРµРјРѕРєСЂР°
РєРµРј
С‚РµРїР»Рѕ
С†РµР»РѕРј
РїСЂРёРІРѕ
##Р¶РЅС‹С…
СЃРґРµР»Р°Р»Рё
##РµР·Рґ
##СЂРѕРіРѕ
РіР°СЂРЅРёС‚СѓСЂР°
РѕС‚РЅРѕС€
##РµС…Р°С‚СЊ
РїРёСЃР°С‚СЊ
СЂРµР№
РўРµРј
РїСЂРёРіРѕ
##РµРЅРѕ
##РІР°РЅРёРё
UC
##РєРЅСѓ
##РЅРёРЅ
РЅР°С‡Р°Р»
РєР°РЅРґРё
РїСѓРЅРє
РћС‚Р»Рё
С€Р°РЅ
РѕСЃРЅРѕРІ
РїРѕРІ
##Р№РґРµС‚
##С‡Р°СЏ
РїР°Рј
HEX
##СЃС‚РІРµРЅРЅС‹С…
СЃС‚СЂРѕРё
Р·Р°РІРѕ
РѕС‚Р»РёС‡РЅРѕ
РёР·РІРё
UC5
ED3
##Р±СѓСЂ
РјРµРґРёС†Рё
РёРіСЂСѓ
24
##СЃР°РјРё
РґРѕРїРѕР»РЅРё
РєР°РЅРґРёРґР°
РјРѕРјРµРЅС‚Р°
РЅРµС‘
##РІРµР»
РёРјРµСЋС‚
РРЅС‚РµСЂРµСЃ
РљСЂРѕ
РѕС†РµРЅ
##РЅРёС‚
##СЃРєРёРјРё
СЃС‡РёС‚Р°СЋ
РЅР°С€РµР»
РІР·Р°
Р§Сѓ
РµСЃС‚Рµ
РіР°Р·
##view
##С‚РµР»
##Р»РµРЅРЅС‹С…
РЅРѕРІС‹Рµ
РІРїРµСЂ
##СЂРёСЃС‚Рё
##РґРёС‚СЃСЏ
##Р»РµРЅРѕ
СЃСѓС‰РµСЃС‚РІРѕ
##Р°Р»СЊРЅС‹С…
Р»Р°РґРЅРѕ
Р›Р°РґРЅРѕ
!"
С„Р°РЅС‚Р°
##С‰РёРє
Р’СЃРµРј
##Р¶Р°Р»Рё
РІРЅСѓС‚СЂРµРЅ
РєР°СЃР°
С…РІР°С‚РёС‚
РіРѕСЃСѓРґР°СЂСЃС‚РІР°
РјРѕР¶
##СЋР·
РЅР°С€Рµ
70
Р±РѕР»СЊС€РёРЅСЃС‚РІРѕ
##РґРЅС‹Рµ
РіРѕСЃ
РґСЂСѓР·СЊСЏ
##ok
##РЅРµС‚СЃСЏ
##СЃС‚РёС‚Рµ
##СЂР°СЃ
С‡РµСЃС‚РЅРѕ
С„РёРЅР°РЅ
СЃСѓР±
РїРѕР»СЊР·РѕРІР°
РјСѓР¶Рё
##СЌР№
Р›Рѕ
##РЎРў
Р·РЅР°Р»
Р·Р°РїСѓ
##РґРЅРѕРµ
##ev
РґРѕРјРѕР№
РЅРёР·
##Р»РѕР¶РёС‚СЊ
##С‚РєРµ
РІРєСѓСЃ
##Р·РІСѓ
##РїРѕРј
РЅРµРЅР°РІРё
СЂРµРєР»Р°
РќРёРєРѕ
##РІР°Р»Рѕ
##С‚РµР»СЊРЅРѕР№
С‡РёС‚Р°С‚СЊ
##Р»РµРЅРЅС‹Рµ
РІР·РіР»СЏРґ
##С€РёС‚СЊ
РџСЂРёРІРµС‚
Р§С‚РѕР±С‹
##СЃС‚РёРєР°
РЅРµРїР»Рѕ
##**
##РІС€РµР№
Р‘РµР·
СЂСѓРєРѕ
СЃС‚РѕРёРјРѕ
##СЂРѕРІР°РЅРёРµ
РєР°С‚Р°
РїР»Рµ
РСЃ
##РІР»СЏРµС‚
РєРѕСЂР°Р±
СЃР°РјРѕР№
РћСЃРѕР±РµРЅРЅРѕ
РёРјРµС‚СЊ
РІРµР·РґРµ
##РµРЅРµСЂР°
##РєС‚РѕСЂР°
##РјРµСЃС‚
##РґРёСЏ
РјР°СЃСЃРѕ
##РЅРѕРјСѓ
РєР»СЋ
С‚РєР°
Р°РЅРіР»РёР№
СѓСЃС‚СЂРѕ
РїСЂРѕС‡Рё
500
Р¶РµСЂС‚
##РїСЂРѕСЃ
СЃРјР°
##СЂСЏС‚
РїРѕР»Рµ
РІСЃРїРѕРјРЅРё
РїСЂР°Р·РґРЅРё
Р±РµР·РѕРїР°СЃРЅРѕ
##С†Р°Рј
РѕРєР°Р·Р°Р»РѕСЃСЊ
РїСЂРµРґС‹РґСѓ
РѕР±РІРё
preview
Р Рё
Р Р°СЃ
С‡РёСЃ
РјСѓСЃРѕ
##С‰Р°С‚СЊ
РјРѕРµ
##Р»РѕР¶РµРЅ
РѕСЂР±Рё
##СЋС‰РµРµ
##РµРґРёРЅ
РґСЂСѓРіСѓ
РёРјРё
##РѕСЂСѓ
##С‡РёРІР°С‚СЊ
РћРї
РњРµРЅСЏ
РёРґС‚Рё
Р›Р”
Р’РµРґСЊ
##СЂРµРјРё
##РІСЂРµРјРµРЅРЅРѕ
РјС‹СЃ
Р·Сѓ
197
##РґРЅС‹Р№
##РІС€РёСЃСЊ
##Р¶РєР°
##Р·РѕРІР°С‚СЊСЃСЏ
##С‡РµРЅРёРµРј
СѓСЂРѕРІРµРЅСЊ
С‡РёСЃС‚Рѕ
РїРѕСЂРѕ
СЂРµР°Р»Рё
Р”СѓРјР°СЋ
##РІС€РµРіРѕ
Р§Р°
РІРёРґСѓ
##РїРѕСЂ
РЅР°РѕР±РѕСЂРѕС‚
##ia
Р±Р»Р°РіРѕРґР°СЂСЏ
Р·Р°РІС‚СЂР°
РїСЂРёРЅС†РёРїРµ
##ra
##РјРёСЂР°
##РµРјС‹Р№
##РїРѕРІ
##РІР°РµС‚Рµ
СѓР»РёС†Рµ
СЃРєРѕСЂРѕСЃС‚СЊ
С‚РµР»Рѕ
РґР°РЅРЅС‹Рµ
РІС‹РіР»СЏРґРёС‚
РјР°С€РёРЅСѓ
Р·Р»Рѕ
РіСЂРµ
РЅР°СЂРѕРґР°
##РµСЂСЃ
РѕРґРµ
196
##СЃРєРѕРјСѓ
РЅРµРёР·
РІС‹РґР°
##oc
##РЅС‚
##СЂРёР»
Р°РІС‚РѕСЂ
РґРѕР±СЂРѕ
##С‡РёСЃ
РєР°РїРёС‚Р°
##РѕР»РѕРі
##РіРµСЂ
##Р•Рќ
##РєР»Рѕ
##ul
22
##РјРёС‚СЊ
##РІРєРё
##С‚РѕСЂРѕРІ
Р·Р°РґСѓРјС‹
РРјРµРЅРЅРѕ
РЎРєР°
СѓРіРѕРґРЅРѕ
Р»РёС†Рѕ
РІРѕРґС‹
##СЌСЂ
##СЃС‚РѕСЂРѕРЅ
СЃСЂРѕ
РєРѕРјРё
СЏСЂ
Р¤Рё
РґРµРІРѕ
С…РІР°С‚Р°РµС‚
Р»СЋР±
##СЃС‚РІРёРё
РЎРѕРіР»Р°
##Р°С‚Р°
РѕСЃСѓ
Р§Рё
С‚Р°РєРёРјРё
РїРѕРјРѕС‰СЊСЋ
РѕРїР»Р°
##Р±РµРЅРѕРє
РїРµСЂРІРѕР№
##РґРµРЅРёСЏ
193
РѕСЃС‚Р°Р»СЊРЅРѕРµ
СЃР°РјС‹С…
Р·Р°РєРѕРЅС‡Рё
РґР°СЋС‚
РјРµС‡
СЃС‚Р°СЂР°
СЂРµС€
##С‰РµРЅ
##СЂРµР»Рё
С‚Р°РєРѕРј
С‡РµС‚С‹СЂРµ
##Р»СЊРЅРѕРј
РіРѕРґС‹
Р·Р°Рј
Р¶Рѕ
РЎР°РЅ
##Р»РѕР¶РµРЅРёРµ
##РІСЏР·Р°
СЃРѕР·РЅР°
##СЂР°Р¶
С‡РµРјСѓ
С‡Р°СЃР°
##СЂРѕРІРѕ
Р°РїРїР°СЂР°
##С†РµРї
РїСЂРµРґСѓ
##СЃС‚РІРµРЅРЅРѕРµ
СЂРµРіСѓР»Рё
РІС‹РіРѕ
##С€С‚Р°
РєР°Рґ
РѕР±СЉСЏ
РєР»
РїРѕРјРѕС‡СЊ
##Р¶РєСѓ
С‚РµРјРїРµСЂР°
##СЂСѓРє
РІРїРµС‡Р°С‚
Р°РЅР°Р»Рё
2016
РЅРµРѕР±С…РѕРґРёРјРѕ
РІСЃСЏРєРёС…
##Р±РѕРІ
##РєР»РѕРЅ
РЅРµРґРµР»СЋ
##С†РµРј
РёР·РЅР°С‡Р°
##РїРµРЅРё
СЃСѓРґ
##СЃРѕРЅ
Р–РёСЂРёРЅРѕРІСЃРєРёР№
##РЅРєСѓ
СѓСЂРѕРІРЅРµ
СЃСѓС‰РµСЃС‚РІСѓРµС‚
##РґРёР»СЃСЏ
Р›Р”РџР 
##СЃР»РµРґ
РЅРёР¶Рµ
С„РѕСЂРјСѓ
СЃСѓС‚Рё
РґСЂСѓРіРѕРј
СЃРєРѕР»СЊ
РЅР°СЃС‚СЂРѕР№
Р­Р№
СЃСЂР°РІРЅРё
СЂР°Р·РіРѕ
РІРµР»Рѕ
##С‚РёРј
РѕС‡РµСЂРµРґРЅРѕР№
Р±РёР·РЅРµСЃ
С‚РѕРІР°СЂРё
РјС‹СЃР»Рё
РїРѕРіРѕРІРѕ
РѕР±СЂР°С‚РЅРѕ
Р±РѕСЂСЊ
##С‚РµР»СЊРЅРѕСЃС‚СЊ
СЃРІСЏР·
СѓРґ
Р”РµР»Рѕ
РґР°С‚СЊ
РІРёСЂС‚Сѓ
РІС‹Р±РёСЂР°
РїР°СЂС‚РёСЏ
##ri
300
Р±РѕРµ
РїСЂРµРґСЃС‚Р°РІРёС‚СЊ
РЅР°РїСЂСЏ
РІР°С€РёС…
РІС‹СЏСЃ
Р·Р°РЅРёРјР°РµС‚
РІС‚РѕСЂ
РјР»РЅ
РѕРєРѕРЅ
##СЃР°РЅРґ
РјРµР»Рѕ
СЃРѕРіР»Р°СЃРµРЅ
##С‡РёРєРё
СЂР°Р·РјРµ
##СЂРёС‡
##С‡РµС‚Р°
##Р±РµР»Рё
##РІРµР№
РіР»Р°Р·
150
РёРЅС„РѕСЂРјР°С†РёРё
СЂР°РґРѕ
##РµРЅРЅРѕСЃС‚Рё
СЃРґР°
РјРµРЅРµРґР¶
РІРѕР·РјРѕР¶РЅРѕСЃС‚Рё
РЅС‹РЅРµ
РїРёС‚Р°
##СЃРµСЂ
##op
РїРѕСЃР»РµРґРЅРёРµ
Р”РѕР±
##С‚РµР»СЊРЅРѕРіРѕ
РјР°Р»СЊ
РЎРЁ
РћСЃС‚Р°
##Р¶Р°СЋС‚
##РіР°С…
РѕРєР°Р·С‹РІР°
##С‰Р°РµС‚
РїРѕР·РІРѕР»СЏРµС‚
Р‘РѕР»СЊ
РїСЂРѕС‡РёРµ
##С„РѕРЅР°
Р°СЂРіСѓ
##РіРЅР°
##РєСѓСЂР°
РїСЂРµРєСЂР°СЃРЅРѕ
РѕС‚РґР°
##СЂРёРЅ
Р·Р°СЏРІ
!!
РЅР°Р±Р»СЋРґР°
РѕСЃРІРѕР±Рѕ
РїРѕРї
С‚РµР»
РЅРѕСЂ
Р·Р°Рґ
С…РѕСЂРѕС€РёР№
Р°РєС‚
С‚СЋ
РґРёР·Р°
##С…РѕР¶Рµ
##Р»Р»
Р”СЂСѓ
СЃРєР°Р·Р°Р»Р°
##РїРёСЃ
СЃР»РµРґ
СѓРґРѕРІРѕР»СЊ
СѓРїРѕРјРёРЅР°
##Р¶РЅРѕРј
РєР°РєРѕРј
##РїСЂРѕС‡РµРј
##СЏРґ
##ss
##РґРЅС‹С…
##РІРёС‚
РїРѕРґРѕР·
Р·РЅР°СЋС‚
РґСЂСѓРіРѕРіРѕ
##РїСЂРёРЅРёРјР°
##Р±Р°СЏ
##СЋРіР°
##С‚РёРІРЅРѕ
##РјРµРЅС‚РѕРІ
##ep
##С€Р°Р№
РїР°С‚СЂРё
##РњР
РѕС‚Рѕ
##Р»Р°С…
РјРµР»
##РґСѓСЋ
##РІРµРЅ
РїРѕСЃС‚Сѓ
РїСЂРѕСЃС‚РѕР№
СЂР°Р·РјРµСЂ
С‚РµР»РµС„РѕРЅ
##РґР¶Рµ
##РґС‘С‚
##РїСЂРµРґРµР»
Р·Р°РїСЂРµС‚
РќР°РІРµСЂРЅРѕРµ
##СЂР°Рґ
РѕРїС‹С‚
Р»СЋР±РѕРј
##С‚РµРє
РєРѕР¶Р°
РЅР°С‡Р°Р»Рё
РќРѕРІ
##РґРѕС…
СЃС‚СЂР°РЅСѓ
##С‚Р°Р»
СЃР°Р№С‚
195
##ha
##СЂРёС†Р°
РЅРµСЃРє
РљСЂС‹Рј
##РіРёРЅР°
Р‘РѕР»РµРµ
РІС‹СЃРѕРєРѕ
##РЅРёРєР°РјРё
СЂРµР±РµРЅРѕРє
РѕРґРЅРѕРІСЂРµРјРµРЅРЅРѕ
РїР»Р°РЅРё
РџРѕР»СЊ
РІРѕСЃСЃС‚Р°
РЅРёРєР°РєРѕР№
192
РђР»РµРєСЃ
Р РѕСЃСЃРёР№
Р·Р°Р±Р°
Р­С‚РѕС‚
РїСЂРёР·
##С„С‹
Р·РѕР»Рѕ
РјСѓР¶С‡Рё
РїСЂРѕСЃ
РїСЂРёС€Р»РѕСЃСЊ
СЃРѕС…СЂР°
##Р»СЊС‚
##Р¶РµС‚СЃСЏ
##РЅРёС†Рµ
Р·Р°РєРѕРЅРѕ
РІСЂРµРјРµРЅ
СЃРѕСЃС‚Р°РІР»СЏ
##РµРјС‹С…
РѕС‚РїСЂР°РІР»СЏ
##Р»СЊСЏ
##РђР 
РєРѕРјРїСЊСЋС‚РµСЂ
РќРёС‡РµРіРѕ
Р·Р°С…РІР°
СѓРјРµРЅСЊ
РђР»РµРєСЃР°РЅРґ
РїСЂРёС‡РµРј
РїРѕРјРЅРё
##17
С„Р°РЅР°
СѓРіСЂРѕ
##РѕР»Рѕ
##and
СЂРµРІРѕР»СЋ
СЏРІРЅРѕ
##СЃРµР№
Р·РЅР°РєРѕРј
##РјСѓСЋ
С‚РµСЂСЂРѕ
##РїР°РґР°
##Р»РёРЅР°
РїРѕР»СѓС‡РёР»
РљСЂРѕРјРµ
##С‰РёРј
РќР°РІР°
РїСЂС‹
СЌР»РµРј
РїСЂРѕРїР°РіР°РЅ
СЃРµРєСЂРµС‚
##Р¶РµР»Р°
СЃС‡РёС‚Р°С‚СЊ
СЃС†
СЂР°СЃСЃРєР°Р·С‹РІР°
СЌРјРѕ
РЅР°РїРёСЃР°РЅРѕ
##РѕС…
РїРµСЂРІСѓСЋ
РІРѕРґ
РґРµРє
РєРѕР»Рµ
РєРѕРЅС†
Р»РµС‚Р°
##Р¶Р°С‚СЊСЃСЏ
##РјР°СЏ
##СЃС‚РІРµРЅРЅРѕРіРѕ
##РЅСЋСЋ
##СЃС‚СЂРµРµ
РїРѕРїСѓР»СЏСЂ
СЃРІРµС‚Рѕ
Р•РІ
Р»СЋР±С‹
РёСЃС‚РѕСЂРёСЋ
СЃРјРµСЂС‚Рё
РјРёР»Р»РёР°СЂ
РёРЅС‚РµСЂРЅРµС‚
РЅРµРґР°РІРЅРѕ
РїРµСЂРІРѕРј
##РЅРµРІ
##РІР°РЅРёР№
##Р°Р»СЊРЅРѕР№
##РіРёРµ
СЃРЅР°
23
РґРµРІР°Р№
РІСЃРµРјСѓ
СЃРµР»СЊ
##Р»РєРµ
СѓСЃР»РѕРІРёСЏС…
СѓРґРёРІРё
Р°Сѓ
РіРѕРІРЅРѕ
РёРЅС‚РµСЂРЅ
##РІР°РЅРёРµРј
Р°РіСЂРµ
Р·Рµ
РїРѕРєСѓ
СЂРµС€РµРЅРёСЏ
РґРµСЃСЏС‚СЊ
СЂРµС€РёР»Рё
СЂР°СЃС‚
РїРёСЃСЊ
РІС‹С…РѕРґ
РІРЅ
РІС‹С…Рѕ
РјСѓР·
Р·Р°С‚Рѕ
##РїРѕРґР°
СЂР°СЃРїРѕР»
РіСЂРѕ
Р‘РѕР»СЊС€Рµ
##РѕРЅС‹
РІСЃС‚
##РґР°РЅРёРµ
РІРёРЅРѕРІР°
СЃС‚СЂР°РЅР°
Р·СЂСЏ
РєРѕРЅС†Р°
РїРѕРіРё
The
РІРѕСЃС‚Рѕ
Р¤СЂР°РЅ
##С‚РЅРѕР№
РјРЅРµРЅРёСЋ
##РєР°С‚СЊ
РЅРµС„
?)
РѕСЃС‚Р°Р»СЊРЅС‹С…
СЃС‚РѕСЂРѕРЅ
РїРѕР¶Р°
РїСЂРёС‡РёРЅР°
СЃСѓРґСЊ
СЃСѓРїРµСЂ
СЃРµР»
РїСЂРµР¶
Р“Сѓ
##СЌРЅ
Р§РµРј
СѓРЅ
СЃРѕР»РЅ
##СЃРјРѕС‚СЂСЏ
##СЃС‚РІРµРЅРЅР°СЏ
РІРєР»СЋС‡Р°СЏ
С„СѓРЅРє
РёР·РЅР°С‡Р°Р»СЊРЅРѕ
РїРёСЃР°Р»
РїРѕРіРѕ
##РјРёРЅРёСЃС‚СЂР°
##РЅСЏРµС‚
С‚РµР»РµРІРё
##РєРѕР»
СЂР°Р·СЂСѓ
##10
РєРѕРЅС‚
##РјРј
РїРѕРЅСЏР»Рё
СѓРІР°Р¶Р°
191
РіРѕР»
##С„Сѓ
РґРµР№СЃС‚РІРёСЏ
РґРѕР»Р»Р°СЂРѕРІ
##Р»Р»Рµ
РєРѕРЅСЃС‚СЂСѓРє
СЂР°РґСѓ
##СЂРµРЅРёРµ
РЅРµСЃРјРѕС‚СЂСЏ
##Р»Р»Р°
Р’РµР»Рё
СЃРІРѕС‘
##РµРЅРЅРѕСЃС‚СЊ
РІСЃРµРјРё
##Р°Р»СЊРЅРѕРіРѕ
СЃС‚Р°С‚Рё
РїРѕР±
РїР»СЋСЃ
РїСЂРёРІ
РіРѕСЃСѓРґР°СЂСЃС‚РІРѕ
##ob
##РЅР°РІР»Рё
##Р±СЂРµ
СЂРµРі
##РёР»РёСЃСЊ
##Р°СЂРѕРІ
РЅРѕРІРѕРіРѕ
РІС‹Рї
С†РµСЂ
С‚СЂСѓРґРЅРѕ
СЂР°РЅ
##Р¶РµР»Рё
СЃРєСЂС‹
Р•РґРёРЅРѕР№
##Р¶РЅРµРµ
СЃС‚Р°РІРёС‚СЊ
С‚РІРѕР№
##ld
Р·Рё
##РµС…Р°Р»Рё
РїРµСЂРµР¶Рё
СЃРїСѓС‚
РµСЋ
РІРєСѓ
##Р»РѕР¶РµРЅРёСЏ
##РјР°С‚СЊ
РІС‹СЃС‚СѓРї
СЃРѕРѕР±С‰Р°РµС‚
##Р·РµРј
С…СЂР°
РїСЂРёРј
РќР•
РІРѕР·СЊ
СѓС‚
СЃРёСЃС‚РµРј
СЌС„С„РµРєС‚
##РєРѕРІС‹С…
С‚РµРјР°
Р°С‚РјРѕСЃ
##РѕРЅРё
РЅР°Р·С‹РІР°РµС‚СЃСЏ
РѕСЃС‚Р°Р»СЊРЅС‹Рµ
С‚РѕСЂРјРѕ
##РІРµРґРµРЅРёРµ
##Р»РµРґ
##Р»РµРЅРЅРѕР№
РІС‹Р·
;,
##СѓРµС‚
РїРѕСЃРєРѕР»СЊРєСѓ
##РµР№СЃ
РёР·Р±Рµ
РєР°СЂС‚Рѕ
##С‡Р°Р»
РїРѕСЃРµ
С‚СЂР°РґРё
##С€РєРµ
РёР·Сѓ
С‚РѕРїР»Рё
РџРћ
РєСЂРёС‚Рё
СЃР»РµРґСѓРµС‚
С…СѓР№
РїРѕР»СѓС‡РёР»РѕСЃСЊ
##РґС†Р°
РёСЃРє
РІРµРєР°
Р—РґРµСЃСЊ
СЃРїРѕСЃРѕ
РЈРєСЂР°
РїСЂРѕРІРµСЃС‚Рё
##РљРћ
РІС‹Р±СЂР°
##СЂРёРє
РїСЂРµС‚
РѕС‚Рј
РђРІС‚Рѕ
##С‰Р°С‚СЊСЃСЏ
РЅРµРјРµС†
##РіСЂР°С‚СЊ
С„СЂР°РЅ
РјР°РјР°
РЅР°СѓС‡
РЅР°РїРё
СЂРµР·СѓР»СЊС‚Р°С‚Рµ
Р·Р°С‚РµРј
РїРѕРјРѕС‰СЊ
##С‡РєРѕР№
РёРґРµСЏ
РјР°Р№
РґРµС‚Р°
РЎР»Сѓ
СЂРµРјРѕРЅ
РєСѓСЂСЃРµ
СЂРµРєРѕРјРµРЅ
РїРѕС‚СЂРµ
РЅРµРґРѕСЃС‚Р°
СЂР°Р·РЅРёС†Р°
##РІРѕР»
СЃРѕРіР»Р°СЃРё
С‚СЏР¶РµР»Рѕ
РѕРіРѕ
РЅР°С€РµРіРѕ
РІРЅРёРјР°РЅРёСЏ
РљРѕСЂРѕ
РїРѕСЃС‚Р°РІРё
РІР·СЂС‹
РґР°Р»РµРµ
Р°Р»РєРѕРіРѕ
Р±Р°СЂ
СЂРµР¶РёРј
СЏРЅ
РІС‡РµСЂР°
##С…РѕРј
##РЅРёРєСѓ
СЂРµР·СѓР»СЊС‚Р°С‚
##ka
РїРѕС‚Рѕ
СѓС‡Р°СЃС‚Рё
##С€РёС‚Рµ
РїРµСЂРІРѕРіРѕ
РІРёРґРёС‚Рµ
СѓСЃС‚СЂР°Рё
СЃР»СѓС‡Р°СЏС…
##С‡Р°Р№
РїСЂРµРєСЂР°СЃ
СЃРєРѕСЂРѕСЃС‚Рё
РєРѕРЅС„
РµРІСЂРѕРїРµР№
СЃРєР°Р·Р°Р»Рё
##РёР»Р°СЃСЊ
Р°Р¶
Р±РѕР»РµР·
##С‡РЅРµРµ
РђРјРµСЂРё
РїРѕСЃРѕ
РїРѕР»СѓС‡РёС‚СЃСЏ
РєРѕРјС„РѕСЂ
##РµРіРѕРґРЅСЏ
##РїРёСЂР°
##С‡РёР»Рё
СЃС‚РѕР»РѕРј
С†РµР»Рё
РіР»СѓР±Рё
##Р±РѕСЂР°
##С‡РµРЅС‹
РіСЂРѕРј
РїР°СЂС‚
СЂР°Р±РѕС‚Р°СЋС‚
Р±С‹РІР°СЋС‚
РѕРїРїРѕР·Рё
##40
С€С‚СѓРєР°
##С…Р°РЅРёРµ
Р·Р°РІРёСЃРёС‚
РіРѕР»РѕРІРµ
РЅР°Р·РЅР°
С‡Р°СЃ
РёСЃРєСѓСЃ
##РґРёС€СЊ
СЃРµС‚
СЃРµРЅ
##РЅРЅР°СЏ
СЃРЅСЏ
##Р°Р»СЊРЅС‹Рј
##РґРєСѓ
РїСЂРѕРІРµСЂРёС‚СЊ
107
РїРѕРІРµСЂС…РЅРѕСЃС‚Рё
РєРЅРёРіРё
СЃР»РѕРІ
Р•РґРёРЅР°СЏ
РјРѕРёС…
##РЅРґСЂРѕ
СЂРѕР»Рё
##РµРјР°СЏ
СЃРёР»С‹
РїСЂРёРґРµС‚СЃСЏ
##Р Рђ
РјР°С€РёРЅР°
РїРѕС‚РµСЂСЏ
РђРіР°
##Р»РµРЅРЅС‹Р№
РїСЂРѕСЏ
##РІСЊ
РЎРµРіРѕРґРЅСЏ
РѕРїСЂРµРґРµ
РІРµРє
РѕС‚РІРµС‚СЃС‚РІРµРЅРЅРѕ
РґРµР»Р°СЋ
Р·Р°РїР»Р°
С‚Р°РЅ
##РёРЅС‚РµСЂРµСЃ
##РїР»Рµ
РРі
РјС‹С€СЊ
РЅР°Р¶Р°
Р¶РµРЅР°
С‡РµРјРїРёРѕРЅ
##СЂРєРё
РЅР°РєРѕРЅРµС†
Р’Р»Р°РґРёРјРё
##С‚РєСѓ
РїРѕР»РёС†РёРё
##С‡РёР№
СЃРЅРµ
РїСЂРѕС‚Рµ
##if
##РµРЅС‚С‹
!).
Р±Р°Рє
СЃРєР°Р¶Сѓ
##РєРѕРІРѕРґ
Р—СЋРіР°
##Р°Р»СЊРЅР°СЏ
СЃРїР°СЃР°
##СЃС‚РІСѓСЋ
РїСЂРѕС†РµСЃСЃ
##Р»РµРІ
С„СЂР°
СЃРёРґРµС‚СЊ
СЃРµРЅС‚
РіР»СѓР±Рѕ
РљРѕСЂ
##Р»Р°Рі
СѓРІРёРґРµС‚СЊ
РїСЂРёР±С‹
РЅРёРєРѕРјСѓ
СЂР°Рј
РїСЂРѕСЃС‚С‹
##С…СЂР°РЅ
РєР°Р±РµР»СЊ
##Р±РѕРј
РїР»Р°РЅРµС‚
РЅР°С‡Р°Р»Рµ
##her
РѕРґРЅРѕРјСѓ
##СЌСЂРѕ
РЎРѕРІРµС‚
##СЂРµР·Р°
СЃРѕСЃС‚РѕСЏРЅРёРё
Р·Р°Рі
Р·Рґ
РјРѕРіР»Р°
РїРѕРґСЃР°
СЃРјС‹СЃР»Р°
С‰РµР»
РёРјРµСЋ
РґР°РІР°Р№С‚Рµ
С‚Р°Р№
РїРѕРјРѕС‰Рё
##РєР»СЋС‡РёС‚СЊ
РІРµСЃРµ
РїСЂРѕС†РµРЅ
РґР°Р»СЊ
РџРѕРїСЂРѕ
##РµРјРѕР№
##СЃРёРїРµ
##====
РІРµСЂРЅРѕ
##Р¶СѓС‚
СЂР°Р·Р±РёСЂР°
СЃРІРѕРµРј
##РјСѓС‰Рµ
РїРѕСЃР»РµРґРЅРёР№
##Р»СЊРµ
##С‚РµР»РµРј
РєР°Р·Р°Р»РѕСЃСЊ
РІРёРґРµС‚СЊ
СѓС‚СЂР°
РїРѕР»СЊР·РѕРІР°С‚СЊСЃСЏ
##РІР°РЅРёСЋ
Р±РѕР»СЊС€Р°СЏ
РІСЂРµРјРµРЅР°
РёРјСЏ
##РіР°СЂ
РєР»Р°СЃСЃРё
##Р°Р»СЊРЅРѕРµ
РјРµСЃСЏС†РµРІ
СЂР°СЃСЃРјРѕС‚
##РѕС‚Рё
СЃРёРјРјРµС‚
РЅРµРјР°
С‡РёРЅРѕРІ
##РџРѕ
##С€РѕР№
СѓРґРѕР±РЅРѕ
##СЃС‚РЅРѕСЃС‚Рё
##С‰РµРјСѓ
##РіР°Р»
СЃРµСЂРґС†Рµ
##РїРёСЃР°С‚СЊ
##...
РїРµС‡Р°
РґСѓРјР°С‚СЊ
СЃР»СѓС‡РёР»РѕСЃСЊ
##РІРѕРІ
РїРѕР±Рѕ
РєСЂР°СЃРѕС‚С‹
##РґР°Рј
РІРѕР·РІСЂР°С‰Р°
##Р»С‹Рј
РґРЅРё
РІРѕРґРѕ
РїСЂРёСЏС‚РЅРѕ
С†РµРЅС‚СЂР°
СЏСЃРЅРѕ
##СЃС‚Р»Рё
##Р»СЏРјРё
##РЅРёРєРµ
РјРЅРѕРіРѕРµ
РєР°РЅР°
##РіРЅРѕ
РєРѕРјРїР»РµРєС‚Рµ
РіР°СЂР°РЅС‚Рё
##С‡С‘
##РїСѓСЃРє
##РЅРЅРѕРіРѕ
СЏР·С‹Рє
##РІРЅС‹Рµ
Р¶РёРІСѓС‚
Р·Р°СЂР°Р±Рѕ
РѕС‚РЅРѕС€РµРЅРёРµ
AM
РґРѕРіРѕРІРѕ
СЂРµР±РµРЅРєР°
!)
РѕСЃРІРµ
РґРµР»Рё
РЅРёРєРѕРіРѕ
##Р»РµР¶Р°
РѕС‡РµРІРёРґРЅРѕ
Р·Р°РґРЅРё
РЅРµРїСЂР°РІРё
##С‚Р°С†РёРё
РѕРґРЅР°РєРѕ
##РІРєР°
##РґСЊРјРё
РїСЂРѕС‡РµРµ
##bo
РІРє
РњР°Р№
СЃР»С‹С€Р°Р»
##СЂС‹Рµ
С‚С‹СЃ
РѕР»Рё
##С€РµРґ
РїСѓС‚СЊ
РС…
##РµС‚Сѓ
РЈР¶Рµ
##СЂР°Рё
Р±СЂРё
##ation
РіР»СѓРїРѕ
РРЅС‚РµСЂРµСЃРЅРѕ
РїСЂРµРІСЂР°С‰Р°
СЃР°РјР°СЏ
##С€РёС‚
РїРѕСЏРІР»СЏ
РЅРѕРІС‹С…
РїСЂРѕСЂРµ
Р±РѕСЏ
РЎРѕР±СЃС‚РІРµРЅРЅРѕ
РџРѕСЃРјРѕС‚
РєСЂ
СѓР·РЅР°С‚СЊ
РїСЂРѕС„РµСЃСЃРёРѕРЅР°
35
СѓР±
СЃС‚СЂР°РЅРЅРѕ
РїСЂРѕР±Рµ
РЅРµРјСѓ
##РїРЅРѕ
##СЉРµ
Р·РІРµР·
СЂР°Р·РІ
##С‚Р°С‚СЊСЃСЏ
##СЃС‚РІРёРµРј
РњРµС…Р°
РЅРѕРјРµСЂ
РјРµР±РµР»Рё
##ers
##С€Р°Р»Рё
РїРѕС‚СЂРµР±
СЂСѓРєРѕРІРѕРґ
##РїСѓСЃС‚РёС‚СЊ
##СЂСѓСЋС‚СЃСЏ
РµРґРёРЅРѕ
РѕР·РІСѓ
РїР°СЂРµРЅСЊ
Р±С‹СЃС‚СЂРµРµ
##РєС‚Р°
РјРµС‚СЂРѕ
РєРѕРµ
Р’РѕР»
РўСѓ
РјРµСЃСЏС†Р°
РјР°Р»РµРЅСЊРєРёР№
С„РѕСЂРј
РіР»Р°Рґ
РЅРµРїР»РѕС…Рѕ
##С‚СЂРµР±
##РІРёРЅ
Р°РІРіСѓСЃС‚
Р·РЅР°РµРј
##СЂР°Р±РѕС‚
РіРѕСЃРїРѕ
##РІР°Р»РѕСЃСЊ
РґСѓСЂР°
##С‡РёРєРѕРІ
РІРµС‡РµСЂ
СЃРѕРґРµСЂР¶Р°
РїСЂРёСЃСѓС‚
РѕРїСЂРѕ
##СЃС‚СЂ
##РіР°Рј
Р›РµРЅРё
РїРёС€Сѓ
РѕСЃРѕР·РЅР°
СЂСѓСЃСЃРєРёС…
РїР»Р°С‚РёС‚СЊ
##С„РµСЂРµРЅ
РѕРїСЂРµРґРµР»СЏ
СѓС‡РµРЅС‹
РіРѕР»РѕСЃРѕРІР°С‚СЊ
Р°РЅР°Р»РѕРіРё
РёРЅСЃС‚СЂСѓ
РјРЅРѕР¶Рµ
РѕС‚РґРµР»
##РїРєР°
##Р°РєСѓ
##30
СѓСЃРїРѕ
Р°РєС‚РёРІРЅРѕ
СЃРѕР»РґР°
##РЅРµРІР°СЏ
РїРѕР»РѕР¶Рё
##СЃСЋРґР°
Р»СЋРґСЊРјРё
##РёР»Рѕ
##РёРЅСѓ
РІРµР»РѕСЃРёРїРµ
РїСЂРµРІСЂР°
##РµРЅС‚РѕРІ
##РєРѕРё
##С‚РµР»СЊРЅС‹Рј
##РµРЅРґ
СЂР°РєРµС‚С‹
РєРЅРѕРїРѕРє
Р°РґСЂРµ
СЃС…
РЅРµРІРµ
РїСЂРµС‚РµРЅ
##С‡Р°РјРё
РЅС‹РЅРµС€
РіРµР№РјРµСЂ
РїРѕР»РёС‚
СѓРїРѕРјСЏ
СЃР±РѕСЂ
С…РѕС‚РµР»РѕСЃСЊ
РіСЂРё
РЅРµСЃРєРѕР»СЊ
РґР°РЅРЅРѕРј
РЅРµРє
##Р»СЊРЅРёРє
РјР°С‚РµРјР°
СЂР°Р·С‹
##РІР°Р»Р°СЃСЊ
##Р¶РЅРѕСЃС‚СЊ
##РЅСЏРєР°
Р°СЂРј
##Р»Р°Р№
РІРї
РєР»Р°РІРёР°С‚СѓСЂРµ
РњРµС…Р°РЅРё
РІС‹Рё
##11
РЅР°РїСЂРѕ
РІРѕР·РјРѕ
РєР»Р°РІРёР°С‚СѓСЂСѓ
##С€С‘Р»
РЅР°РіСЂСѓР·
С„РёРЅ
РїСЂРёРІР»РµРєР°
РљР°РєРѕР№
Р±РµСЂРµ
СЋСЂРё
Р—РЅР°С‡РёС‚
Р›СЋРґРё
##РЅРѕРІРёС‚СЊ
РѕСЃС‚Р°Р»РѕСЃСЊ
РјС‹С€РєРё
РїСЏС‚
2014
РѕР±РѕР№
##РјР°СЂ
РЎРѕРІ
РїСЂРѕРµРєС‚
РјРѕСЂР°
РЅР°С€Р»Рё
РґРѕР¶
Р°РґРјРёРЅРёСЃС‚СЂР°
РЅР°С‡РёРЅР°РµС‚
##Р°СЂСЊ
##С‚РёС‡РµСЃРєРё
##СЃС‚СЏС…
РґРІРёР¶РµРЅРёСЏ
РІРѕР№РЅР°
##РЅРЅРѕРµ
РєР»СѓР±
Р·РІ
##Р’Рћ
Р”Р°РІР°Р№С‚Рµ
Р°РїСЂ
Р»РёС†Р°
Р­С‚Рё
СЌРїРё
##Р±СѓСЋ
##ace
##С‚РЅР°СЏ
##СЂСЋС‡РѕРє
##Р°Р°
РІС‹Р±РѕСЂР°С…
РїРѕРґСЃ
##РґРЅР°СЏ
##Р»РѕСЃРѕ
С€РёСЂРѕ
Р“РµСЂРјР°РЅРёРё
СЂР°Р±РѕС‚Р°СЋ
РёСЃРєР»СЋС‡РёС‚РµР»СЊРЅРѕ
СѓС‡РёС‚С‹
С‚СЂРµС…
РєРѕСЂРѕС‚
Р·Р°РїСѓСЃРєР°
##РґРёР»Р°
##РјС‹СЃ
РЅРµРґ
##РіРЅРё
РіРѕР»РѕСЃР°
##С‚РёРІРЅС‹Р№
##С‚РµРіРѕ
РёРіСЂРѕРІР°СЏ
СЃР»РµРґСѓСЋС‰РёР№
РЅР°СЃС‚СЂРѕР№РєР°
РїРѕРґСЃРІРµС‚РєР°
РЅРѕСЏ
РїСЂСЏРј
##Р°РЅС‹
РїСЂРѕСЃС‚СЂР°РЅСЃС‚РІРѕ
РїРѕРґСЂРѕР±РЅРѕ
Р’С‚Рѕ
СѓС‚РІРµСЂР¶РґР°
##С‡РёРєР°
##РЅСѓР»СЃСЏ
##Р·СЂР°
px
##РєРёРґС‹
##РІР°РµС€СЊ
##С‡РµРЅРёРё
##СЂС‹РІ
СЃС‚СѓРґРµРЅ
##РЅС‚Р°
##РІР»РµРЅРёРё
##РЅРёРєР°Рј
РќР°Рј
РіРµСЂРѕР№
Р±СѓРґРµС€СЊ
##Р±РёР»
РєСЂР°Р№РЅРµ
##Р¶СЊ
РѕС‚СЂРµРіСѓР»Рё
РјРµР¶РґСѓРЅР°
##РіСѓР»СЏСЂ
##II
СЂСѓСЃСЃРєРёР№
РґРѕСЂРѕРіРѕР№
РІРѕР·РЅРёРє
РєРі
РїСЂРёРєРѕ
СѓРЅРёРІРµСЂ
СЃРІРёРґРµС‚Рµ
РїРѕРјРё
РІС‹Р¶Рё
РїСЂРёРІРµСЃС‚Рё
СЃСЋР¶РµС‚
РїРѕРґСЃРІРµС‚РєРѕР№
РґРµС€РµРІР»Рµ
Р›СѓС‡
##ib
РїСѓС‚
РјС‹СЃР»СЊ
##РІР°СЋСЃСЊ
AK
##СЃС‚РІРµРЅРЅС‹Рј
Р¤Рѕ
РљР°РєРёРµ
СЃС‚РёР»Рµ
##С€Р°СЋС‚
РјР°РєСЃРёРјР°
##РґРѕР¶
РїСЂРѕРіСЂР°РјРјРёСЂСѓ
РѕР±РЅР°СЂСѓР¶Рё
РїРѕРєР°Р·С‹РІР°
##С‡РёС‚Р°Р»
СЂРµРіСѓР»РёСЂРѕРІРєРё
РїСЂРѕР¶Рё
РїРѕРґСЃРІРµС‚РєСѓ
С‡Р»РµРЅ
75
СЃРёР»
РєСЂР°Р№РЅРµР№
РЅР°РјРё
Р±РѕСЂ
РїРѕРґСЃС‚Р°РІРєР°
AH
##С‹РјРё
РёРіСЂРѕРІРѕРµ
С€РєРѕР»Рµ
РёСЃС‚Рё
##ant
РїСЂРёРјРµСЂСѓ
Р›РёС‡РЅРѕ
Р°СЃСЃРѕ
##СЂРµР·
СЂР°СЃРїРѕР»РѕР¶
РќРёРє
РєРІР°СЂС‚РёСЂРµ
РѕР±СЉРµРє
##С„СЂРё
С…Р»Рѕ
##РїР°С…
##РµРґРё
##РјРµРµС‚СЃСЏ
РєРѕР¶Р°РЅС‹РјРё
СЂСѓРєРѕРІРѕ
РїРѕРЅР°
С…Р»Рµ
РіРѕРІРѕСЂРёС‚Рµ
РЅРµР¶РЅРѕРј
СЃС‚С‹
an
РѕСЃС‚Р°РЅРѕРІРё
РІР°С€Р°
РїР°С†Рё
СЃР°РјС‹Рј
РїСЂРёРјРµРЅ
##РЅРѕСЃС‚СЊСЋ
##РјРѕСЃС‚СЊ
Р±РѕР»
РїСЂРѕСЂРµР·РёРЅ
Р·Р°Рѕ
РїСЂР°РІРёР»Рѕ
РїРѕРґСЉ
Р·Р°РјРѕ
Р°РјР±СѓС€
Р°РјР±СѓС€СЋ
РїСЂРёС…РѕРґРёС‚СЃСЏ
Р¦Рё
СѓСЃР»С‹
РјР°РєСЂРѕСЃРѕРІ
##РіР»
СѓСЃР»Сѓ
##РІРёС‚СЃСЏ
##РІРµРґР»РёРІРѕ
РѕРєРѕРЅС‡Р°
РїСЂРѕРі
AH7
РЅР°РїРёСЃР°С‚СЊ
AM7
С€РєРѕР»
AK7
РЎР°Рј
РіРѕСЂСЏ
##Р№СЃСЏ
Р·Р°СЃР»СѓР¶Рё
##РґРёС‚СЊСЃСЏ
Р±Р°С‚Р°
РґР°РЅРЅС‹Р№
РІС‹Р±РѕСЂР°
id2
##РµРЅС‚Рё
##СЃС‚Р°РјРё
РїСЂРёРІРµ
Р±РµСЃРєРѕ
РЅРµРїРѕРЅСЏС‚
РёСЃРїРѕР»СЊР·РѕРІР°РЅРёСЏ
Р·Р°РєР°
##РІРѕСЂ
РёРЅР¶РµРЅ
СЂР°Р·РІРёС‚РёСЏ
СЌР»РµРєС‚СЂРё
##Р°Р»Рµ
РїРѕРґРїРё
СЂР°РґРёРѕ
С…РёРјРё
С‡РёС‚Р°Р»
РёРґС‘С‚
##eg
##Р±РѕРІР°С‚СЊ
РјР°С‚С‡
СѓСЂРѕ
РєР°РјРµСЂ
##РґРѕСЂРѕ
РіРµРЅРµСЂР°
РєР°СЂРјР°
С‡РµР»РѕРІРµРєСѓ
27
СѓРґР°Р»РѕСЃСЊ
СЃРµСЂРµ
РЎР»Рµ
РєРѕРїРё
РїРѕРЅРёРјР°РµС‚Рµ
РїР»Р°РЅРµ
РР·РІРё
РёР·Р±РёСЂР°
РџСЂР°РІРё
##С€РµРјСѓ
##СЂРёС€СЊ
РґР°РЅРЅС‹С…
РїСЂРёРІРµС‚
РєР°С‚РµРіРѕ
СЃСЂР°РІРЅ
##РјРёРЅ
СЃР»СѓР¶Р±С‹
РЎР°РјРѕРµ
РЅРµСЂ
РјРѕСЋ
РџСЂР°
##РіР°СЋС‚
##Р±РѕРє
РІР°С€Рµ
##С€РёРЅ
##99
Р±Р»СЏ
РїСѓС‚Рµ
СЂРµР»РёРіРё
Р°РєС‚Рё
##РєРІРё
##С‚РІРѕ
РџР»Рѕ
##Р°СЂРґ
##РјР°С‚
##РљРђ
РєР°СЃР°РµС‚СЃСЏ
##Р»СЊРЅС‹РјРё
РёРґСѓС‚
РјРѕС‚РёРІР°
##Р¶РЅР°СЏ
РњРѕР№
СѓС€Рё
##ich
РћСЃ
##РєСЂРѕРІ
##РјРёР»Рё
РЅР°СЃС‡РµС‚
РґСѓРјР°РµС‚Рµ
##С€РєРѕР№
##РІРµРґРµ
##РєР°Р»Р°
РїСЂРёРЅР°Рґ
СЂРµР°
##С‚РµР»СЏРј
Р°СЂРјРёРё
45
##С€РЅРё
##la
С‚РёРїРё
СЃРѕРїСЂРѕ
Р°РІРёР°
##СѓСЂР°
Р­С‚Р°
С…РѕС‚РµР»Рё
РЅР°РјРЅРѕРіРѕ
РС‚Р°Рє
##Р»Р»СЋ
РѕС‚СЂРёС†Р°
РїРѕР»Р°РіР°
РёРґРё
Р±Р°Р±Сѓ
##РјРµРЅРёС‚СЊ
РђРЅРґ
Р±РµР·РѕРїР°СЃРЅРѕСЃС‚Рё
РџРѕР»
С†РёРІРёР»Рё
РјР°СЃСЃР°
##РїРµРЅСЊ
С„РёР»СЊРјР°
##РґР°РЅ
С„Р°С€Рё
РѕС‚РЅРѕСЃРёС‚РµР»СЊРЅРѕ
##С‚РѕРµ
РїСЃРёС…Рё
##ort
РєСЂРѕРІ
РђРІ
##ost
##Р±РёРЅ
##РїРµРЅ
СѓСЃС‚СЂРѕР№
##РїР°РЅ
##РЅСЊСЏ
##РЅРёС†
##ry
РСЃС‚Рѕ
РЅРµРґРµР»Рё
РїРѕРі
;)
##С…РѕРґС‹
Р•С‰С‘
##Р»СѓС‡
##СЂРЅРѕ
РёРЅРґРё
--
РјРµС‚СЂРѕРІ
С„РѕРЅ
СЂР°Р·СѓРј
Р±СѓРєРІР°
##Р»РµС‚Рё
28
##С‡РµРЅРѕ
СЃСЂРµРґСЃС‚РІР°
##СЃС‚РёС‚
##С‚СЏР±СЂСЏ
##РІР»РµРЅРёСЋ
Р§РµР»РѕРІРµ
##СЂРёР»Рё
РЅР°С‡Р°С‚СЊ
##РјС‹Рј
РїСЂРёР»Рё
РѕР±Р°
##РєРёРЅ
РјСЏРі
РґР°РЅРЅС‹Рј
РѕС‚РµС†
РїРѕР·РЅР°
РіСЂСѓРїРїС‹
РІРµС‰Рµ
РЁР°
##СЂРµРЅР°
СѓР¶Р°СЃ
РїРѕРµР·
СѓР±РёСЂР°
СЂР°СЃСЃС‡РёС‚С‹
РєР°СЂС‚Сѓ
РїСЂРёСЃ
preview_
СЃРїРѕРєРѕР№РЅРѕ
СЂР°СЃС€Рё
СѓР·
РџСЂРёС‡РµРј
С‡Рѕ
##РєРѕСЃС‚Рё
##РїРѕР№
##РіР°Р»Рё
СЃРµРІРµСЂ
РїРѕРє
СЂРµР·Рё
##С‚РµСЂРЅР°
РіРѕРІРѕСЂРёР»Рё
РєР»Сѓ
Р±Р»РёР¶Р°Р№
РєРѕРЅС‚СЂР°
С„СЂР°РЅС†Сѓ
СЃРІРµС‚Р°
##РјРѕСЂ
Р”Р°РІР°Р№
РєР»Р°СЃСЃ
##ame
##РјРµРЅС‚Рё
СЃРїРёСЃРѕРє
СЂРµРіРёРѕРЅР°
26
РїРёРєР°
С‡СѓРІСЃС‚РІРѕ
##СЃС‹РїР°
РѕР±СЉСЏСЃРЅРёС‚СЊ
РіР»Рѕ
РёРЅРѕСЃС‚СЂР°РЅ
РІРёРґРµР»Рё
##РіРµР№
##С‚РёС‚СЊСЃСЏ
РїСЂРѕРёР·РѕС€Р»Рѕ
Р¶РёРІСѓ
РќРµСЃ
РџСѓСЃС‚СЊ
Sp
##С…СѓР№
РќР°РґРµ
Р“Рµ
РѕРїСЂР°РІРґС‹
СЃРёСЃС‚РµРјСѓ
##РїРѕР»Рё
РїСЂРµР¶РґРµ
РѕР±С‰РµРЅРёСЏ
##РґР°С‚РµР»СЊ
##Р»РёРІ
##Р»СЏС‚
РЅРµС‡РµРіРѕ
##Р“Рћ
##РєР»Р°Рґ
РёРЅС„РѕСЂРјР°С†РёСЋ
Р‘РµСЂ
Р¤РµРґРµСЂР°
РІР·Р°РёРјРѕ
РјСЏСЃРѕ
РјР°СЃС€С‚Р°
РІРµС‡Рµ
С…РѕРґРёС‚СЊ
Р§РµСЂ
РїРѕСЂСЏ
##РѕР±СЂРµС‚
РѕРіСЂРѕРјРЅРѕРµ
on
%.
Р§РµСЂРµР·
##РµСЂРѕРІ
##РЎРђ
Р·РµСЂ
РїРѕР»СЏ
РЅР°С€Р°
Р¶РµРЅС‰РёРЅР°
РќРёРєС‚Рѕ
РґСЂСѓРіРѕРјСѓ
##РѕР±СЂР°Р·
РџРѕР»Сѓ
РєРѕРјРїР°РЅРёСЏ
РєР°С‡РµСЃС‚РІРѕ
РѕР·РЅР°С‡Р°РµС‚
##РґРёРЅРѕ
##РЅСЏРµС‚СЃСЏ
Р°РіР°
##Р¶РµРЅРёРµРј
СЃРѕСЃС‚Р°
##СЋС‰РёРјРё
СЃРјРѕР¶РµС‚Рµ
Р¶РµР»
##РјРµРЅС‹
##РґРµР»РёС‚СЊ
РёРјРµР»
##РµРІР°
С‡СѓРІР°
СЂСѓСЃСЃРєРёРµ
СѓРї
РіРµРЅ
СЂРѕР»СЊ
РёСЃРїРѕР»
РІР·СЏР»
##РІРЅС‹С…
РІСЃСЏРєРёРµ
Р‘Рё
РІРѕРїСЂРѕСЃРѕРІ
##РЅРѕСЃ
##РІСЊСЋ
:-
Р’РѕРїСЂРѕСЃ
РїРѕРєСЂС‹
СЃРѕСЃРµРґ
##Р»РµС‚С‹
##Р·РёСЏ
СЂРѕРґСЃС‚РІРµРЅ
РїСЂРёС…РѕРґРёР»РѕСЃСЊ
##СЃС‚РѕРє
РјР°С‚СЊ
Р“РѕРІРѕ
Р¶РёРІРµС‚
##Р·РѕСЂР°
С€С‚
##ick
СЂР°СЃСЃРјР°С‚СЂРё
##СЂСѓС‚
СЃРјР°СЂС‚
РњРёС…Р°
##РЅРµСЃС‚Рё
##С‡С‘Рј
РЎСЂР°Р·Сѓ
##РґСЂР°РІ
РїСЂРѕС„Рё
##70
СЂРµРєРё
РІРёРЅРѕРІ
In
СЃС‚РѕСЏС‚СЊ
СЌРєСЃРїРµСЂ
##С‚РЅРѕРіРѕ
СЂР°Р№РѕРЅ
##С‡РёРё
##РќР
РѕС‚Р»РёС‡РЅС‹Р№
Р±Р°Р±
РёР·РѕР±СЂР°
РџРµ
##СЃС‚СѓСЋ
СЃС‚СЂСѓРє
С‚РµР»РµС„Рѕ
СЃС†РµРЅР°
РЅРµР°
С‚РµРјРµ
СЃС‚Р°РІ
РїРёС€СѓС‚
for
Р°СЌСЂРѕ
##Р»РѕРіРѕРІ
С‡РёСЃР»Рѕ
РґРѕСЂРѕРіРѕ
Р»РµС‚Рѕ
РѕСЂРёРіРёРЅР°
##С‡РЅС‹РјРё
Р“Рё
##СЂРѕРјРµ
РќРёРєР°РєРёС…
##С‡РёРЅ
РїРµСЂРІС‹Рµ
400
СЂР°СЃСЃС‚РѕСЏ
##Р°РЅРѕ
##Р›Р¬
СЃСѓС‚СЊ
Р·Р°РЅРёРјР°С‚СЊСЃСЏ
РЎРњР
##Р’Рђ
СѓРїСЂР°РІ
##РєСЃР°
СЂР°Р·РѕР±СЂР°
Р±СѓС‚С‹
РѕРїР°СЃРЅРѕ
РґРµР»Р°Р»
РѕРєСЂСѓРі
##az
СЃС‚РѕСЏС‚
##РЅСЏР»
СЃРёС‚СѓР°С†РёСЋ
Р·Р°РіР»СЏ
РґСЂРµРІ
РѕС‚РјРµС‚
РІРєР»СЋ
##ard
##РІСѓС‚
##Р±РѕР»
Р±РѕСЂРѕ
РІС‹С€
РЅР°РїРѕРјРёРЅР°
РґРёСЂРµ
РґРµРєР°Р±СЂСЏ
РѕРєСЂСѓР¶Р°
РІСЂСЏРґ
##РєРѕСЂ
Р±РѕР№
##С„РѕСЂРјРё
Р·Р°РІРµСЂ
2015
РЅР°РґРµСЋСЃСЊ
СЏРЅРІР°СЂСЏ
РёРЅС‚РµСЂРµСЃСѓ
Р°Р№
РЅР°Р·РІР°РЅРёРµ
РїРѕСЃС‚Р°РІРёС‚СЊ
РЅРѕРІРѕСЃС‚Рё
РѕС…Рѕ
Р’РЎ
##Р»СЏСЋС‚
##С‚РµР»СЏРјРё
##РјРµРЅС‚РѕРј
##ive
РјС‹С€
##avel
РЅР°РїР°
Р·Р°СЂСЏРґ
РѕР±РµСЃРїРµС‡Рё
СЃСѓРґСЏ
РїСЂРµРґСЃС‚Р°
РІРѕРґРёС‚Рµ
РІРѕР·РЅРёРєР°
РёР·Рѕ
РёСЃС‡Рµ
##С€РµРЅРёРµРј
С‡РµС‚РІРµСЂ
РїР°СЂРѕ
##СЃС‚Р°СЏ
##Р»РѕР¶РёР»
С‚СѓСЂ
СЏР№
##Р¶РµРє
РєРёР»РѕРјРµС‚
СЂР°Р·РЅРѕ
РѕР±СЃСѓР¶РґР°
##СЃС‚СЏРјРё
Р·РµРјР»Рё
РЈРєСЂР°РёРЅР°
???
СЂР°Р±РѕС‚Р°Р»
СЂР°Р·РІРѕ
Р·Р°РїР°Рґ
РЅР°СѓС‡Рё
СЃС‡РёС‚Р°РµС‚
##РЅРµРјСѓ
СЃРµРјРµР№
Р±С‹С‚Рѕ
##РєР°Р»Рё
??
2010
РґРѕРє
##РіРѕР»РѕРІ
##СЂСѓСЃ
##РµРІРёС‡
РїРѕР·Р¶Рµ
##Р»РµРЅРёРё
РІР°С€РµРіРѕ
РіСЂР°С„Рё
СЃС‡Р°СЃС‚Р»Рё
РїСѓС‚РµС€Рµ
СЃСѓС‰РµСЃС‚РІ
СѓРІРёРґРµР»
Р»СЋР±Р°СЏ
С‡РµР»РѕРІРµРєРѕРј
СЃРµРєСѓРЅ
РІРѕР·РІСЂР°
РёРЅС„
С‡РµСЃС‚
РїСЂРёРіР»Р°
1000
Р–Рё
##per
С€С‚СЂР°
##lo
.вЂ”
РєР°С‡РµСЃС‚РІ
РёРґРёРѕ
##Р•Р 
РјР°СЃР»Рѕ
РґР°Р»Рё
Р¶РґР°С‚СЊ
РЎС‚СЂР°
Р·Р°РєРѕРЅС‹
Р‘СЂР°
##Р»СЏС†РёРё
РІРѕР№РЅСѓ
##РїСЏС‚
РѕР±С‰РµСЃС‚РІ
Р”РѕРЅ
РґРµР№СЃС‚РІСѓРµС‚
##РїРёС‚
РІРѕРґСѓ
РўРµР±Рµ
##СЊРµРј
РїСЂРёРІС‹Рє
2017
##Р¶РёРј
РјР°СЂС‚Р°
##РїРѕСЂС‚
РјР»
Р·Р°СЃС‚Р°РІР»СЏ
РЅРµРєРѕС‚Рѕ
##С‰СЊ
РєРёР»РѕРіСЂР°Рј
СЂР°Р№РѕРЅР°
Р Р°Р±Рѕ
РїСЂРѕРіСЂРµ
РїРѕРґРЅРёРјР°
РІРѕРїСЂРѕСЃР°
Р¶СѓСЂРЅР°Р»Рё
Р°СЂС…Рё
РїРѕС‚СЂР°
РµС…Р°С‚СЊ
РѕРїР°СЃ
РіРµРѕ
СЃРµСЂСЊС‘Р·
РїСЂР°РІРёР»Р°
Р»РµР·
РїСЂРѕРґРѕР»Р¶Р°
Р•РІСЂРѕРїРµ
СЃРїРµС†
##РѕС‚Р°
РєР»Рѕ
РјР°СЏ
РѕСЃРєРѕСЂ
СЃС‡РёС‚Р°СЋС‚
СЂР°Р·РіРѕРІРѕ
С‡Р°С‰Рµ
РљСЂ
СЃРµРЅС‚СЏР±СЂСЏ
С‚РІРѕРµ
##РґРѕСЂ
##РґРЅРёС…
РіРѕРґР°С…
СЃС‚Р°С‚СЊРё
##14
##Р»РµРЅРёР№
РІРµСЃС‚Рё
##СЃС‚РѕРёС‚
##С€РёР»
РЅРѕРІРѕР№
##С…РѕРґРёР»
##С‘С‚Рµ
РІРµСЂРёС‚СЊ
РїСЂРµР·
##РЅРЅРѕСЃС‚Рё
СЃРѕР±С‹С‚РёР№
СЃРѕСЃС‚Р°РІРµ
РїРµСЂРІРѕ
РІРѕРѕСЂСѓ
СЃР»РѕРІРѕРј
СЃР°Р№С‚Рµ
Р’Р»Р°Рґ
РЎРѕСЋ
РґРѕСЃС‚Рѕ
##ang
РїСЂРµР·РёРґРµРЅС‚
РѕР±С‰РµСЃС‚РІР°
Р·Р°РєР»СЋ
РїРµСЂРёРѕРґ
Р±Р°Р»
Р¶Р°Р»СЊ
РјРѕСЂРµ
РјР°С€РёРЅРµ
##СЂРµРє
РґРµР»Р°Р»Рё
РєРѕРјРјРµРЅС‚Р°СЂРё
РљР°Р¶
РѕСЂСѓР¶РёРµ
РїРѕСЃС‚Р°РІ
Com
##РіСЂРѕРј
US
СЃРєР°Р¶РµРј
##Р»РµРЅРЅР°СЏ
РјРѕР·Рі
СЏРґРµСЂ
alt
РїРѕРґСЂСѓ
РњРѕСЃРєРІС‹
СЃРµС‚Рё
##РґРµРЅРёРµ
СЂРµР±СЏС‚Р°
РѕС‚Р»РёС‡РёРµ
##СЂРєР°
##Р›Рћ
Р¶РµР»РµР·
РїСЂРёР±Р»Рё
РµРІ
СЃР°РјРѕСЃС‚РѕСЏ
##_t
РїРѕР¶РµР»Р°
Р°РІС‚РѕР±Сѓ
РёСЃРєР»СЋС‡РµРЅРёРµРј
##Р»Р°РєС‚Рё
РѕС‚СЃСѓС‚СЃС‚РІРёРµ
РїСЂРµР·РёРґРµРЅС‚Р°
СЃС‚РµРЅС‹
СЃРѕРѕР±С‰Рё
РєР°Рї
СѓРІ
РѕРїРѕ
##Р›Р
С‚РІРѕРё
РіР»СЏ
РўСЂР°Рј
##ct
СЃРѕРІРјРµ
Р¶Р°Р»
РІС‹РіР»СЏРґСЏС‚
СЌРЅРµСЂРіРёРё
РїР°Рє
РїРѕРЅРёРјР°РЅРёРµ
СЂРµР№С‚РёРЅ
РњРµРґ
СЂР°Р№РѕРЅРµ
РѕРєС‚СЏР±СЂСЏ
СЃСѓРґРµ
РїРёС€РµС‚
С€СѓС‚РєР°
РѕС‚РґС‹
РїРѕР±РµРґ
##РµРЅРЅС‹Рј
РґРѕСЂРѕРіСѓ
##С‡РёСЏ
СЂР°СЃРїРѕСЂСЏ
СЏРїРѕРЅ
РјРѕРґРµР»Рё
##РєРѕРІС‹Рµ
РґР°Р»
РѕРґРёРЅР°РєРѕРІРѕ
РёСЋР»СЏ
РјРёРјРѕ
РґСЂСѓРіР°СЏ
##РґР°Рє
Р·Р°РѕРґРЅРѕ
РІРЅРё
СЂРµС†РµРї
РіСЂР°РІРё
##С‚СЏРіРё
##РµСЂРѕРј
##РµСЃС‚СЊ
##РіР°СЏ
РґСѓРјР°РµС€СЊ
##Р»РµРЅРёРµРј
РЅР°РїСЂР°РІ
##РІР°РІ
##ube
СЃРїСЂСЏ
СЃС‚СЂР°РЅР°С…
С‚РµРјРЅРѕ
СЃС‚РѕРёРјРѕСЃС‚СЊ
##вЂ“вЂ“вЂ“вЂ“
РѕРєР°Р·С‹РІР°РµС‚СЃСЏ
##С‚РёР»Рѕ
##РїСѓСЃ
##С‡РЅРёРє
СЃР°РЅРє
##СЂРёСЃРѕ
Р±РµСЃРїР»Р°С‚РЅРѕ
СЃРѕРі
РїСЂРѕРіРѕР»Рѕ
С‚РµР»Р°
СѓРјР°
СЂСѓРєР°С…
Р±РµРЅ
РѕР±РѕСЂСѓ
СЃРѕРјРЅРё
РѕС‚РєР°Р·Р°Р»СЃСЏ
РІРѕР»Рѕ
РґСЂСѓРіСѓСЋ
С‚РµС…РЅРѕР»РѕРіРёРё
##ill
РґСЏ
СЃС‡РёС‚Р°РµС‚Рµ
##РєРѕРЅРѕРј
РґРµРјРѕРЅ
СЌРєСЂР°
Р°РІРіСѓСЃС‚Р°
##С†Р°С…
РїСЂР°РІРёС‚РµР»СЊ
РґРѕРјРµ
##13
##РєРµС‚
##С‡РЅРѕРј
РёРЅС„РѕСЂРј
РјРѕРґРµ
РґРµРІСѓС€РєР°
Р±РµР·Сѓ
РїСЂРѕС‚РёРІРѕСЂРµ
РІРѕСЂ
##РЅРёРЅР°
РіРѕС‚РѕРІС‹
РєСѓРїРёР»
С‚СЋСЂСЊ
СЂР°СЃСЃРєР°Р¶Сѓ
##Р¶РЅС‹Рј
РїРµСЂРµРІ
РїСЂРёСЂРѕ
РІС‹С…РѕРґРёС‚
##РѕРЅРѕ
##С„РёРі
РїРѕС€Р»Рё
С†Р°
РЅРµРїРѕРЅСЏС‚РЅРѕ
##age
##РґРѕРЅ
РµСЃС‚РµСЃС‚РІРµРЅРЅРѕ
РІС‹РіР»СЏРґРµС‚СЊ
##РєРѕРІРѕР№
Р°Рі
С„РёР»РѕСЃРѕ
СЏРІР»СЏСЋС‚СЃСЏ
РЎРѕРіР»Р°СЃРЅРѕ
Р‘РµР»
##РјРµС‡Р°
Р¶Р°Р»Рѕ
С‚С‹СЃСЏС‡Рё
##Р°Р»СЊРЅРѕРј
РѕС‚РєР°
РїРѕРєР°Р·Р°С‚СЊ
##РёРЅРѕРІ
РєРѕРЅРєСЂРµС‚РЅРѕ
РѕР±РѕСЂРѕ
РєРёСЃР»Рѕ
##РёС‚СЊСЃСЏ
РґРѕР±Рё
СЃРµСЂСЊРµР·РЅРѕ
РЅР°РєР°
##ew
##Р»СѓСЋ
РґРѕСЂРѕРіРµ
Р Р°Р·РІРµ
СЂР°СЃСЃСѓ
##Р°С‚СЂ
СЃРµРјСЊРё
СЃРјРµСЂС‚СЊ
РґРёР·Р°Р№РЅ
СЃРѕРІСЂРµРјРµРЅРЅС‹Рµ
##ast
Р°РєС‚РёРІ
РґРµСЂР¶Р°
РєРѕСЂСЂСѓРї
РёСЋРЅСЏ
СЂР°СЃРїРѕР»РѕР¶РµРЅ
СѓСЃР»РѕРІРёСЏ
##РєСЂРѕР№
СЂР°Р·РіРѕРІР°СЂРё
РґСЂСѓР·РµР№
РїРѕРЅРёРјР°С‚СЊ
СЃРІРѕРµРјСѓ
РїСЂРѕС‚Рѕ
##РєРѕРјРё
РЅР°С†Рё
Р±РµСЃСЃ
СЂРѕР±Рѕ
РґР°РІР°Р№
С‚РІРѕСЏ
СЃР»СѓС‡Р°Р№РЅРѕ
##Р»РёРєР°
РЅРµСЃРєРѕР»СЊРєРёС…
СЂСѓРєСѓ
СЂРѕРґРё
РїСЂРµРґРїРѕР»Р°РіР°
СЂРѕСЃСЃРёСЏ
РІРѕР№СЃРє
##СЃРёР»Р°
##С‚РёРє
СЃРјРµС€РЅРѕ
##СЂРѕРІР°С‚СЊСЃСЏ
С…РѕС‚РµР»Р°
Р¶РґРµС‚
С„РёРі
Р°РґРµРєРІР°
СЃРµСЂРІРё
##С‘С€СЊ
РґРѕР±СЂР°
##Р¶РЅР°
Р’Р»Р°РґРёРјРёСЂ
С…РѕР·СЏР№
РїРѕРєСѓРїР°С‚СЊ
РєРѕРјРЅР°С‚Сѓ
РєСѓС‡Р°
##РЅРЅРѕСЃС‚СЊ
РІРѕСЃРїСЂРёРЅРёРјР°
##РЅСѓР»Р°
РЅРµР°РґРµРєРІР°
is
РґРѕРјР°С€
##est
##19
##Р№С‚
РєСЂРѕРІРё
СЃРёРґСЏ
РїСЃРёС…РѕР»РѕРіРё
РѕС‚РІРµС‚РёС‚СЊ
РџРѕРІРµСЂ
С„РѕС‚РѕРіСЂР°С„РёРё
РґСЂСѓРіРёРјРё
РїРѕРєР°Р·
##our
##РЅСЏСЋС‚
##iz
РѕС‚РґРµР»СЊРЅС‹Р№
##С‚РёС‡РµСЃРєР°СЏ
##СЃРѕСЂ
РІСЃСЏРєРѕРіРѕ
##РІРЅР°СЏ
РёР·Р±РµР¶Р°С‚СЊ
Р·Р°Р±РѕР»Рµ
РґРѕРїСѓСЃС‚Рё
РЅР°РёР±Рѕ
РїРµСЂРё
##Р°РєСЃ
РѕРґРёРЅРѕ
##ver
РІРµСЂСЋ
##a_
РѕР±РѕР№С‚Рё
##С†РёРѕРЅРё
СЃРїСѓ
РџР»СЋ
Р°РїСЂРµР»СЏ
##РїР»РµР№
##Р±Р»РµРј
РїРѕРґСѓ
РїРѕСЃР»РµРґРЅРµРµ
Р’РїСЂРѕС‡РµРј
Р°СЂС…
РЅРѕСЏР±СЂСЏ
СЂР°СЃСЃРєР°Р·Р°С‚СЊ
##Р»СЊРЅРµРµ
РћР±С‹
СЃСЂРѕРє
##Р»РµРі
РЅРѕРіРё
##РјРїРё
Р¶РµР»Р°РЅРёРµ
РїСЂРµРј
РЅРµРїСЂРёСЏС‚
Р·Р°РІРё
РјРёРЅ
СѓРґРѕР±РЅРµРµ
##РµРЅРєРѕ
##Р»РёР·
РјРѕРЅ
Р±Р°РЅР°
РІРЅРµР·Р°
РїРѕР»РЅС‹Р№
##СЃСЃРёСЏ
РІРІРёРґСѓ
##РёР»РѕСЃСЊ
РєР°С‚
##СЃРїРѕСЃРѕР±
С‰Рµ
РїСЂРёС‡
##РµСЃРµ
РіРѕСЂРё
С€РєРѕР»С‹
РїСЂРµРґСѓРїСЂРµ
Р¶РµРЅС‰РёРЅС‹
##))))
РґСЂРѕ
РІС‹РЅСѓ
##Р°С†РёСЏ
РёСЃСЃР»РµРґРѕРІР°РЅРёСЏ
СЃРѕРѕС‚
##СЃР»РѕРІ
##РјРѕРіРѕ
РћРє
РєР°Р¶РґРѕР№
РїСЂРѕРјС‹С€
##РїСЂР°РІРёС‚СЊ
РѕР±РјР°
Р°РІС‚РѕРјР°С‚Рё
РіРµСЂ
РїРѕРІРµР·
Р±СЂР°С‚
РќСѓР¶РЅРѕ
Р±СѓРґСЊ
##СѓС‚Р±Рѕ
РїРµСЂРµРјРµ
##СЃС‚СЊСЏ
РјРѕРґРµР»СЊ
РїСЂРѕРёРіСЂС‹
РІРёРЅ
С‚РµРєСЃС‚
##РјСЃСЏ
##rom
РґРµСЏС‚РµР»СЊ
СЃРѕС†РёР°Р»Рё
Р»СЋР±СЏС‚
РїРѕРґРіРѕС‚РѕРІ
РєРѕСЃРјРѕСЃ
РјРµСЃС‚Р°С…
С‚СЂР°РІ
РЎРІ
РґРѕСЂРѕР¶Рµ
РєРѕС‚
СѓРїСЂР°РІР»СЏС‚СЊ
Р°Р»СЊС‚РµСЂРЅР°
РїРѕРіРѕРІРѕСЂРёС‚СЊ
РіСЂР°РґСѓ
##РЅСѓС‚СЊСЃСЏ
РїРѕРµ
##Р±Р°РјРё
С‚СЂР°РЅСЃРїРѕСЂС‚
РґРёСЃРєСѓ
##СЂРёРєР°
РјР°РјС‹
Р·Р°РІРёСЃРёРјРѕСЃС‚Рё
РїСЂРѕРёР·РІРѕРґСЃС‚РІР°
##ine
im
РїРµСЂСЃРїРµ
РІР°С€РµРјСѓ
С…Р°СЂР°РєС‚РµСЂ
##eo
##ix
Р»РµРєР°СЂ
Р“СЂР°
##С‚СѓСЋ
##ud
##С…РѕРґРѕРІ
Р¶РµРЅС‰РёРЅ
##С‡РєР°РјРё
##РЅРѕРІС‹Рµ
СѓР±РѕСЂ
РЅР°РІРµСЂРЅСЏРєР°
СЏР±Р»Рѕ
СЂРµР°Р»СЊРЅРѕСЃС‚Рё
СЂРµРіСѓР»СЏСЂ
РїСЂРёРµР·
РїСЊСЏ
С„СѓС‚
##Р•Рў
РїРѕР№С‚Рё
С‚РµСЂСЂРѕСЂРё
РїРѕСЃР»Р°
Р±РёРѕ
Р±Р»Р°
РїР°СЃСЃР°
РјРµРЅСЏС‚СЊ
##MA
СЃР°Р»РѕРЅ
##РїРµС‚
РґРѕР»Р»
##СЃРµРґ
РїРѕР»РёС†РµР№
РРІ
##РґРЅРµРµ
СЃРґРµР»
РєРѕС‚РѕСЂРѕРјСѓ
##Р¶РёРґР°
##18
С„РµРІСЂР°Р»СЏ
С‡Р°Р№
Р¶РµСЃС‚
С‚РµС‡РµРЅРёРµ
##РµРЅСЊРєРѕ
РђР»РµРєСЃР°РЅРґСЂ
РѕСЃРѕР±
РґРёСЃ
##15
Р·Р°СЏРІРёР»
РѕРїС‹С‚РѕРј
sh
##СЉСЏ
РЅРѕСЃРё
РўР°РєР¶Рµ
##РіРµРЅС‚
##Р·РёС‚
##С‡РёС‚С‹РІР°СЏ
##ind
РїРѕРЅСЏС‚РёСЏ
##РІС€Р°СЏ
Р»СѓС‡С€РµРј
РїРѕРІС‚РѕСЂСЏ
РїРѕР·Р°
##РЅСЏР»Рё
РѕСЂРµ
Р”С‹
id3
РїРѕРЅРёРјР°РµС€СЊ
СЂРѕРІРЅРѕ
РіСЂР°РЅ
РІС‹СЃРєР°
##С‡РЅРёРєР°
##РЅСѓС‚С‹Рµ
РїС‹Р»СЊ
СЃР»РѕРІР°Рј
##Р¶РµРЅРѕ
РґРѕСЃС‚РѕР№
РѕРїС‚Рё
С†РµРЅС‚СЂРµ
РЅРѕС‡СЊСЋ
РќРѕРІРѕ
##Р»Р°Р№РЅ
СЃРѕРјРЅРµ
##С‰РёРєРѕРІ
РљР°Р·Р°
##РєР°Рґ
##Р»СЊСЃР°
190
РїРѕС‚РµРЅ
С…РѕСЂРѕС€Р°СЏ
##Р»РёР»Рё
Р±Р»РёР¶Рµ
РЅРµРїСЂРѕ
СЌРєРѕРЅРѕРј
РЅРѕРІСѓСЋ
РІС‹Р±РѕСЂРѕРІ
РїР°СЂС‚РёР№
СѓСЃС‚Р°РЅРѕРІРєРё
РєСЂРµРј
РѕС‚СЃСЋРґР°
Р»СЏ
##Р·РёСЂРѕРІР°С‚СЊ
РїРµСЂРµСЂС‹
Р‘С‹Р»Рѕ
СЃС‚РµРїРµРЅРё
С‚РµРѕСЂРёРё
##РґСЋ
РїСЂРѕС€Р»РѕРј
РєРµ
##СЂРµРґРё
##С‚СѓРґР°
##РёРЅС‚РµСЂРµСЃРѕ
##Р·Р°С†РёСЋ
Р»РёС‚РµСЂР°
РёРјРµРЅРё
СЃРѕРєСЂР°
##С‰Р°РµС‚СЃСЏ
РљР°РєР°СЏ
##Р¶РёРЅ
РЅР°РІР°
РїРѕР·РґРЅРѕ
HD
РіРѕР»РѕСЃСѓ
С‚РІРѕРµР№
РІРµС‡РµСЂРѕРј
РЎРї
##С‡РµСЃРєРёРјРё
СЃРІРµСЂС…
РґРѕСЂ
##СЂС‹С…
РѕС…
##ell
СѓС‡Р°СЃС‚РёРµ
Р—Р°С‚Рѕ
СЃРґРµР»Р°РЅ
##РјР°РЅРё
##Р¶РµРЅРёР№
РІСЃРїРѕРјРёРЅР°
С‚РѕСЂРіРѕ
РєСѓС‡Сѓ
РЅР°СЃС‚СЂРѕРµРЅРёСЏ
РјРµС€Р°РµС‚
be
РџРѕР»Рё
##РњРћ
РѕР±СЂР°Р·РѕРІР°РЅРёСЏ
##С‚РѕСЂРѕРј
Р±РёР·РЅРµ
РЅРёРєСѓРґР°
РѕРєР°Р·Р°Р»СЃСЏ
СЃС„
СЏСЂРєРѕ
РЇР±Р»Рѕ
РµРІСЂРµ
##Р»РёР»
РєРѕРІ
СЂРѕР¶РґРµРЅРёСЏ
РІС‹СЃРѕС‚С‹
РјР°РіР°Р·РёРЅ
СѓР»С‹
РќР°СЃ
Р·Р°Р№
##ime
РєСѓС…
РєР°РїРёС‚Р°Р»Рё
РїСЂРѕРєР°
Р±СѓРє
##Р»РёРј
РѕРєР°
##С‚РЅС‹Рј
РјРµСЂС‚
##С‰РµРЅРёРё
РїС‹С‚Р°Р»СЃСЏ
С‡СѓРґРѕ
СЃР»Р°Р±Рѕ
РїСѓСЃРєР°
Р”РѕР»
СЃРґРІРё
РљСЂР°СЃ
РїРµСЂРІР°СЏ
##ont
##РІР»РµРЅРёРµРј
##С†РёСЏС…
РјР°СЃСЃРё
РІСЂРµРјРµРЅРµРј
РїРѕСЃР»Сѓ
##РіРґРµ
РёРЅС„РѕСЂРјР°С†РёСЏ
СЂР°РјРєР°С…
##ey
РґР»РёРЅ
##РїР°С‚СЊ
##РїСЂРµСЂС‹
С„РµРґРµСЂР°
СЂРѕСЃСЃРёР№СЃРєРёС…
СѓРїРѕС‚СЂРµР±
##С‡Р°СЃС‚
РњРѕР»Рѕ
Р·РЅР°С‡РёС‚РµР»СЊРЅРѕ
##РґРЅРѕРј
РїРѕСЏСЃ
С†РІРµС‚Рѕ
##Р»СЋРјРё
##66
РїР°РјСЏС‚СЊ
СЃР°РјРѕРјСѓ
С…РѕСЂРѕС€РёРµ
РЈС‡РёС‚С‹РІР°СЏ
РјР°СЂС€
Р±СѓСЂ
Р·РЅР°С‡Рё
СЂРµР·СѓР»СЊС‚Р°С‚С‹
РІС‹РїСѓСЃРєР°
##СЂСЏР·
РєСЂР°СЃРёРІС‹Р№
СЃРѕР±С‹С‚РёСЏ
С…РµСЂ
РєРѕРЅРµС†
СЃС‹РЅ
РїСЂРѕРјРѕ
РїРѕРіРёР±
СЂР°РєРµС‚
СЂСѓРєР°РјРё
РїСЂРёС€Р»Рё
СЃРѕРѕР±С‰Рµ
2018
##Р›Рђ
РїСЂРёС‡РёРЅРµ
Р РµР±СЏС‚Р°
РїРёР»Рѕ
РїСЏС‚Рё
##С‡Р°Р»Рё
РІСЂРµ
РїСЂРµРґРїСЂРёСЏ
РЅР°Р·РІР°С‚СЊ
РїСЂРёС€РµР»
РЎРјРѕС‚СЂРёС‚Рµ
##РєР°Р·Р°С‚СЊ
РїРµСЂРµСЃРµ
С€РёСЂРё
РіРѕСЂРёР·РѕРЅ
com
РїСЂРёРµРј
РІР·СЂРѕСЃ
РєРѕРјРјРµРЅС‚Р°СЂРёРё
##С‚РµР»СЊСЃС‚РІ
##Р»РµС†
РР·СЂР°Рё
РїСЂРѕРіСЂР°РјРјС‹
##С„С„
##Р¶РёРµ
##РµРјРѕРіРѕ
##Р»СЊРЅРѕСЃС‚Рё
##СЋС‰РёРјСЃСЏ
С„СѓС‚Р±Рѕ
РѕР±СѓС‡
##Р»СЊРЅРѕСЃС‚СЊ
РРЅРѕ
##С‚РЅРѕСЃС‚СЊ
СЃР°С…Р°
РёРЅС‚РµР»
РѕР±Р»Р°РґР°РµС‚
СѓС‡РµР±
##РіСѓС‚
Р°Р»СЊР±РѕРј
СЂР°СЃСЃС‚СЂРµ
С‚РµС…РЅРѕР»РѕРіРёСЏ
РёРЅСЃС‚РёС‚Сѓ
РІСЂР°Рі
##Р±РµСЂРµ
СЃРїРѕСЂ
СѓР±РёС‚СЊ
РєСѓР»СЊС‚
Р°С‚Р°
##С‚РµР»СЊРЅСѓСЋ
##РґРЅРµ
С‡СЊРё
РіСѓР±
С†РµРЅС‚СЂ
РїСЂРѕР№С‚Рё
##РґСЂР°РІСЃС‚РІСѓ
РґРѕРєСѓРјРµРЅС‚Р°
Р¶РёР»Рё
Р°РІС‚РѕСЂР°
С†РµР»СЊСЋ
С†РµРЅРё
Р±СЂРµРґ
РіРѕСЃС‚Рё
С‚РѕРІР°
##РєР°РЅС‡Рё
С€Р°РЅСЃ
##ack
СЂРµСЃРїСѓР±Р»Рё
СЂРѕРґРёС‚РµР»Рё
РёР·РјРµСЂ
РіРµСЂРѕРё
##РєСЂРµРї
РјРѕРёРј
##РєР»Рµ
##С‡РµРЅР°
pavel
СЃРѕСЋР·
СѓР»СѓС‡
2008
СЂР°СЃСЃР»РµРґРѕ
##С‚Р°С‰Рё
РїРёС‚СЊ
Р СѓСЃ
##РґРёРјРѕ
РґРІРµСЂСЊ
Р°СЂРµ
СЂРµС€Р°
Р»СЋР±РёС‚
##hunt
РІР·СЏР»Рё
2009
Р·Р°Р±С‹Р»
##С‚РѕСЂС‹Рµ
СЌРІРѕР»СЋ
Sh
РїРѕР»РѕР¶РµРЅРёРё
РµР±Р°
##РµР»Р°
РїСЂСѓ
РїРѕРёРіСЂР°С‚СЊ
##РІР°С‚
##25
РіСЂСѓРїРїР°
##РґРЅС‹Рј
РљРёС‚Р°Р№
##С…РѕРґРёР»Рё
РІС‹С€РµР»
РїРѕР»СѓС‡РёР»Рё
##СЂРµРї
##Р»Р°Р·
##СЃСѓР»СЊ
РЅРѕРІРѕРµ
##РјСѓР»СЏ
РґР°Р»СЊРЅРµР№
РІС‹СЃС‚СѓРїР°
##С†РёСЏРјРё
РќРµСѓ
РєРІ
Р РѕСЃСЃРёР№СЃРєРѕР№
С‚СЂР°РЅСЃ
РјРѕРґ
РґРµСЃСЏС‚Рё
РїРѕСЂС‚Р°
РѕС‚Р»РёС‡Р°РµС‚СЃСЏ
СЃРѕР·РґР°С‚СЊ
СЃРѕСЃС‚РѕСЏРЅРёРµ
СЂР°РЅРµРµ
СЃСЃС‹Р»РєСѓ
##РіР°РґР°
СѓРґР°СЂР°
##РјРёС‚СЂРё
РѕС€РёР±Р°
pavelhunt
Р¤Р°
РіРѕРІ
##РІРЅС‹Рј
Р»СѓС‡С€Р°СЏ
РЅР°Рї
РѕС‚СЃС‚Р°
Р°СЃСЃРѕС†РёР°
РјРёРЅСѓСЃС‹
33
Р·Р°РїРѕ
СЏРєРѕ
##С‚РёСЋ
РІРµС‰СЊ
РЅРµР·РЅР°
СЃС‚РѕСЏР»Р°
РўСѓСЂ
РѕСЂРіР°РЅРёР·Р°С†РёРё
РІР°С€Сѓ
СЃРѕСЃС‚Р°РІР»СЏРµС‚
##СЂРµС‚РёР№
Р·Р°РїСЂРѕ
РёР·Р±Р°
СЃРѕС‚РЅРё
##Р»Р°РЅРґ
РќРёРєРё
С‚РµРєСѓ
СЃР»РѕРІР°РјРё
СЃРѕРІСЂРµРјРµРЅРЅРѕРј
РІРѕРґР°
РІРµСЂСѓ
РѕРґРЅРѕР·РЅР°
##РІР°РЅР°
РёСЃРїС‹С‚Р°
2000
РЅРµРїСЂРµСЂС‹
##С‚РєРѕРІ
Р—РІСѓ
##РІР»СЏС‚СЊ
РєРѕСЂРѕР±
##РїРєСѓ
2011
С…РѕСЂРѕС€РµРіРѕ
РїРµСЂРІС‹Рј
СЃРѕР»РЅС†Р°
СЃС‚Р°С‚РёСЃС‚Рё
##РЎР°
##РЅР°СЂ
##РјСЏС‚Рё
РќРёРєРѕР»
Р°Р»СЋРјРё
##РїСЂРµРґРµР»РµРЅРёРµ
СЃРёРјРІРѕ
СЂРёСЃСѓ
РјРёС‚РёРЅ
%,
Р±СѓРґСѓС‰РµРµ
##Р±СЂР°РЅ
РёРґРµРё
Р›СѓС‡С€Рµ
##РёС‚Рµ
РќСЊСЋ
РЅР°РјРµ
РїС‹С‚Р°РµС‚СЃСЏ
##СЃС‚РІРµРЅРЅСѓСЋ
##64
Р·РЅР°Р»Рё
РєРѕРЅС†РѕРІ
Р¶РёРІРѕС‚РЅС‹С…
##СЂРёРЅР°
СЂР°Р·РІРёС‚
РЅР°С‡Р°Р»СЊ
##СЂРёС‚СЊСЃСЏ
С‚РѕРЅРЅ
РїРѕСЃС‹
РєРЅРёРіСѓ
Р—РµРјР»Рё
РѕС‚РєР»СЋС‡Р°
СЃРµСЂРёРё
Р¶Сѓ
##СЂРµРјСЏ
Р±Р°Р·Рё
РјРѕР±Рё
РїСЂРѕСЃРјРѕС‚
##РІРєСѓ
РћРїСЏС‚СЊ
РќР°РґРµСЋСЃСЊ
СЃРјРѕС‚СЂРµР»
##ip
СЃСѓС‰РµСЃС‚РІСѓ
РЅР°С‡Рё
РјРѕР»РѕРґС‹
Р·РґСЂР°
Р»Р°Рј
СѓС€Р°
РїРѕР»РЅРѕС†
##РјСѓС‚
РЅР°СѓРєРё
РЅРµСЃРѕ
##Р»РѕРµ
СѓС‡С‘
РїСЂРѕС‡Р°СЏ
##РЅРѕСЃРё
РєР»Р°СЃСЃР°
РѕР¶РёРґР°
2012
СЃС‚СЂРѕРёС‚СЊ
РїРѕСЂСЏРґРѕРє
Р·РґРѕСЂРѕ
РЅРµСѓРґР°
РѕСЃСѓС‰Рµ
##Р±РµСЃ
##РїРѕСЂР°
РїР»Р°СЃС‚Рё
РєСѓРї
РµРґРёРЅСЃС‚РІРµРЅРЅС‹Р№
СЃСѓРґР°
РѕС‚РІРµС‚Р°
##РµСЂР±СѓСЂ
РІРѕР»РЅСѓ
РљР°Р¶РґС‹Р№
РїРѕС€РµР»
С…СѓРґРѕР¶
СЃРјРѕРіР»Рё
РЅР°С‡РёРЅР°РµС‚СЃСЏ
РґРµСЏС‚РµР»СЊРЅРѕСЃС‚Рё
РґРѕР±Р°РІРёС‚СЊ
Р—СЋРіР°РЅРѕРІ
СѓС‚СЂРѕРј
РІС‹СЃРѕРє
##РґСѓРј
РјРѕРµРј
##РґРµРјРё
Р·Р°СЂР°Р±Р°С‚С‹
РїР°Р»Р°
Р•РґРёРЅ
Al
32
Р»РёС‡РЅРѕСЃС‚Рё
РџСѓС‚Рё
##С…РѕР¶Сѓ
РїРѕРґСѓРјР°Р»
СЃС‚Р°С‚Сѓ
##РЅР°С‡Р°Р»Сѓ
СЃРїРµС†РёР°Р»СЊРЅС‹Рµ
РіРµРЅРµСЂ
РїР»Р°С‚
##РїРѕРґ
СЃС‚СЂР°С‚Рµ
СЃСЂР°РІРЅРµРЅРёСЋ
РјСѓР¶С‡РёРЅР°
Р±СЂРѕСЃР°
РїСЂРѕС‡РёС…
РІС…РѕРґ
СЃРІР°
##РєРѕР»Рµ
РљРџ
РѕС‚РєСЂРѕРІ
##С‡РёРІРѕ
РЅРµР·
##С€РёР»Рё
РґРѕР»СЋ
С‡С‘СЂ
РґРµРєР°
РѕС‚РїСЂР°РІРёР»
##РµСЂСѓ
РІРµСЂС…
##РєР»СЏ
РёРіСЂР°С…
##СЊРјРё
СЃС‚СЂ
С‚СЂРµРЅРё
РєСЂСѓС‚Рѕ
СѓСЃРїРѕРєРѕРё
СЃС‚РѕСЂРѕРЅРµ
##РљРЎ
РѕСЃС‚Р°РµС‚СЃСЏ
##РќР«
РёР»Р»СЋ
РЅР°С€РµРј
РїР»РѕС…Рё
##РёР»Р»
РЅР°РёР±РѕР»РµРµ
##С‚РѕРЅР°
##СЌС‚
СЂР°СЃРїСЂРѕСЃС‚СЂР°РЅ
СЃРїСЂР°РІРµРґР»РёРІРѕ
СЃРѕРІРµСЂС€
##РІРµРґР»Рё
##РѕРїР°
##РіР°СЋС‚СЃСЏ
&#
РІСЃС‚СЂРµС‡
РјРµРґРёС†РёРЅ
РІРµСЂРѕСЏС‚РЅРѕ
С‚РІРѕСЂ
СЃС‚СЂР°С€РЅРѕ
Р±РµСЃРїРѕРєРѕР№
Р¶РёС‚РµР»РµР№
##out
##С‚С‹РјРё
Р·Р°СЃРµ
С„РёРЅР°РЅСЃРѕ
РїСЂРѕС€Сѓ
Р—Рђ
СЃРµРіРѕРґРЅСЏС€
РїС‚Рё
##--------
##РЅРЅС‹Рј
РјРѕРґРµР»РµР№
РёР·РјРµРЅРµРЅРёСЏ
##РРў
СЂРµР¶
РѕР±РѕР№С‚РёСЃСЊ
##РІР°С‚РµР»СЊ
РҐСѓ
##РіРѕРґР°
##С€Р°Р№С‚Рµ
РїРµС€Рµ
Р°РІРё
РѕСЃРЅРѕРІРµ
##РЅРѕРІРѕ
РёРЅРё
СЂСЏРґ
РџР»Р°
РќРµРј
РЎРµРІРµСЂ
РёРЅС‚РµСЂРЅРµС‚Рµ
РѕС‚С‚СѓРґР°
РЅР°Рі
РїСЂРёРЅСЏС‚СЊ
СЂРѕРґРёС‚РµР»РµР№
Р°РїСЂРµ
РїР°СЂРєРµ
##РѕРїРµСЂР°
##Р»РѕС‚
##РёРЅРё
РњРЅРѕ
##РєР°Р»
РµРґСѓ
РїР°СЃСЃР°Р¶Рё
Р‘РѕР¶Рµ
Р·Р°РєРѕРЅР°
РњРЅРѕРіРѕ
СЃРјРѕС‚СЂСЋ
Р¶СѓСЂРЅР°
СЃС‚РѕР»СЊ
С‚СѓСЂРё
РЅР°С‡РёРЅР°СЋС‚
##Р»СѓР°
##СЃС‚РІРѕРІР°Р»
......
РѕР·
РїСѓСЃС‚С‹
##СЌРј
РїСѓРЅ
С‚РµСЂР°
СЃСЂРµРґСЃС‚РІ
РїРµСЂРµРї
РїСЂРѕРІРѕРґ
РєРѕРЅС‚СЂРѕР»Рё
РЎРїСЂР°
РїРѕРёСЃРєР°
РџР»РѕС…Рѕ
РїРѕРґРѕР·СЂРµ
РїСѓРЅРєС‚Р°
Р±РѕР»СЊС€РёРјРё
Р»РёРЅ
СЂС‹РЅРѕРє
##СЃС‚Р°Рј
Р·Р°РєР°Р·
РѕРїРёСЃР°РЅРёСЏ
##РїРµС‡Р°
РІРїРё
Р”Рќ
РђР»СЊ
РїСЂРѕРёР·РІРѕРґРёС‚РµР»РµР№
##47
РѕС‚РІРµС‚РёР»
РєР°РЅ
##С‡РµСЃС‚РІРµ
Р”РјРёС‚СЂРё
Р»РёС‚
РєРѕРјС„РѕСЂС‚РЅРѕ
Р“РѕСЂ
Р±СѓРєРІР°Р»СЊРЅРѕ
##СЃС‚РµСЂРё
РєРѕСЂРёС‡
РґС‹СЂСѓ
##Р±РѕРІР°Р»
РєРѕР»РёС‡РµСЃС‚РІР°
РїРѕРїСЂРѕР±РѕРІР°С‚СЊ
РґРµР№СЃС‚РІРёР№
РїР°РјСЏС‚Рё
РџСЂРѕР±Р»РµРј
РѕР±СЂР°Р·РѕРІР°РЅРёРµ
РїРёСЃ
##РІР°РµРјСЃСЏ
##С…СѓСЋ
РІРѕРЅ
СЂР°Р·СЂР°Р±РѕС‚
РѕС‰СѓС‰РµРЅРёРµ
##С‚РёС‚СЃСЏ
##РѕРѕ
С‡Р°СЃС‚РЅРѕСЃС‚Рё
СЃРѕС„С‚
РјРѕР·РіР°
##РІС€РёС…СЃСЏ
С„РѕС‚РѕС€Рѕ
Р±СЂРµ
РєР°С‡Р°
РѕС‚Р»РёС‡
РїРѕРїСЂРѕР±Сѓ
РїРѕРЅРёРјР°СЋС‚
##РіСЂР°Рґ
##С‡РЅРѕСЃС‚СЊ
Р·Р°СЂР°РЅРµРµ
РїСЂР°РІРёС‚РµР»СЊСЃС‚РІРѕ
РєР°РґСЂ
РїРµСЂРµРІРѕРґ
##С‰РёР№СЃСЏ
СЃС‡С‘С‚
С‚РµСЂСЏ
РёСЃРєР»СЋС‡РµРЅРёРµ
Р—РЅР°РµС€СЊ
##СЊРµС‚
РЎРЅР°С‡Р°Р»Р°
СЃСЃС‹Р»РєРµ
##РіРёСЋ
##РІР°С‚Рѕ
РїРѕРєР°Р·С‹РІР°РµС‚
СЃРІСЏР·СЊ
РёРіСЂ
РїСЂРµРґС‹РґСѓС‰РёС…
РјРѕСЂРѕ
РїРѕРґРєР°
РґРѕР±С‹
РІР°СЂРёР°РЅС‚Рµ
29
##Р»РµРІРѕ
РІРІРѕ
РїРѕРґСЃРєР°
СЂРµР»РёРіРёРѕР·
СЂР°Р·РіРѕРІРѕСЂ
СЂР°СЃСЃРєР°Р¶РµС‚
РЅСЂР°РІ
2007
РёРіСЂР°СЋ
##СЂРёС‚СЃСЏ
##Р¶РЅРѕРіРѕ
СЃРѕР±Р»СЋ
##РґРѕР±Рё
РѕСЃС‚СЂРѕРІ
Р§РµР»РѕРІРµРє
СЃРµРјСЊ
РјР°С€РёРЅ
РџСЂРѕРіСЂР°Рј
С„РѕСЂРјРё
##СЂРЅС‹Р№
С‚РѕРїР»РёРІР°
##СЋС‰РёС…СЃСЏ
РјРЅРѕР¶РµСЃС‚РІРѕ
##СЂР°Р·Рѕ
СЌС„С„РµРєС‚РёРІРЅРѕ
СЃРїР°СЃ
Р±Р»РёРЅ
РџРѕС…РѕР¶Рµ
РѕР±РѕСЂСѓРґРѕ
##РІРёС‡Р°
Р±РёС‚
Р°РІРіСѓ
##РѕСЂРµС‚Рё
Р·Р°Р±
РњРѕСЃРєРІР°
РјРёРЅСѓСЃ
СЃРёРЅ
РґРѕРєСѓРјРµРЅС‚С‹
РџРђР 
Р’Р’
РєРѕС„Рµ
##РґРµСЃ
РћС‚РґРµ
РїСЂРѕРІРѕРґР°
..."
РіР»СѓР±РёРЅРµ
Р·Р°С€Рё
un
СЃРґРµР»Р°Р»Р°
РЅС‘Рј
РІС‹Р·С‹РІР°
##СЋС‰СѓСЋ
РєРёР±РµСЂ
РїСЂРѕС‚РёРІРѕРїРѕ
РїРѕРґРѕР±РЅС‹Рµ
РљР»Р°
РєРІР°СЂС‚РёСЂСѓ
РїСЂРµР·РµРЅС‚Р°
РєР°Р¶РґРѕРј
##ex
600
##РµРЅСЃ
##РІРѕРєР°
РїСЂРµРґРјРµС‚
РёСЃС‚РѕС‡РЅРёРє
РїРёРєР°Р±СѓС€
Р“СЂСѓ
СЃРјРµС€
##РљР
РѕР±РµР·
С†РёС‚Р°
Р·Р°РґРµ
##ax
Р»РёС†
РµР·РґРёС‚СЊ
##Р¶РЅС‹
РїРѕРјРѕРіР°РµС‚
##С‘С…
РїСЂРµРґР°
РїР°СЂС‚РёСЋ
СЂР°СЃРєСЂС‹
##РїРѕСЂС‚Р°
##РєР°РµС‚
##Р±РёС‚
##РІРёР»Р°
РґР»РёРЅР°
РњРµСЂ
##РµСЃСЏ
РЎСЂРµРґ
СЂСѓСЃСЃРєРѕРіРѕ
РјРѕРЅРѕ
##ash
СЃРєР°Р¶РµС‚
##Р»СЏРј
РєСЂРµРї
РїРѕРІРµ
СЃРѕРѕС‚РІРµС‚СЃС‚РІРµРЅРЅРѕ
РµРґРѕР№
РїСЂРµСЃС‚СѓРїР»РµРЅРёСЏ
РЅР°С…РѕРґСЏС‚
СЃРѕРѕС‚РІРµС‚СЃС‚РІСѓ
РїРѕСЌ
РћСЂ
РґРёСЃРє
С„РѕРЅРµ
СЃРёС‚СѓР°С†РёСЏС…
Р±РѕРµРІ
РЅР°С€Сѓ
СѓРґРёРІР»РµРЅРёРµ
##СЃС‚Р°Р»Рё
##РЅРµРЅРёР№
РёСЃС‡РµР·
РћРіСЂРѕРј
СЏР·С‹РєРµ
##РЅСЏС‚СЊСЃСЏ
##С†РѕРј
##С‡РёС…
##Р·РјРѕРј
РїСЂРёРЅР°РґР»Рµ
РРЅРѕРіРґР°
##РєР»
##РєСЃСѓ
##Р»РµРјСѓ
Р°СЃ
Р·Р°РІСЏР·Р°
РІРїРµСЂРІС‹Рµ
СЃРµРјСЊСЏ
РЅР°Р±
РІРµРґСѓ
С…Р°СЂР°РєС‚РµСЂРё
СЌС‚РёРјРё
РЅРµРІРё
##С‰РёРєРё
РїСЂРѕРІРµРґ
РїР°РјСЏС‚
##СЂРµС†
Р·Р°СЂРµ
РїСЂРѕРёР·РІРѕРґРёС‚РµР»СЊ
РЎР»Р°
РїРѕР»РЅРѕР№
##Р·РѕРІРё
РќРћ
РєР°СЂС‚
РґРѕРєР°Р·Р°С‚СЊ
РїРѕР»РёС‚Рѕ
Р¤РѕСЂ
##РјРµСЂРЅРѕ
##Р±Р°Р№
##ore
РјРѕС‰РЅС‹Р№
Р’РёРґРёРјРѕ
Р°РІС‚РѕРјРѕР±РёР»СЊ
РїРѕСЃС‚РѕСЂРѕРЅ
РІС‹Р·С‹РІР°РµС‚
РїР°С†Р°
РєР°С‡РµСЃС‚РІР°
##С†РёРѕРЅРЅС‹Рµ
СЃС‚Р°С‚
##69
РІРµСЂСЃРёРё
РѕС‚РІРµСЂ
РјСѓР·С‹РєР°
СЂР°Рґ
##С‰Р°СЋС‚
РЅР°С…
##РћРќ
РєРѕРЅС‚РµРє
РІРѕРµ
СЂР°Р·РІРѕРґ
##ode
РўРѕС‡РЅРѕ
РїРѕСЂС‚
РџСЂРѕСЃС‚РёС‚Рµ
Р·Р°СЃР»СѓР¶РёРІР°РµС‚
##Р¶РєРµ
Р·Р°РєР°РЅС‡Рё
##РіРѕРЅ
РїСЂР°РІС‹
##РІР°СЏСЃСЊ
Р»СЋР±РѕРІСЊ
РљСЂРё
РїРѕС‚РµРЅС†Рё
##ON
РїРёР·РґРµС†
РІРµСЂРЅСѓС‚СЊ
РѕС…СЂР°
##РІР»СЏСЋ
Р±РѕР»СЊС€РѕРµ
Р»РµРіС‡Рµ
РїСЂРёС…РѕРґРёС‚
СЃРїСЂРѕСЃРёС‚СЊ
С‚СЂРµРЅ
Р·Р°РґР°С‡Р°
Р’Р°С€Рё
##РґР¶Р°
РњРѕСЏ
СЂР°СЃСЃРјРѕС‚СЂРµС‚СЊ
Р•РЎ
RT
РґРІРёР¶
PS
РѕР±СЃС‚РѕСЏ
##С‡СѓРІ
##one
РјРёРЅРёРјР°
С…СЂРёСЃС‚Рё
##РёРіСЂС‹
РґРёСЂ
Р±СѓРґСѓС‰РµРј
2006
Р±РѕР»СЊС€СѓСЋ
СЃРёСЃС‚РµРјРµ
##РґРѕРІР°С‚СЊ
РµР¶Рµ
РІРЅРµР·Р°РїРЅРѕ
##РґС†Р°С‚СЊ
РёРґРµРѕР»РѕРіРё
РјРѕРіР»Рѕ
СЃРѕР±СЃС‚РІРµРЅ
##СЃС‚Р°РЅРѕРІ
##Р¶РґР°РµС‚
СѓРїСЂР°РІР»РµРЅРёСЏ
РѕР±СЃР»СѓР¶Рё
СЂРµР·Р°С‚СЊ
Р’СЂРѕРґРµ
##РёСЃР°
##РјР°РЅР°
at
СЃС‚РѕР»Рё
##РїР»СѓР°
РџР»СЋСЃ
Р»РёРЅРёРё
РїСЂРѕРёР·РІРѕРґРёС‚РµР»Рё
##Р¶Р°СЏ
Р”Р¶РµР№
##СЃР»РѕРІРЅРѕ
РїРµСЂРІРѕРµ
РїРѕРїР°СЃС‚СЊ
##РєСЃС‚
Р¶РµР»Рµ
РЎРµСЂРіРµР№
112
РќРµРєРѕ
РІС‹Р№С‚Рё
##РёРјСѓС‰Рµ
СЃРјСѓ
189
РјРѕРјРµРЅС‚Р°Р»СЊРЅРѕ
РјРѕС‚Рѕ
Р·Р°Р±С‹РІР°Р№С‚Рµ
СЃР»СѓС‡Р°РµРІ
РіРѕРґРѕРІ
##РЅС‘
РћС‚РєСѓРґР°
##РЅРµСЂР°
РјРёСЂРѕРІРѕР№
РњРѕСЃРєРѕРІ
##С‚РёР»СЃСЏ
РєР°Р¶РґС‹
.&
Р±Р°С€РЅРё
РїРѕР»РёС‚РёРєРё
РєРѕРѕРїРµСЂР°
USB
##Р·РѕР№
С‚РёРї
##ian
##С‚РёСЂРѕРІР°С‚СЊ
##Р¶Р°С‚
##РЅР°СЃ
Р·Р°РјРµС‚РёР»
Р·Р°РіСЂСЏР·
Р±РµСЃРєРѕРЅРµС‡РЅРѕ
Р›РµРЅРёРЅ
С‚СЂР°РЅСЃРїРѕ
##Р”Рђ
Р‘РѕРі
РєРѕРјРјРµРЅС‚Р°СЂРёР№
##ong
РЅР°РїСЂ
РѕС‚РєР»Рё
СЃС‚СЂР°С€РЅРѕРµ
РЅР°СЃРё
##ity
РїРѕРЅР°С‡Р°Р»Сѓ
##С€Р°Р»Р°
РїРѕР¶Рё
##СЂРѕРІР°РЅРЅС‹Р№
##С‚РЅСѓСЋ
РјР»СЂРґ
##РїРёР»Р°
РёРіСЂРѕРІРѕР№
РЅР°С‡Р°Р»Рѕ
СѓРІРµР»РёС‡Рё
РџРµСЂРІС‹Р№
СЏРєРѕР±С‹
##С†РёРѕРЅРЅС‹Р№
##ky
##РёРІР°РµС‚
РіРѕР»РѕСЃ
##Р»СЋСЃСЊ
РєРѕСЃС‚
РїСЂРѕРґРІРё
РџРѕР»СЊР·РѕРІР°
С„РѕСЂСѓ
2013
Р§РµРіРѕ
РїР»СЏ
РџСЂРµР·РёРґРµРЅ
СЂРµРґ
РІР»Р°РґРµР»СЊ
РґРµС‚СЃС‚РІРµ
##РґСЂР°РІСЃС‚РІСѓР№С‚Рµ
РњРµРґРІРµРґРµ
Р·РЅР°РєРѕРјСЃС‚РІР°
РљСЂРµРј
##РЅРµС€СЊСЃСЏ
РѕР·РІСѓС‡Рё
Р·Р°С‚СЂР°
##С‚РёСЂСѓ
РђРЅРіР»Рё
РґРѕРї
РЅР°РєР°Р·Р°
РїР»Р°РЅРµС‚С‹
РѕР±РµС‰Р°СЋС‚
##СЃСЂРµРґ
РґРѕРєР°Р·Р°С‚РµР»СЊСЃС‚РІР°
С„РёРіСѓ
РїСЂРµРґРµР»Р°
РїСЂРѕС†РµРЅС‚РѕРІ
Р·Р°СЏРІР»СЏРµС‚
РѕС‚РєР°Р·
Р‘Р°СЂ
РћРЅРѕ
РјРѕС‘
##Р»РµС‚РєР°
РѕС‚РІРµС‚СЃС‚РІРµРЅРЅРѕСЃС‚СЊ
РґСѓС€Рµ
РёРЅС‚РµСЂРІСЊСЋ
СѓРІРѕ
С„РёСЂ
С„Р°Р№
РёСЃРїРѕР»СЊР·РѕРІР°РЅРёРё
С„СЂР°РЅС†СѓР·
РїР°СЂРЅСЏ
##СЋС‰РёРµСЃСЏ
##qu
СѓСЃРїРµС€
##Р»РµСЂР°
РѕС‚РЅРѕС€РµРЅРёРё
##РїРёСЃСЊ
РІРЅСѓ
РѕС‚РїСЂР°РІ
РѕСЃРєРѕСЂР±
##СЂРєСѓ
СѓРјРёСЂР°
##24
СЃРєРѕСЂРѕСЃС‚СЊСЋ
С‡СѓРІСЃС‚РІР°
Р°РіРµРЅС‚
СѓРєР°Р·
РёРЅРґСѓ
СЃРІРµС‚РѕРґРёРѕ
Р‘С‹Р»
РїСЂРёСЃРѕ
РѕСЂРіР°РЅРёР·Р°
##РїРѕС‚Рµ
##С‚Р°Р»СЊ
##РґСЂРё
РїРѕРєРё
Р·РµРјР»Рµ
РїРѕРЅСЂР°РІРёР»РёСЃСЊ
РІРµСЂРЅСѓС‚СЊСЃСЏ
РѕСЃС‚Р°РЅРµС‚СЃСЏ
РљРѕРјРї
РєРѕРјРјРµСЂ
##65
РґР°РІР°С‚СЊ
Р”Р¶Рѕ
Р“РёС‚
РљРѕСЂРѕС‡Рµ
Р±Р»РѕРєРё
##СЉСЏСЃ
РђРґ
С‚РµРјС‹
AS
##РєСЂРѕСЋ
РєСѓСЂРё
РЅР°СЂРѕРґСѓ
##77
РЅР°СЃРµР»РµРЅРёРµ
С„Р°РєС‚Сѓ
##РєСЂРё
"...
##________________
##Р±РѕС‡РєРё
##С‡РµРЅРЅС‹Рµ
СѓРЅРёРєР°
РїРѕСЃС‚С‹
РѕР±Р»Р°РґР°СЋС‚
СѓС‚РѕС‡
Р РѕРґ
РЅР°СЃС‚СЂР°Рё
##Р»РѕРіР°
##СЃС‚РѕСЂРѕ
РќРђРЎРђ
С…РёС‚
##СЃС‚РµСЂРµ
РєСЂРµСЃР»Р°
!-
РўРѕР¶Рµ
##Р Р
СЃР»РµРґРѕРІР°
РЅР°СЃС‚РѕСЏС‰РёР№
Р”РµР№
РєСЂСѓРі
Р”Р¶РѕРЅ
РіСЂСЏР·
##Р·РёСЃ
С„СЂРѕРЅ
СЃР»РѕР¶Рё
РїРѕРґРїРёСЃР°
РґРѕР¶РґСЏ
СѓРІС‹
СЏР·С‹РєР°
##С‚РµР»СЋ
Р’Р°С€
##СЂРѕРІР°РЅРЅС‹Рµ
Р–РёСЂРёРЅРѕРІСЃРєРѕРіРѕ
Р±РµР»
##68
Р±РµСЂРµРі
РЅРµР±РѕР»СЊС€РѕР№
СЂРѕРґР°
СЃС‡РёС‚Р°РµС‚СЃСЏ
СЂР°РєРµС‚Р°
С‚РµРјРЅРѕС‚Рµ
РѕРїСѓР±Р»Рё
СѓРґР°СЂ
##Р”Р”
РјРѕР»РѕРґ
РїС‹С‚Р°СЋС‚СЃСЏ
РЅР°Р·С‹РІР°СЋС‚
Р·Р°РїРёСЃР°С‚СЊ
С„РѕСЂРјРµ
##С†РёРѕРЅРЅРѕР№
РїСЂРѕРіСЂР°РјРјР°
Р·Р°РєСѓ
Р’СЃСЏ
Р°СЃС‚СЂРѕ
РѕР±РѕСЃРЅРѕ
")
РјРµР¶РґСѓРЅР°СЂРѕРґ
РЇРїРѕ
ru
СЃС‚Р°РЅРґР°СЂС‚С‹
СЃС‚Р°С‚СЊСЏ
##РіР°Р№С‚Рµ
РґРµСЂСЊ
РёСЃРїС‹С‚С‹
РєСЂРѕРІР°
##РЅС‚РѕРІ
СЂР°Р·СѓРјРµРµС‚СЃСЏ
СЂР°Р±РѕС‡РµРµ
РІРѕР№РЅРµ
РІС‹РЅСѓР¶Рґ
РѕСЃС‚СЂРѕ
РІС‹СЃРѕС‚Р°
РїСЂРµРІС‹
Р“РѕСЃСѓ
СЃРїР»Рѕ
Р·Р°Р»Рё
РїСЂРѕР±Р»РµРјСѓ
РѕР±РµСЃРїРµС‡РµРЅРёРµ
СѓСЃРёР»Рё
РѕС‚С†Р°
##РЅРёРµР№
РІС‹РґРµСЂР¶Р°
С„Р°СЂ
С†РёС„СЂС‹
Р±Р»Рµ
РёРЅС‚РµСЂРµСЃР°
##РјРµСЂРµ
Р·РЅР°РЅРёСЏ
С€РёСЂ
РїСЂРµРґР»РѕР¶
РѕС‚РЅРѕСЃРёС‚СЃСЏ
Р¶РµСЃС‚Рѕ
##РїР»С‹
##Р¶РґРµРЅРёР№
##СЂРѕСЃС‚
РєСЂР°СЃРѕС‚Сѓ
##ony
РјРѕСЂСЏ
РїСЂРёРЅСЏС‚Рѕ
РїРѕРґРѕР±РЅС‹С…
РїСЂРѕС‚СЏ
СЃРµСЂРµРґРё
##С‡Р°СЋС‚
##Р»РѕРІРё
С…РѕС‚
РІРµС‰РµР№
РљР°Р·
РЅРѕС‡Рё
##С‡Р°РµС‚СЃСЏ
##РіР°РЅРё
С‚Р°РєСЃРё
РєРѕС‚РѕСЂС‹РјРё
##РёСЃС‚РѕРІ
РљРѕР»
##io
##Р°Р»СЊРЅСѓСЋ
Р‘СЂРё
РђРЅР°
СЌСЂ
Р›РµРЅ
РІРµС€Р°С‚СЊ
РѕСЃРЅРѕРІР°РЅ
##Р°Р»РѕРІ
СЃРјРѕРіСѓ
РёРіСЂРµ
СЃС‚СЂРѕРёС‚РµР»СЊ
РєР°СЂС‚С‹
Р°СЂРµРЅ
СЃСЉРµ
РјСѓР»СЊ
РѕР±С‰Р°
Р±Р°СЂР°
Р“Р»Р°РІРЅРѕРµ
##С‚Р°С†РёСЏ
##РѕС‚Рµ
РјР°СЃСЃС‹
##Р·РёР№
РґРѕРєР°
##Р»РµРЅРёСЋ
##Р·РєРё
РџРµС‚РµСЂР±СѓСЂ
СЂРµРіРёРѕРЅ
##Р·РѕРІР°С‚СЊ
РїСЂРѕСЃС‚РёС‚Рµ
##СЂРёРєРµ
##Р»РѕРЅР°
Р·РґРѕСЂРѕРІРѕ
##РІС€РёРµСЃСЏ
РёРјРїРµСЂРё
СЃРµСЂРёР°
РўСЂРё
РїРѕСЃС‚СѓРїР°
##pp
РґРѕСЂРѕРі
##Р°РЅСЊ
##РґРёР№
##РґРёСЋ
СЃСѓРї
РІС‹РїР»Р°
##РїРї
С‚Р°СЂРµ
РІСѓ
РґРІСѓРјСЏ
СЂР°СЃСЃРєР°Р·
РІРѕРґРёС‚РµР»СЊ
##СЃС‚С‹Р№
##РµР№РЅ
РјСѓР¶РёРє
##С‚РёРµРј
РѕСЂСѓР¶РёСЏ
##РјРёС‚
Р±Р»СЋ
РїРѕСЃС‚СЂР°
Р»РёС€РЅРµРіРѕ
РїСЂРµРёРјСѓС‰Рµ
РєСѓС…Рѕ
РѕСЃС‚Р°РІРёС‚СЊ
Р±Р°Р·
##РІРѕСЃ
РњР°Р»СЊ
##СЃР»СѓР¶
РІРѕР№СЃРєР°
РџСЂСЏ
##ust
РѕР№
##РѕРЅРѕРј
С„СѓРЅ
Р Р°СЃСЃРєР°
РїРѕСЂСЏРґРєР°
РџРѕРІРµСЂСЊС‚Рµ
РїСЂРёСЏС‚РЅС‹Р№
Р·Р°СЏРІР»РµРЅРёРµ
##ate
##СЃС‚СЂР°СЏ
РЅР°РєР»РѕРЅ
Р’РѕСЃС‚Рѕ
РјР°РЅРё
РџРѕР¶Р°Р»СѓР№СЃС‚Р°
РјРѕС‚РёРІР°С†РёСЏ
РїРѕРЅСЂР°РІРёР»РѕСЃСЊ
РґРѕРєС‚РѕСЂ
РЅСѓР¶РЅРѕРіРѕ
СЃРµРєСѓРЅРґ
СѓРґРѕР±РЅС‹Р№
СЃРѕР±Р»Р°Р·
РїСЂР°РІРѕСЃР»Р°
СЃРѕС…СЂР°РЅ
СЌРєСЃРїР»СѓР°
СЃРєР°Р·
##С‘РЅРЅС‹С…
Р Рћ
СЂРµС€Р°С‚СЊ
РєР»Р°РІРё
РіРµР№РјРїР»РµР№
РЅРѕРІР°СЏ
##СЂРє
РіРѕРІРѕСЂРёС‚СЃСЏ
Р“РµРЅ
##РЅРЅСѓСЋ
РѕРЅР»Р°Р№РЅ
##СЂР°Р±Р°С‚С‹
СЂРѕСЃС‚
Р°РіСЂРµСЃСЃРё
##СЂРѕРІР°РЅС‹
РєРѕСЃРјРѕРЅР°РІ
##С…РѕРґРµ
РїРѕРЅРёРјР°РµС‚
РѕР±С‰РµСЃС‚РІРѕ
##СЂРѕСЏС‚РЅРѕ
РїРѕРґРµР»Рё
##РіРєР°
СЂР°СЃРїСЂРѕСЃС‚СЂР°
Р”Р¶РµРј
##РјРµРЅСѓ
С‚Р°Р»Р°РЅ
РѕРїСЂРѕРІРµСЂ
РєРѕР»СЊ
Р¤РёРЅ
РЅРёРє
as
РґРІРёР¶РµРЅРёРµ
СЃРІРѕСЂР°С‡Рё
##Р·РёР»Рё
##РґРµР»РѕРє
##РµР·РґР°
РїСЂРёРІРё
Р°СЃСЃРѕС†РёР°С†РёРё
##СЃРѕРІР°С‚СЊ
##Р¶РµРЅС‹
Р±Р»Р°РіРѕРґР°СЂ
С€РѕСѓ
РёРЅСЃС‚РёС‚СѓС‚
##ark
СЃРіРѕ
СЃСѓС‚
Р¶РёР»
РЅРѕРІРѕСЃС‚СЊ
РІС‹РІРѕРґ
Р·Р°РїРёСЃСЊ
##Р°РЅСЃ
Р·Р°Р±СЂР°
СѓРЅРёРІРµСЂСЃРёС‚
Р¦Рµ
РІРёРґРµР»Р°
##СЂРѕРІР°РЅРЅС‹С…
РїР°РїР°
Ar
##РµСЃСЃСѓ
РєСЂРѕРІСЊ
##С‚СЂ
РР·РІРёРЅРёС‚Рµ
РїРµСЂРµР»Рё
С„РёР»СЊРјС‹
РІРѕР·РґРµР№
РїРѕРІРѕРґР°
РєРЅРёРіР°
РєСЂРµСЃР»Рµ
##Р¶Р°СЋ
РґРµРІ
РїСЂРёРЅРёРјР°С‚СЊ
##С‡РЅРѕСЃС‚Рё
СЂРµР±С‘РЅ
РѕСЃРІРѕР±РѕРґРёС‚СЊ
СЃРїР°С‚СЊ
СЃРёРґРёС‚
РѕСЃС‚Р°РЅРѕРІ
Р—Р°Рї
РЅР°Р·С‹РІР°С‚СЊ
##РїС‚Рѕ
##Р±Р°С…
##se
##РїСѓР»СЊ
С„Р°РЅР°С‚С‹
РїСЂРѕС‡
##РІРµС‚Р°
РєРІР°РґСЂР°
Р»РµР¶РёС‚
##Р±Р°Р»
РџРѕР»СЊР·РѕРІР°С‚РµР»СЊ
Р»РѕС€Р°
РІРёРЅРѕРІР°С‚
РђС…
##СЃРёС‚Рµ
СЃРїР°СЃР°РµС‚
Р’Рћ
РїРѕРґРѕР±РЅРѕРµ
99
РґРµР»РёС‚СЃСЏ
Р·РµРјР»СЋ
РљСЂС‹РјР°
СЃР»РѕРјР°С‚СЊ
##СЂРёРґ
РЅР°РїРѕ
##С‡РµРЅРёР№
##Р»СЏР»Рё
РјРёСЂРѕРІ
С„Р°РєС‚С‹
СЃРІРёРґРµС‚РµР»СЊ
РІРµСЂРѕСЏС‚РЅРѕСЃС‚СЊ
Р¶РµР»Р°РЅРёСЏ
РєСѓР»СЊС‚СѓСЂ
##orm
##of
РїСЂРёСЏС‚РЅРµРµ
Р—Р°С‚
Р±РѕР»СЊС€РёРј
Р±РµР»Рѕ
СЃС‚Р°Р±Рё
##РўР
##РІС€РёР№СЃСЏ
РћРґРЅРѕ
Р·Р°РґРЅРµР№
С€РєРѕР»Сѓ
##man
Р’Р°С€Р°
##23
PI
СЂРµРіРёСЃС‚СЂР°
РЅРµРіР°
РўРµРєСЃС‚
С‚СЂРµР±СѓРµС‚
СЃС‚Р°СЂС‹Р№
Р”РѕРЅР±Р°
##СЂРѕРїСЂРёСЏ
##С„РѕРІ
Р·Р°С‚Сѓ
С‚РёС…Рѕ
##С€РєРѕ
РїРѕРєСѓРїР°С‚РµР»СЏ
##СЃС‚Р°РІРєРѕР№
Р“РѕСЃСѓРґР°СЂ
СЃРёРЅРґСЂРѕ
РїРµСЂСЃРїРµРєС‚Рё
РїРµСЂРµСЂР°СЃ
Р¤РµРґРµСЂР°С†РёРё
Р¶Р°Р»РєРѕ
##РІРЅРѕСЃС‚Рё
РїСЂРѕРј
РІСЃС‚СЂРµС‚Рё
##РґСЏС‚СЃСЏ
СЌРїРѕ
##СЃР°Рј
РїРѕРІСЂРµ
С‡РµСЂРµ
РџРѕР·
РґРµР»Р°РµС€СЊ
РїРѕР»С‚РѕСЂР°
С…РѕСЂРѕС€РµРµ
Р’РµСЂС…
##СЃРјРµРЅР°
##РІРёС‚СЊСЃСЏ
РўРѕС‚
СЃС‚Р°РІРёС‚СЃСЏ
##РїРѕСЂС‚Рё
РІРїРµС‡Р°С‚Р»РµРЅРёРµ
РљСѓРґР°
СЂРµСЃС‚Рѕ
##С‡РёС‚Р°Р№С‚Рµ
##Р±РёР№
##РїСѓСЃС‚РёР»
РЎС‚Р°СЂС‹Р№
СЂР°СЃС‚Рё
С„РѕС‚РѕРіСЂР°С„РёСЏС…
РњР°СЃРє
РўРћ
СЂРѕСЃСЃРёР№СЃРєРѕР№
##РїРµС‚СЊ
РїРѕРґСѓРјР°С‚СЊ
РґРµСЂР¶Р°С‚СЊ
РёРЅРёС†РёР°
РіРѕР»РѕРІС‹
СЃРјР°СЂС‚С„РѕРЅР°
РїСЂРѕРєР»Р°
##Р»СЏРµС‚СЃСЏ
##С‡РёС‚СЊСЃСЏ
##РґРёС‡РµСЃРєРё
Р»Р°РіРµСЂ
##Р¶РµРІС‹Р№
##sh
РїРѕРЅСЏС‚РЅРѕРµ
СЂР°Р·РґР°
Р”РµРЅСЊ
СЃС‚СѓР»
РЅРµРїСЂР°РІРёР»СЊРЅРѕ
СЃС‚Р°С‚СЊРµ
##Р№РєРё
800
Р¤РѕС‚Рѕ
Р‘Р»Р°РіРѕ
РѕСЃРІРµС‰РµРЅРёРµ
##РїРµРЅРЅРѕ
РѕРїРёСЃС‹
РљР°РЅР°
РЅР°СЃС‚СЂРѕРёС‚СЊ
Р·Р°РіР°
##РЅРёР»Р°
##СЃРµР»Р°
##Р’Р”
##Р»РµС‚РєРё
СЂР°РЅРѕ
##РєРѕР¶Рё
РћР№
РїРѕРјРµРЅСЏ
РїСЂРёРЅС†РёРїРё
##РµР»Рѕ
РІРѕСЃРїРёС‚Р°
##all
С„РёРЅР°РЅСЃРё
РЅРёС‡РµРј
РІСЂРµРґ
##РІР°РЅС‹
РїСЂРёСЏС‚РЅРѕРµ
РЅРѕР¶РєРё
РРЅС‚РµСЂ
##РєРµСЂ
С†РµРЅРµ
РґРѕР»РіСѓ
РїРѕР»РµР·РµРЅ
РЅР°РґРµР¶РЅРѕСЃС‚СЊ
РѕРїС‹С‚Р°
РЅРµРјРЅРѕ
РёР·РІРёРЅРёС‚Рµ
##РјРµСЂРѕРІ
РІРѕР·СЂР°СЃС‚Р°
РќР°СЃРєРѕР»СЊРєРѕ
РѕС†РµРЅРёР»
Р»РёР±
##Р¶Р°Р»Р°
СЃРёРґРёС‚Рµ
РѕР±С‰РµРіРѕ
##Р Рµ
##С†РµРґСѓ
РїСЂРёС‡РёРЅ
РЅР°РјРµСЂ
##РґР¶Рё
Р–Рµ
##РјР°СЃ
С‚СЂРµС‚РёР№
##РІРµС†
##РѕС‚РѕРІ
РїР»Р°СЃС‚РёРєР°
РіРѕР»РѕРІР°
РјРёСЂСѓ
СЃРїСЂР°РІРё
##С†РёРѕРЅРЅС‹С…
РѕРєРµ
##СЂРѕРІРєР°
##СЃСЃРёР№
##ire
##РЅРµРЅРёСЋ
##РІРёРіР°
tit
СѓСЃРё
31
РЎРєРѕСЂРµРµ
РІРёРґРёС‚
##Р°РЅРµ
##BU
С‡РёСЃР»Р°
##СЂРµР»Р°
С…Р°СЂР°РєС‚
РѕРґРЅРѕСЃС‚РѕСЂРѕРЅ
РљРђ
СЃС‚СЂРµРјРё
РїРѕСЃС‚СѓРї
##РґРёС‚Рѕ
С‚РѕС‡РЅРµРµ
РјР°РєСЃРёРјСѓРј
С‚РµСЃ
РІРѕР·СЂР°СЃС‚
##rey
##С‚СЊСЏ
С„СѓС‚Р±РѕР»
СЏСЂРєРёС…
Р°РЅРѕ
СЃРµР»Рѕ
##РЅРёРєР°С…
РїСЂРёРЅРѕ
##СѓСЂРµ
##С‘РІ
РЎС‚СЂР°РЅ
РїРѕР»СѓС‡Р°С‚СЊ
##Р»РѕРіРёРё
##Р·РёР»
Р·Р°С‰РёС‚
СЃРѕРіР»Р°СЃРЅРѕ
СѓРґРѕР±РЅР°СЏ
РїРѕР»СѓС‡Р°РµС‚
Р”РІР°
##С…Р°СЏ
СЏРЅРІР°
РјРµСЂРѕРїСЂРёСЏ
##РіРѕС‚Рѕ
РІС‚РѕСЂРѕРіРѕ
РІС‹РєР»СЋС‡РёС‚СЊ
РІРѕР·РјСѓ
##Р”Р
РёРЅС‚
С„Р°РєС‚РёС‡РµСЃРєРё
РєРѕРЅРєСѓСЂРµРЅС‚С‹
РЅРµР±
##ail
Р·Р°СЃС‚Р°РІРё
СЃС‚РµРї
42
РїРµРЅСЃРёРѕРЅ
СѓР·РЅР°Р»
##ess
Р·РѕРІСѓС‚
С‚РµРѕСЂРµС‚Рё
РґРµРј
РєРѕРЅС‚СЂ
Р»РµС‚РѕРј
С†РІРµС‚Р°РјРё
С…РѕРґРµ
##РїР°РЅРёРё
РїСЂРѕРµРєС‚Р°
##St
Р·Р°РЅРёРјР°РµС‚СЃСЏ
##СЂРёСЃС‚
Р»РµРЅРё
РјР°СЃС‚РµСЂ
##РїС‚Рё
РІРёРЅРѕРІРµРЅ
##СЊРµР·
СЃРѕР±Р°Рє
РћР±СЂР°
РІРІРµСЂ
РѕСЃС‚Р°Р»РёСЃСЊ
##РµРІСЂР°
СЌРЅ
РїРѕРѕ
СЌРєСЃРїРµСЂРёРјРµРЅС‚Р°
СЃРєРѕСЂ
##РЅРµРІС‹Рµ
РІРёРґРµРѕР·Р°
)?
##РЅРѕРјРёРєР°
Р·Р°РґРЅРёС†С‹
РЅРµС‚Сѓ
144
РґРѕРіРѕРІРѕСЂ
##75
РєСЂРµРґРёС‚
):
##ock
##С€СѓСЃСЊ
С…СЂРё
РЅРµРїРѕСЃСЂРµРґ
РїСЂРµРґСЃС‚Р°РІР»РµРЅ
РїСЂРѕРёР·РІРѕРґСЃС‚РІРѕ
##РЅРµРє
##РїР°Р»
##С‰РµСЂ
РјР°Рі
##Р·РµР№
С„РµСЂ
##С…Р°Р»
СЃС‚Р°С‚СЊСЋ
СЃРєРёРґРєР°
РґС‹С€РёС‚
##Р РЈ
Game
РїСЂРѕС†РµСЃСЃРµ
СЌР»РµРєС‚СЂРѕРЅ
##Р·РјРµ
##РµР№СЃР±Рѕ
##РєРЅРѕРІ
РіР°РґР¶РµС‚
РїСЂРµРІСЂР°С‰Р°СЋС‚СЃСЏ
##zh
РѕСЃС‚Р°Р»СЃСЏ
РєРѕРЅСЃС‚СЂСѓ
РјРёР»Р»РёРѕРЅР°
РѕРґРЅРѕР·РЅР°С‡РЅРѕ
Р°РіРё
РІС‹С…РѕРґСѓ
СЃР»РµРіРєР°
РјРѕРЅРёС‚РѕСЂР°
Р Рђ
РїСЂРѕС…РѕРґ
Р·Р°РёРЅС‚РµСЂРµСЃРѕ
##СЂРѕРІР°Р»Р°
РїРѕРґСЂСЏРґ
##СѓСЃР°
РїСЂРѕС€Р»РѕРіРѕ
РўР°РєРёРј
СЃРѕР»Рё
РІР»Р°РґРµ
С‡СѓРІР°Рє
Р—РґСЂР°РІСЃС‚РІСѓР№С‚Рµ
С‚Р°СЂРµР»РєРё
##РµРЅСѓ
РєР°Р·
##СЃС‚РёРєРё
##ith
СЂР°Р·РІР°Р»Рё
СЃРµР·РѕРЅ
Р РµР°Рє
it
Р•РјСѓ
СЂР°РІ
Р°РІС‚РѕРјР°
РјР°С‚РµСЂРёР°Р»Р°РјРё
РїСЂРёРє
Р±РµСЃРїРѕР»РµР·
С‚СЂРµР±РѕРІР°РЅРёСЏ
СЃРѕРІРµ
##РєРЅСѓС‚СЊ
##СЃС‚РЅС‹Рµ
##Р±РµСЂРё
РІС‹СЃРєР°Р·С‹РІР°
РџРµС‚РµСЂР±СѓСЂРі
Р±РµР№СЃР±Рѕ
##ox
##С‰РёРјРё
РІС‚РѕСЂР°СЏ
##С‚Р°Р»Рѕ
РєСЂР°СЃРёРІРѕ
СЌРєРѕРЅРѕРјРёРєРё
СЃС‚СЂРѕРіРѕ
188
РїСЂРёРєСЂС‹
РїСЂРѕС…РѕРґРёС‚
РґРёСЂРµРєС‚РѕСЂ
Р°РґРІРѕРєР°
##РіРЅСѓС‚СЊ
Р›РµС‚Рѕ
РІРёРґРёРј
##ect
РєРѕРјРїР»РµРєС‚Р°
РґРµСЃ
РєР°СЂР°
С€Р»Р°
Р»СЋР±С‹Рµ
РіР°Р·Рѕ
##СЂРѕРІРѕРµ
С‡С‘
##Р±РµР»СЊРЅРѕ
РєР°С„Рµ
РїСЂРѕРёР·РІРµРґ
РѕС‚РґРµР»СЊРЅРѕ
СѓРјРµРµС‚
##ord
СѓРїРѕРјРёРЅР°С‚СЊ
2005
РѕРїРµСЂР°С†РёРё
РўР°РєРёРµ
that
С‚РІРµСЂ
РіСѓР±РµСЂ
##Р”Р»СЏ
СЃРёРјРјРµС‚СЂРё
СЂРµР·РєРѕ
##ula
СЃРІРёРЅСЊСЏ
##EC
##С‚РЅРѕСЃС‚Рё
##РіРЅСѓ
РїРѕРґС…РѕРґРёС‚
РІСЃС‚СЂРµС‚
РњРЅРѕРіРёРµ
##mer
##lex
РѕС‚РїСЂР°РІР»СЏР»Рё
РіРѕР»РѕРІРѕР№
РїРѕСЃРјРѕС‚СЂРµР»
С‚РµРЅ
##IF
СЃРёР»Р°
С‚СЂСѓРґ
##С†РµРЅС‚
РїСЂРµРїР°СЂР°
Р±Р»РёР·РєРѕ
РѕС‚РєСЂС‹С‚
##Р»СЊС†Рё
РїСѓРЅРєС‚
Р·Р°РєР»СЋС‡Р°
РЅРµРѕР¶РёРґР°
РїСЂРѕР¶
СЂРѕСЃСЃРёСЏРЅ
РєР°Р±РµР»СЏ
СЃС…РѕР¶Рµ
Р·Р°СЏРІР»РµРЅРёСЋ
##Р¶РґР°СЏ
Р»РµРІ
Р»СЋР±РІРё
##Р·РѕРє
СЃРЅСЏС‚СЊ
РґРѕРїРѕР»РЅРёС‚РµР»СЊРЅРѕРµ
РїРѕР»СѓРїСЂРѕ
С€СѓРјРѕ
РґР°Р№
СЂРµС€РёС‚СЊ
РіСЂР°С„
РѕСЃРЅРѕРІРЅРѕР№
РЅРµРѕР±С‹
##РІС€РёРј
РќР°РІР°Р»СЊРЅС‹Р№
pro
##РїСѓСЃС‚РёР»Рё
РєСЂСѓС‚С‹Рј
##СѓСЌ
##Р»СЏС†РёСЏ
РєРІР°СЂС‚РёСЂС‹
Р·Р°С…
РЅРµР·Р°РІРёСЃРёРјРѕР№
##Р»С‹РјРё
СЃС‚СѓРїРµРЅСЊ
С…СЂРѕ
##bat
##СЃРёСЏ
Р·Р°РґСѓРјС‹РІР°С‚СЊСЃСЏ
Р·РІСѓРєРѕРј
##С‚РёРІРЅРѕСЃС‚Рё
Р°РґРјРёРЅРёСЃС‚СЂР°С‚РёРІ
С€РёСЂРёРЅР°
РїСЂРѕР±Р»РµРјР°Рј
##СЊРµСЂ
РЅР°СЃС‚РѕСЏС‰РµРµ
##РІР»РµС‚
РђР·
Р°РєСЃ
СЃРµРјСЊРµ
РґРІРѕСЂ
##РЅРєС‚
СЂР°Р·РІРёС‚РёРµ
СЃРѕР±РёСЂР°СЋСЃСЊ
РїРѕРІРµР·Р»Рѕ
РїСЂРёС‡РёРЅС‹
РѕСЃСѓС‰РµСЃС‚РІ
РѕС‡РµСЂРµРґРё
С‚СЂСѓРґРѕ
Р°Р»СЋРјРёРЅРёСЏ
##РїСЏ
sp
СЃРѕСЃС‚РѕРёС‚
2004
РјРѕС‰РЅС‹Рј
##РјРµРЅСЏС‚СЊ
Р¦РµРЅС‚
##С€РµС‚СЃСЏ
##rid
186
РїСЂРёС€Р»Р°
##С€РёРЅР°
РґРІРѕР№
РїРѕРґРїРёСЃ
РІС‹С…РѕРґР°
##РјРЅРѕРµ
##Р±СѓСЂРі
СЂР°СЃСЃРєР°Р·Р°Р»
РјРѕРЅР°
СЃС‚Р°С‚СЊСЏРј
##Р°РґР°
РіР»Р°Р·Р°РјРё
##РјРѕРІРѕРіРѕ
СЃРѕРїСЂРѕС‚Рё
РѕС€РёР±РєРё
РЎРѕСЋР·
##С‚РµС…
СЂР°РјР°
С…РІРѕ
СЃСЌСЂ
Р“РѕСЃРїРѕ
РѕРґРЅР°Р¶РґС‹
РІР°С€РµРј
##РєРѕРІСЊ
С€РєРѕР»СЊРЅС‹С…
##РєР°РґРµРјРё
РёРЅС‚Рµ
СЃРїСѓСЃС‚СЏ
СѓС€Р°С…
РїСЂРѕС†РµРґСѓ
РґРµСЂРµРІРЅСЏ
РіР°Р»Р°РєС‚Рё
##С…РІР°С‚Р°
##Р±РµР»СЊ
С†РµР»С‹Р№
РѕР±РµСЃРїРµС‡РёРІР°СЋС‚
РєСЂР°СЃРѕС‚Рµ
Р®СЂР°
РЎРє
РєРѕР»Р±Р°
СЃР°РјРѕСЃС‚РѕСЏС‚РµР»СЊРЅРѕ
РёРґРµР°Р»СЊРЅРѕРµ
С‰Р°
Р»СЊРІРё
РїРѕРІРѕРґ
Р»СЋР±СѓСЋ
РїРѕСЃРјРѕС‚СЂРёС‚Рµ
РѕР±Р·РѕСЂР°
СѓР№С‚Рё
С‚РѕС‡РєСѓ
Р·Р°СЂСЏРґРєСѓ
Р·РІСѓС‡РёС‚
РїРѕР»РѕР¶РµРЅРёРµ
РѕСЃРѕР±С‹
РЎРѕСЋР·Р°
РїРѕРјРµСЃС‚РёС‚СЊ
СѓРґРѕРІРѕР»СЊСЃС‚РІРёРµРј
РѕС‚РєР°Р·С‹РІР°
СЃС‚СЂРѕР№
##РґР¶РµС‚РѕРј
РљР°РєРѕРІРѕ
С‚СЂСѓРґР°
##РЅРёС†РµР№
РїРѕС‡РёС‚Р°С‚СЊ
РЅР°Р№Рґ
СЃР°РјРѕРЅР°
РїРѕР»РёС‚РёРєР°
РљРѕРјРїСЊСЋС‚РµСЂ
СЃРѕР»РґР°С‚
РґРѕСЂРѕРіРёРј
РІРЅРёР·
РЅРµСѓРґРѕР±
Р·Р°РґСѓРјР°
РїСЂР°РІРґСѓ
РІР·Р°РёРјРѕРґРµР№
Р·Р°СЂСЏ
##Р»РѕР¶РёР»Рё
##СЂР°Р»Рё
##РґРЅСѓСЋ
##РєРѕРІР°С‚СЊ
##С‡РµРЅРЅС‹С…
РїСЂРѕР±РµР»
РїСЂРѕР№
РїР°РґР°Р»Рё
СЂР°Р·РЅРёС†С‹
РЅР°Р»РѕРіРё
РґРµС‚Рµ
##С…Р»Рѕ
##MR
##С‡Р°С‚С‹Рµ
РґСѓРјР°Р»Р°
СЃРјРѕС‚СЂСЏ
РїСЂРѕР±РёС‚СЊ
120
##СЃСЃС‹
РїСЂРѕРµР·
СЃР»РѕР¶РЅРµРµ
##uc
РїСѓР»СЊС‚
РЅРµРѕР±С…РѕРґРёРјРѕСЃС‚Рё
wh
##СЃСЏС‚СЃСЏ
Р±РѕР№С‚РµСЃСЊ
РјСѓСЃРѕСЂРѕРј
##С‚РѕРЅРЅРѕР№
РѕР±СЂР°С‰Р°
С‚СЏР¶
РёРЅС‚РµР»Р»РµРє
rel
РґРµР»Сѓ
II
СЃРїСЂСЏС‚Р°С‚СЊСЃСЏ
##С‡РµРЅРЅС‹Р№
##РєР°Р·Р°Р»
##СѓС‚СЃСЏ
СЌРї
##СЂРµСЃ
##Р»СЊРЅРѕРјСѓ
РњРћ
РІСЂСѓ
Р±РѕРєР°Рј
Р±С‹СЃС‚СЂР°СЏ
СЂР°Р·СЂРµС€РµРЅРёРµРј
36
РѕР±С‹С‡РЅС‹Р№
##aw
Р°РјРµСЂРёРєР°РЅС†С‹
##СЂСѓСЂ
РЎР»Рѕ
Р·РµРјР»СЏ
##С…РѕР¶РґРµРЅРёСЏ
##СѓРґР°
##РєРѕРґСѓ
СѓСЃРїРµС€РЅРѕ
СЃСЂР°РІРЅРёРІР°С‚СЊ
РЅР°Р»РёС‡РёРµ
РїСЂРµРґР»РѕР¶РµРЅРёРµ
РїРѕР¶
##РґР°С‡
РёС‰
Р±РµСЂРµРј
##РЅСѓР»РёСЃСЊ
##РґРµР»С‹
С‚Р°Р±Р»Рё
СЂРѕРјР°РЅ
С„Р»Рѕ
ex
СЃРёР»СЊРЅРµРµ
РЅРѕСЂРјР°Р»СЊРЅС‹Р№
##РѕС‚РЅРѕ
РїСЂР°Р№
Space
##ator
Р±РѕР»СЊС€РёС…
РІСЂР°С‡
С‡Р»Рµ
РґРІРёРіР°С‚РµР»СЊ
РћС‚Р»РёС‡РЅРѕРµ
РёРіРЅРѕ
РјРёР»Р»РёРѕРЅ
##СЂРѕРё
Р°РєСЃРµСЃСЃСѓ
РіРѕС‚РѕРІРѕРµ
##ber
Р·Р°РІРµ
РіР»РѕР±Р°
СЃС‚СѓРїРµРЅРё
Р·Р°РґР°С‡Рё
СЂР°СЃРїРѕСЂСЏР¶Р°С‚СЊСЃСЏ
РІС‹РїСѓСЃРє
Р±РѕРі
РІРѕСЂРѕРІ
РІР·СЏС‚
##РґРЅРѕСЃС‚Рё
РІРѕСЃС‚РѕРє
##РёР·Рј
Р“Р»Р°РІ
СЌСЂРіРѕ
РїСЂРµРјРё
РѕР±РЅРѕРІ
##РµРЅРЅСѓСЋ
С…Р°Р±
СЃРјРѕС‚СЂРёС‚Рµ
##РЅР°РґС†Р°
##С‚С‚
СЃРІРѕС‘Рј
Р·Р°СЂРїР»Р°С‚С‹
##РІРµСЃС‚РЅРѕ
Р·Р°СЃ
РџРђР РќРђ
РёР·РґР°
СЃРІРµС‚СЏ
С„РµРІСЂР°
РґРµС‚СЏРј
##РєРѕРІС‹Р№
##Р¶РѕРј
РіРѕРІРѕСЂРёС€СЊ
##РјРµРЅС‚Рµ
Р»СѓР¶Р°
РЎРґРµР»Р°
РґРµРІСЏ
Р·Р°С‰РёС‚С‹
Р РµР№
РіСѓРјР°РЅРё
РїСЂРµРґРѕСЃС‚РµСЂРµ
РєРѕРјРїРѕРј
##РґРѕСЂРѕРІ
Р°РґСЂРµСЃ
Р·РІРµСЂ
РіСЂР°РЅРёС†С‹
РђРІС‚РѕСЂ
РЅРµС‡С‚Рѕ
РїРѕСЏРІРёР»СЃСЏ
Р»СѓС‡С€РёР№
РѕС‚РІРµС‡Р°С‚СЊ
##Р¶РёС…
РїРѕРјРµС…Рё
РёРґРёРѕС‚
СЃРІР°Р»Рё
Р·Р°РјСѓ
РґРѕР±СЂРѕС‚
РґРµС€РµРІРѕРіРѕ
СѓРґРёРІРёР»
РјРј
РїРѕСЏРІРёР»РёСЃСЊ
Р’С‚РѕСЂРѕР№
title
##Р¶Р°РµС‚СЃСЏ
РёСЃС‚РµСЂРё
##РєСѓСЂ
Р±РѕРєРѕРІС‹С…
РµРґРёРЅРѕРј
РІРїРµСЂРµРјРµ
СЂСѓРє
##Р»Р°С‚
РЅРµРјР°Р»РѕРІР°
С‚СѓРїС‹
С‚РѕРї
РЅРёРіРґРµ
##С‚РёРєРѕРІ
СЃРѕРіР»Р°СЃ
РїРѕРґСЃРІРµ
РїРѕРїС‹С‚Р°
РїР°СЂР°РјРµС‚
Р±СЂРёС‚Р°РЅ
СЏСЂРєРѕСЃС‚СЊ
187
##С‰РµРЅРѕ
##KA
СЃРјРѕРіСѓС‚
РїР°СЂРєРѕРІ
РєРЅСЏ
Р·Р°РіСЂСЏР·РЅРµРЅРёСЏ
СѓРєР°Р·С‹РІР°
##Р¶РёР»
##РєСЃРµ
СѓРЅРёРІРµСЂСЃРёС‚РµС‚
РІРѕРµРЅРЅС‹С…
СЃРІРѕР±РѕРґС‹
##Р»СЏР»
РёРЅРІР°Р»Рё
##РіРЅР°Р»
С‚РµС…РЅРёС‡РµСЃРєРѕРј
##СЂРѕР·
##РіСЂР°Р»
РїРѕРїР°Р»
##С„РёРіР°
##ure
СѓСЂР°
РІРёРґР°
##Р»РµРЅРЅС‹Рј
РђР±
Р—РІСѓРє
##Р¶РЅСѓСЋ
РЅР°РїРёСЃР°Р»Рё
##Р¶РѕРє
РїРѕСЃРјРѕС‚СЂРёС€СЊ
СѓРјРµРЅСЊС€Р°РµС‚
РЅРµР°РґРµРєРІР°С‚РЅРѕ
РїРѕР»РµС‚
##РџРё
РїРѕРµР·Рґ
СЃРёРЅРґСЂРѕРјР°
РјРѕРЅРёС‚РѕСЂС‹
РїСѓС‚Р°
Р±РѕР»СЊС€РёРЅСЃС‚РІРµ
С‡Р°СЃС‚СЊСЋ
СѓР±РёСЂР°РµС‚
С„РёР»СЊРјРµ
##СЏС‚СЊСЃСЏ
##СѓРЅРґ
РїСЂРѕСЃСЊ
РњРѕСЂ
РїСЂРµР¶РЅРёРј
СЃР°РјРѕСѓ
!В»
СЂР°СЃСЃС‡РёС‚С‹РІР°РµС‚
РґСѓРјР°РµС‚
Р·Р°РІРѕРґ
РёРЅС‚РµСЂРЅРµС‚Р°
РІС‹С€Р»Рѕ
##Р·Р°РјРё
##33
F1
РѕС„РѕСЂРј
РѕРїР°
РІРµРґРµС‚Рµ
##С‰РµРЅРёР№
РјСЃ
РІРѕРґРѕР№
Р°СЂС‚
##СЂРѕРІРѕР№
am
СѓС‡РёС‚С‹РІР°СЏ
##РѕРїР°СЃ
##СЂРµРЅСЊ
РЎС‚Р°Р»РёРЅ
СЃРґРІРёРЅСѓС‚СЊ
СЂСѓСЃСЃРєРѕРј
Р·Р°РјР°С…
РґР°СЃС‚
РєСЂСЋС‡РѕРє
Р”Р°Р»СЊС€Рµ
С‚Р°Р±
##rit
РљРѕСЂРїСѓСЃ
2001
РєСЂРѕС€РєРё
##Р¶РґРµРЅРёРё
Р·Р°Р»РµС‚Рµ
С‚СЂСЏ
РљРёС‚Р°
РќР°СЃРµР»РµРЅРёРµ
or
РѕС‚РєР»РёРєР°
##Р·СЂР°С‡РЅР°СЏ
СЌР»РµРјРµРЅС‚Р°
РІРїРµСЂРµРјРµС€РєСѓ
СѓР±РѕСЂРєРё
##outube
РЈС‡
РЈРєСЂР°РёРЅСѓ
СЌРєРѕРЅРѕРјРёС‚
РјР°С‚РµСЂ
РїРѕРґРІРµСЂ
##С€РєР°РјРё
##Р±РѕРІР°РІ
С…СЂРµРЅ
le
XI
##ade
Р·РёРјРѕР№
РіР»
##РµС…Р°Р»Р°
СЂРµРіСѓР»СЏСЂРЅРѕ
СЃС‚РµРЅРєР°С…
РјРЅРµРЅРёСЏ
СЃС‚Р°РЅС†РёРё
РјР°Р»
Р±РѕР»СЊС€РёРЅСЃС‚РІР°
##С‚РёР»Р°
##РїРёР»Рѕ
РІРµСЂСЃРёСЏ
РїРѕРґСЃРІРµС‚РєРё
РёР·РјРµРЅРёС‚СЊ
##Р»СЋР±Рё
Р±РѕР»СЊС€РµР№
СЂРµР·РёРЅРѕРІС‹Рµ
СЃС‚СЂР°С…Рѕ
Р¶Р°СЂ
РїРѕРЅР°РґРѕР±Рё
##С†РёРѕРЅРЅРѕРіРѕ
РћРіСЂРѕРјРЅС‹Р№
РЅРµРїРѕРЅСЏС‚РЅР°СЏ
РґРµРІР°Р№СЃР°
РРЅР°С‡Рµ
РѕС†РµРЅСЏС‚
РЅР°СѓРєР°
РїРѕС…
РїРѕСЃР»РµРґРѕРІР°
Р—Рѕ
РѕР±СЉРµРґРёРЅ
##С€РёРјРё
РїСЂРѕРє
РѕС‡РµРІРёРґРЅРѕРіРѕ
РїРѕС…Сѓ
Р—Р°РїР°
РєР»Р°РІРёС€Рё
##РІР°СЋС‰РёРјСЃСЏ
РіСЂРѕРјРєРѕСЃС‚Рё
##РјР»СЋ
РўР’
РќРµРјР°
С‚СЂРѕРЅРµ
СЃРїСЂРѕСЃРёР»
РјРµСЃС‚РЅС‹С…
##РґРєРµ
РіРѕР»Сѓ
##act
СЂРµР¶РёРјР°С…
РѕРїСЂР°РІРґС‹РІР°СЋС‚
##Р¶РёР№
РЅР°Р¶Р°С‚РёСЏ
РґРµРІР°Р№СЃРѕРІ
Р±РµСЃРїРѕРєРѕР№СЃС‚РІР°
СѓРјРѕ
РїРѕР»РЅРѕС†РµРЅРЅРѕРµ
Р·Р°РјРµС‚РµРЅ
Р”Р°Р»РµРµ
Р·СЂРё
XV
СЂР°СЃРїРѕР»РѕР¶РµРЅРЅС‹Рµ
##РґРЅРёРє
Р®Р¶
РїРѕР»СЊР·СѓРµС€СЊСЃСЏ
РєРѕРЅС†РµРї
##Р»РёР·Рј
РїСЂР°РІРёС‚РµР»СЊСЃС‚РІР°
РџРѕРЅРёРјР°
HDR
##РІСѓС…Р°
##РµСЂРёРё
##РєРѕР»Р°
СЃРѕСЂ
СѓР±РёР№СЃС‚РІР°
РЅРµРІ
СЂР°Р·Р±Рё
РїРѕРІРµРґРµРЅРёРµ
С†РІРµС‚РѕРІРѕР№
##РјРёС‚Рµ
РЅРѕРј
Р•РІСЂРѕРїС‹
СЃРІРёСЃС‚Рµ
РјРµРЅРµРґР¶РјРµРЅС‚Р°
РІС‹СЂРѕ
38
РїСѓР±Р»РёРєР°
РІРѕРєР°
Р±РёР±Р»Рё
РЅРµРґРµР»СЊ
РЅСЋ
СЂР°Р±
С‰Рё
РїР°Р»РёС‚
РґРѕРІРµСЂСЏР»
##СЃРїРѕРјРёРЅР°
РґРѕС‡СЊ
РїСЂРёРІС‹С‡РЅРѕРµ
РљР°Рј
СЃРѕРјРЅРёС‚РµР»СЊРЅР°СЏ
СѓРїРѕРјСЏРЅСѓС‚С‹Рµ
##РѕРЅРµСЂРѕРІ
РѕС‚СЃ
##Р»РµРєСЃ
РєРѕРјР°РЅРґС‹
РµРї
С‚РѕСЂРіРѕРІ
Р·Р°РјРµС‡Р°РЅРёР№
##РґРЅРёРј
##76
РІСЃС‚Р°РІРєРё
##Р“Р»Р°
РїСЂРµРґСЃС‚Р°РІР»СЏРµРј
СЃРѕРґСЂРѕ
РїРѕСЃС‚СЂРѕРёС‚СЊ
.(
РїР°Р»СЏ
С…Р»РѕРїРєР°
##РіРµС‚Рё
РјРѕРєСЂРѕР№
РЅРѕСЃ
РїСЂРѕРІРµСЂСЏ
РѕС‚РєР»СЋС‡Р°РµС‚
СЂРѕСЃС‚Р°
СЃРёСЃС‚РµРјРЅС‹С…
РіРµР№РјРїР°Рґ
РђРїРѕР»
РєРѕРЅС„Р»РёРє
Р»СЊРµС‚СЃСЏ
РіРѕСЂРєРѕР№
РњРёРЅ
РЅРѕРєР°
РѕСЃРЅРѕРІР°РЅРёРё
Р°РєРєСѓСЂР°
РїРёРєР°Р±СѓС€РЅРёРєРѕРІ
##РєРёРґС‹РІР°С‚СЊСЃСЏ
РєР»РµРІС‹Рµ
РїРѕСЃС‚РѕСЂРѕРЅРЅРёРµ
РЅР°С€РёРј
##С€Р°РµС‚СЃСЏ
СЃРІРµС‡РµРЅРёРµ
РєСѓС…РѕРЅРЅС‹Р№
РїСЂРµСЃСЃ
##РїРµРІ
РїСЂРѕРІРѕРґР°РјРё
##СЂР°С†РёРё
РїСѓР»СЊС‚Р°
РїР»РµРЅ
990
РїР°СЂР»Р°
РџСЂРѕР±Р»РµРјР°
РњРѕРЅ
СЃРІРѕР±РѕРґ
РїСЂРѕРІРёРЅ
СѓРґРёРІР»СЏ
РѕСЃС‚Р°РЅР°РІР»Рё
РѕС‚РґРµР»СЏРµС‚
РЎРѕР»РЅ
##РІРёРґ
##РјРµС‚РЅС‹Р№
РєРѕРѕРїРµСЂР°С†РёРё
Р’Р·
##Р±РёСЂ
РІС‹Р№РґРµС‚
РџРѕС‚РѕРє
СЃРµРєСЃСѓ
##СЂРёС‚РµС‚
С„Р»Р°
Р±Р°Р·РёСЂСѓСЋС‚СЃСЏ
РќРµРєРѕС‚РѕСЂС‹Рµ
СЃР»РѕРјР°
СЃР»СѓС€Р°С‚СЊ
Р·Р°Р»
##РЅРёРєРµР№
РєРёР»РѕРјРµС‚СЂРѕРІ
С†РµРЅРёС‚СЃСЏ
РЎРџ
РєР°РЅР°РІ
СЃР±Рё
РєРѕСЂРѕР±РѕС‡РєРё
##Р°РЅРё
##РєР»СЋС‡Р°С‚РµР»Рё
РЅРѕСЂРј
СЌРєСЃРµ
РґРѕСЃС‚РёРі
РґРІРµСЂРё
РІС‹РІРѕРґС‹
РњРѕРіСѓ
РўРµСЂ
##Р»РµС‚СЊ
##С€РµРЅРёРё
РіСЂР°РјРѕС‚
##РїР»СЏ
Р°РЅРіР»
СЃР±Рѕ
РёРіСЂР°РµС‚
РћР»РёРјРї
РЅРµРјР°Р»РѕРІР°Р¶РЅРѕ
##С…РѕР№
Р’РѕР»РЅР°
РѕС‚Р·С‹
РґРІРѕРµ
РґРѕРІРµСЂРё
РјРµС…Р°РЅРёС‡РµСЃРєР°СЏ
СЃРІРѕРґСЏС‚
СЃС‚СЂРёРјРѕРІ
РїСЂРёРіРѕРґРёР»СЃСЏ
РєР°С‚Р°СЃС‚СЂРѕ
РїСЂРѕС‡РёС‚Р°
РїРѕР¶Р°Р»СѓР№
РїСЂРёРІР»РµРєР°С‚РµР»СЊРЅРѕ
##РіСЂРѕ
РєРЅРёРі
РђС„
РІРёРґРµРѕРёРіСЂС‹
##Р¶РЅРѕСЃС‚Рё
РєР»Р°РІСѓ
Р·РЅР°С‡РµРЅРёРµ
СЃС‚СЂР°С…РѕРІ
РєРѕСЂР°Р±Р»СЊ
СЃРѕС†
Р·Р°РіР»СЏРЅРёС‚Рµ
С€СѓРјС‹
СЃС‚РёР»СЊРЅС‹Р№
РєРѕСЂРёС‡РЅРµРІР°СЏ
РґСѓС€Рё
##Р»РµРЅРЅСѓСЋ
РєРѕРЅСЃС‚СЂСѓРєС†РёРµР№
##РёРІР°Р»
РІСЃС‚Р°РІР°СЏ
##РЎРµР№С‡Р°СЃ
РїРµСЂРµСЂР°СЃРїСЂРµРґРµР»РµРЅРёРµ
РєСѓСЂСЃ
##СЂРёС‡РЅР°
##С‚РµР»РѕСЃСЊ
РЎРїРёСЂР°
С‡РµСЃС‚СЊ
СЃСѓРґРµР±
РЅР°СЃС‚СЂР°РёРІР°РµС‚СЃСЏ
РєР°СЂСЊ
Р±Р»РѕРє
РїРѕР»РѕРІРёРЅР°
РїСЂРѕРєР»Р°РґРєР°
РїСЂРѕРґСѓРєС‚С‹
РЅРёР¶
34
Р±РёРѕР»РѕРіРё
РѕСЂР±РёС‚Сѓ
СЃРІРµС‚РѕРґРёРѕРґ
СЃРєР°Р·Р°РЅРѕ
РѕРіРЅРµР№
РІСЃРїРѕРјРЅРёС‚СЊ
РїРµСЂРµСЂС‹РІС‹
##РІР»СЏСЋС‰РёРј
РІРёСЂС‚СѓР°Р»СЊРЅРѕРј
Р±РѕРєР°Р»Р°
СЃРµСЂРёР°Р»СЊ
РїР°СЃРїРѕ
СЃРѕР»СЊ
РїРѕРґР°СЂРѕРє
РёРіСЂРѕРІРѕРј
СЃСЂРµРґРЅРµРј
РЅР°РїСЂРѕР»РµС‚
РїР°СЂР°Р»Р»Рµ
And
СѓР±РёР»
Р»СЊРІРёРЅСѓСЋ
РЅР°РґРµР¶РЅРѕР№
РєР»РёРєРѕРІ
##Р Р•
РјРµР»РѕС‡Р°РјРё
4K
РњС‹С€СЊ
РІС‹РґРІРё
Р’СЃРµРіРґР°
СЂР°РґСѓРіСѓ
##СЂСЌ
РѕС„РёС†РёР°Р»СЊРЅРѕ
Р”СЌ
Р·Р°СЃР»Сѓ
РёСЃРїРѕР»РЅРё
РЅР°СЂРёСЃРѕ
РґРµРІСѓС€РєРё
РІР»Р°Р¶РЅРѕР№
РіР°СЂР°РЅС‚РёСЂСѓСЋС‚
РєРёР±РµСЂСЃРїРѕСЂС‚
РґРµС‚Р°Р»Рё
РєР°СЂС‚РёРЅРєРё
55
##СЂРѕРІР°РЅРѕ
РЅРµСЂРµ
РѕР±РѕР·РЅР°
Р•Рґ
СЃРєРѕР»СЊР·РёС‚СЊ
С‚РёРїРёС‡РЅСѓСЋ
РїСЂРµРґРѕСЃС‚РµСЂРµС‡СЊ
Р»РёРґРµСЂ
РјР°СЃСЃРёРІРЅРѕР№
Р»РµРІС€Р°
Р‘РµСЃ
СЃС‚Р°СЂРё
Р»РµРїРёР»Рё
СЃРёРіР°
РіСЂСЏР·Рµ
##СЂРѕСЂ
Р°РєСЃРµСЃСЃСѓР°СЂРѕРІ
РєРѕРЅСЃ
Р¤РЎ
2002
##РІР»Рё
РЎРѕС„С‚
РіР»Р°РґРєРѕР№
Р·Р°Р±С‹Р»Рё
РјСЂР°
РіРµР№РјРїР°РґР°
РїСЂРѕС†РµРЅС‚
РїСЂРѕРёРіСЂС‹РІР°РµРј
РѕР»РёРіР°СЂ
РІС‹РґРµСЂР¶Р°С‚
РЅР°С…РѕРґСЏС‚СЃСЏ
СЃР±РѕСЂРЅРѕР№
СЃС‚Р°Р»СЊРЅР°СЏ
С„РµР№
РєРѕРјР°РЅРґРё
##СЃС‚РµСЂР°
Mode
СЃС‚СЂРёРјРµСЂ
РІРёСЂС‚СѓР°Р»СЊРЅС‹Рј
РїСѓС‚РёРЅ
РјС‹С€РµРє
РјСЏСЃР°
РїСЂР°Р·РґРЅРёС‡РЅРѕРіРѕ
С†РµРЅСѓ
РїРѕР¶РµР»Р°РµС‚Рµ
СЃС‹РЅР°
##РґРµСЂРѕРІ
РћСЂРё
Р°РЅС‚
РќРёРєРёС‚РёРЅ
РѕСЂРµРѕР»
Р”Р¶РµРјРёРЅРё
РјР°РіР°Р·РёРЅРµ
Р±С‹С‚РѕРІСѓС…Р°
РѕС‚СЂРµРіСѓР»РёСЂРѕРІР°С‚СЊ
##РЅС‘Рј
РљРѕРјСѓ
РЅРµРїСЂРµСЂС‹РІРЅРѕРµ
##С‚СЋ
РЎРїРёСЂР°Р»СЊ
РїРѕСЂСѓ
РЅРѕРєР°СѓС‚
РЅР°Р±РѕСЂ
Р·РЅР°РєРѕРјС‹С…
РїРѕРґСЃС‚Р°РІРєРё
РїРѕР№РґРµС‚
РіРµР№РјРµСЂР°
РіР»Р°РґРєРёР№
РІРїРёС€РµС‚СЃСЏ
С€РµСЃС‚СЊ
РђР»РµРєСЃРµР№
РѕС…Сѓ
С‰РµР»С‡РєСѓ
СЃС‚СЂРёРјРёС‚СЊ
##С‡РёРј
РіРѕРІРѕСЂРёР»Р°
СЃРєСЂРѕСЋ
РµРґСЂРѕ
РїРѕСЃС‚РµРїРµРЅРЅРѕ
Р»РµРЅ
РЅР°Р»РѕРіРѕ
СЃС‚Р°РЅРѕРІ
Combat
Р Р°РґР°СЂ
РєРѕРІСЂРёРєРµ
Р”С‹С…Р°РЅРёРµ
An
##РєРёРїРµ
СЌСЂРіРѕРЅРѕРјРёРєР°
РїСЂРѕРјС‹С€Р»РµРЅРЅРѕ
РІС‹РїРѕР»РЅ
РїСЃ
Р±РµСЃСЃРјС‹СЃ
РїРѕСЃС‚Р°РЅРѕРІ
##РїРѕС‚
##РґРЅРѕСЃС‚СЊ
РїСЂР°РІС€Р°
РѕР·РІСѓС‡РёРІР°СЋ
37
##РіСЂ
РЅР°РїРѕРјРЅРё
Ace
Р¤СЂР°РЅС†РёРё
РЎСѓРґСЏ
СЃРІРµС‚СЏС‰РёР№СЃСЏ
РІРґРѕ
РїРµСЂРґРµР»РѕРє
С…СЂРёСЃС‚РёР°РЅ
СЃРІРёСЃС‚РµР»РѕРє
С„РёР·
##ary
С€Р°С…
СѓС‚РѕС‡РµРє
Р·Р°С‚СѓС…Р°РЅРёРµ
РёР·РіРѕР»РѕРІ
СЃРѕР±Р»Р°Р·РЅРѕРІ
РјРѕСЃРє
##СЃРєРѕСЃ
С†РµР»
РјРѕРІРµС‚Рѕ
##ere
##РІР»РµРЅРёР№
РєР°РЅР°РІРєРё
СЃРєРѕР»СЊР¶РµРЅРёРµ
РІСЃС‚Р°РІРєР°
РїРѕРґРєР°СЃС‚С‹
РґРµС‚СЊРјРё
РћС‚РґРµР»СЊРЅРѕРіРѕ
СѓРІР°Р¶Р°СЋС‰Р°СЏ
СЃРµСЂРёР°Р»СЊС‡РёРє
РїРµСЂРµР»РёРІР°РµС‚СЃСЏ
start
РјР°С‚РµРјР°С‚Рё
Р»СЋР±РѕРµ
##ECH
##СЂР°С‡
Р·Р°С€РёС‚С‹
Р’РµРЅ
РљР°РїР»Рё
СЃРѕСЃС‚Рѕ
РћС‚РІРµС‚
СЃС…РѕР¶РµРіРѕ
##РњРђ
РјРѕРІРµС‚РѕРЅРѕРј
РЅР°Р¶Р°С‚РёР№
РљР°РЅ
##РіРѕР»РѕРІС‹Рј
##РЎР°РјРѕРµ
РјРµРЅРµРґР¶РјРµРЅС‚РѕРј
РќРµРјР°Р»РѕРІР°
Р”Р¶Рµ
РѕРїСЂРµРґРµР»СЏСЋС‰РµР№
РџРѕРґСЃРІРµС‚
РќРёРєРѕРіРґР°
СЂС‹РЅРєРµ
Р°СЂРµСЃС‚
##РґРѕР»РіРѕ
РџСѓР»СЊСЃР°
##РЅРёРєРµР№С‰РёРє
##ass
РїР°Р»РёС‚СЂС‹
Р±РѕСЂРѕС‚СЊСЃСЏ
РїРµСЂРµРј
СЂР°Р·РґСЂР°
##Р±Р°СЂ
РјСѓРґР°
Р¶Р°РЅ
СѓСЃРїРѕРєРѕРёС€СЊСЃСЏ
Р·Р°РґСѓРјС‹РІР°РµРјСЃСЏ
С‡Р°СЃС‹
##СЃС‚РЅС‹С…
РџСЂРѕС€Сѓ
РІР°СЂРёР°РЅС‚РѕРІ
Р±РµР¶РµРІС‹Р№
##СЂР°Р·СѓРјРµ
С…РѕС‚РєРµ
##Р°Р»С‹
РїРѕРґСЃС‚Р°РІРєРѕР№
РЎР°РЅРџРё
РіРі
РіСЂР°РґСѓСЃРѕРІ
РїРѕРґСЃРІРµС‡РёРІР°С‚СЊ
С…СЂРёРїС‹
С€СѓРјРѕРїРѕРґР°
Р»Р°РґСЏС‚
СЂРµР·СѓР»СЊС‚Р°С‚РёРІРЅРѕСЃС‚Рё
РњРµС…Р°РЅРёС‡РµСЃРєР°СЏ
РРіСЂРѕРІР°СЏ
##//
РћР±Р°
СЃРґРµР»Р°РЅРѕ
РіР°РґР¶РµС‚РѕРј
Р±РµР№СЃР±РѕР»РєРё
РїРµСЂРµРїРёСЃРё
СЃРёРјРјРµС‚СЂРёС‡РЅР°СЏ
РџСЂРѕРіСЂР°РјРјРЅРѕРµ
##СЃРєРѕСЂРґРµ
РѕРґРЅРѕСЃС‚РѕСЂРѕРЅРЅРёС…
С‰РµР»С‡РєРё
СЃРѕР±РµСЃРµ
РЎР°РЅРџРёРќ
РЅРµРї
##С‚Р°РЅР°
Р·РґРѕСЂРѕРІСЊРµ
##С…РѕРґРёС‚Рµ
##РЅСЏРјРё
##Р“Р»Р°РІРЅРѕРµ
СЃРѕР±СЂР°С‚СЊ
РїРѕСЃС‘Р»
РїСЂРёС‡С‘Рј
С‚РєР°РЅРµРІС‹Рµ
Р·Р°РІСЏР·Р°РЅРЅС‹Р№
Р¦РёРєР»Рё
РњРµС…Р°РЅРёС‡РµСЃРєРёРµ
РІР»РёСЏРµС‚
СЃРІРёС‡Рё
СѓР±РёРІР°С‚СЊ
РЅРµРїСЂРёРјРµС‚РЅС‹Р№
РЎРёСЂРёРё
РїСЂС‹РіР°Р№С‚Рµ
Р Р°РЅ
РїРѕР»РіРѕРґР°
F12
РјРµРЅСЏРµС‚СЃСЏ
РљРѕРјРїСЊСЋС‚РµСЂРЅС‹Р№
РџРѕРїСЂРѕР±РѕРІР°РІ
РєРёР»РѕРіСЂР°РјРјРѕРІРѕРіРѕ
РїСЂРµР·РµРЅС‚Р°Р±РµР»СЊРЅРѕ
СЂРѕРј
СЂРµРІ
РєРѕСЂРїРѕСЂР°
Р±РѕСЋСЃСЊ
РєРѕРЅС‚Р°Рє
РџРѕРґСЃС‚Р°РІРєР°
Р РµР°РєС‚РёРІРЅС‹Р№
РєР°С‡Р°РЅРёСЏ
РїСЂРѕРјРѕРєРѕРґСѓ
РЅРѕС‡РЅРёРєР°
РїРѕР»СѓР»РµР¶Р°
##С…РѕРґРёР»Рѕ
РїСЃРёС…СѓСЋ
РјРµРґР»РµРЅРЅРѕ
##РџРѕР¶Р°Р»СѓР№
РіСЂСЏР·РµРІРѕР№
РѕРєСЂСѓРіР°
РЅРµР»Рµ
РЅР°РІР°Р»РµРЅРѕ
РїР°Р»СЏС‰РµРіРѕ
РљСЂСЋС‡РѕРє
Р¦РµРЅС‚СЂ
Re
РёР·СѓС‡
РѕР±СѓР·Сѓ
СЃРёРјРјРµС‚СЂРёС‡РЅР°
Р·Р°РґРµРІР°Р»
РїРѕРґСѓСЃС‚Р°Р»Рё
##С‚РѕС‡
РїСЂРѕРіСЂР°РјРјРёСЂСѓРµРјС‹Рµ
TECH
##СЃС‚РёР»Рё
РѕРїР»РµС‚РєР°
РљСЂС‹РјСѓ
РќР
РќР°РІР°Р»СЊРЅРѕРіРѕ
СЌРєРѕРєРѕР¶Рё
РРіСЂРѕРІРѕРµ
РїРѕР»СѓРїСЂРѕР·СЂР°С‡РЅР°СЏ
РіРµР№РјРµСЂСЃРєР°СЏ
РЅРµРІС‹
РћРїС‚РёС‡РµСЃРєР°СЏ
Р¦РёРєР»РёС‡РµСЃРєР°СЏ
Р”РёСЃРєРѕСЂРґРµ
РЅР°РІРµСЂРЅРѕ
##РЅРёР»РѕСЃСЊ
Р­РЅРёРєРµР№С‰РёРє
С…РѕР»РѕРґРё
СЃРµС‚С‡Р°С‚С‹Рµ
РњР°Р»
С‚РєР°РЅРµРІР°СЏ
СЃРµР»СЊСЃРєРѕРіРѕ
СЃРІРёС‡РµР№
##РєРёРїР°
##РўР¬
РћС…
РќРµРјР°Р»РѕРІР°Р¶РЅС‹Р№
##СѓРјР°
РІРёРґРµРѕР·Р°С…РІР°С‚Р°
РІР°Р»РёРєР°
СЃРѕРґСЂРѕРіР°СЋС‚СЃСЏ
СЃС‚СЂРёРјР»СЋ
РєРёР±РµСЂСЃРїРѕСЂС‚СЃРјРµРЅР°
СЃРІРѕСЂР°С‡РёРІР°РЅРёСЋ
РїРѕР·РёС†РёРё
РїСЂРѕРіСЂР°РјРјРёСЂСѓРµРјР°СЏ
С„РѕС‚РѕС€РѕРїР°С…
С…РѕС‚РєРµРµРІ
РїРѕРґСЃРІРµС‚Р°
hz
##MRON
РёР·РіРѕР»РѕРІСЊРµРј
РѕРґРЅРѕС‚РѕРЅРЅРѕР№
Р°СЌ
РґРѕР±СЂРѕС‚РЅС‹РјРё
СЋРіРѕ
РѕС‚РєРёРґС‹РІР°С‚СЊСЃСЏ
##СЃС‚СЂР°РёРІР°СЋС‰РёРјСЃСЏ
Р°РјР±СѓС€СЋСЂ
##С‡РёРІ
##СЃС‚С‹Рµ
РїСЂРёРґС‘С‚СЃСЏ
РіР°РґР¶РµС‚Сѓ
РџРµСЂРµРєР»СЋС‡Р°С‚РµР»Рё
##5Р”Р»СЏ
##СЃСЃСѓ
##KABU
OMRON
РјР°РєСЂРѕСЃР°С…
Р±РµР·РѕРїР°СЃ
Р·Р°Р»РµС‚РµРІС€РµР№
PIKABU
РїСЂРѕСЂРµР·РёРЅРµРЅРЅР°СЏ
##Р РµРґРєРѕ
РїСЂРѕСЂРµР·РёРЅРµРЅРЅС‹Рµ
РџСѓР»СЊСЃР°С†РёСЏ
РџРѕР»СЊР·РѕРІР°С‚РµР»СЊСЃРєРёР№
РїРѕР»СѓР»РµР¶Р°С‡РµРј
СЂРµС€РёР»Р°
Р°РјР±СѓС€СЋСЂР°РјРё
РїР»Р°С‚СЏС‚
РѕС‚СЂРµРіСѓР»РёСЂСѓРµС‚СЃСЏ
РІРѕСЂРґР°С…
РџРѕРґСЃРІРµС‚РєРѕР№
РћСЃРµР»Р°
##РјРѕС‚СЂСЏ
Р·Р°РјР°С…РЅРµС€СЊСЃСЏ
СЃР°РјРѕРЅР°СЃС‚СЂР°РёРІР°СЋС‰РёРјСЃСЏ
AS5Р”Р»СЏ
СЌРєСЃРµР»СЏС…
AIRРЎРµР№С‡Р°СЃ
AH7Р РµРґРєРѕ
Р‘РѕР»СЊС€РµРіРѕР»РѕРІС‹Рј
СЃРѕСЃ
С€СѓРјРѕРїРѕРґР°РІР»СЏСЋС‰РёРј
ED3РџРѕР¶Р°Р»СѓР№
AM7Р“Р»Р°РІРЅРѕРµ
AK7РЎР°РјРѕРµ
РѕР±Р»Р°СЃС‚СЊ
BIF
BIFMA
PIKABU20
##РјСѓР»Рё
СЂРµР°Р»СЊРЅРѕСЃС‚СЊ
РїРѕРїР°РґР°
РґРµР±Рё
Р’С‚РѕСЂ
РІРѕСЃРє
СЃС‚Р°СЂРѕ
РЅР°С…СѓР№
РґРѕРі
##РјРµС‚Рё
250
##РєРѕСЃС‚СЊ
СЃС‚СЂРµРј
РґРµРїСѓС‚Р°С‚
РїРѕСЃРµР»РµРЅРёСЏ
РґРµСЃСЏС‚РєРё
Р»СЋР±РѕРїС‹
##СЂРЅС‹Рµ
РіР»Р°Р·Р°С…
##РЅРёС‚СЊСЃСЏ
youtube
##С‰РёРЅР°
Р±РµСЃРµ
##СЃРµР»
РЎР»СѓС€Р°Р№
РґРµР»РѕРј
##С‚РёРІС‹
РѕРІРѕ
##end
СЂРµРјРѕРЅС‚
Р±СЂРѕРЅ
from
С€Р°Рі
РёСЃРєСЂРµРЅ
##Р±РёРЅР°
РїРѕСЃРІСЏ
Р°С‚РјРѕСЃС„РµСЂ
РќРђРўРћ
Р¶СѓС‚
РЅРµРґРѕСЃС‚Р°С‚РѕС‡РЅРѕ
##РІРѕР»СЊРЅРѕ
СЂР°СЃСЃРєР°Р·С‹РІР°С‚СЊ
Р·Р°РїРёСЃРё
##СЃРєРѕСЂРµ
С‚РµР°С‚
##РѕС‚С‹
##РґРµРІ
РёРЅРґРёРІРёРґСѓ
РјРѕРґСѓ
Р±РѕР»Рµ
РёР·РѕР±СЂРµС‚
РџРѕРЅСЏС‚РЅРѕ
С…РѕСЂРѕС€
РЅРµРІРµСЂ
РјРі
##Р¶РёРјР°
##РІРёРё
##С€РµРЅРѕ
С†РµСЂРєРѕРІ
Р·РґРѕСЂРѕРІСЊСЏ
РёРіСЂРѕРє
РґР°РІ
РєРѕСЃС‚СЋ
РёРјРµР»Рё
РЅР°С‚СѓСЂР°
СЃРёРґСЏС‚
##С‚РµСЂРѕРІ
СЃРµРІРµСЂРѕ
РІРµР·
РјРµРіР°
##РѕР»РѕРіРёРё
СЃРѕР±СЃС‚РІРµРЅРЅРѕР№
РєРѕР»РѕРЅ
##РІР»СЋ
С‚СЂС‘С…
РїР°Р»
##Р·РёСЋ
##48
Р‘РѕСЂ
РџР°РІ
##РєС‚С‹
СЂРѕР·
РљРёС‚
РїР°С‚
РґРёРЅР°РјРё
РІР°С€РёРј
РѕРґРѕР±
Р·РЅР°Р»Р°
##РІСЏР·
##РјРµР№
##!!!!
##========
РєР»СЋС‡Рµ
РєРѕРЅРєСѓСЂ
СЃСѓС‚РєРё
РЅР°Р·РЅР°С‡РµРЅ
РІРѕР·РЅРёРєР°РµС‚
С‚РµР»РµС„РѕРЅР°
Bl
РњРµР¶РґСѓ
##ko
##С„РµСЂР°
РїСЂРѕРґР°РІР°С‚СЊ
РёСЃРїРѕР»СЊР·СѓСЋС‚
Р°РєРєСѓ
РІСЃС‚СѓРї
##РїР°С‚Рё
РћС‚Р»РёС‡РЅРѕ
СЃС‚Р°СЂС‹Рµ
РїРѕСЃР»РµРґРЅРёС…
##СЃРёРј
##Р»Р°РіР°СЋ
РљСЂСѓ
РїРёРІРѕ
РљР°Р»Рё
СЃСЃС‹Р»РєРё
Р·Р°РіРѕ
РІРѕР·СЂР°СЃС‚Рµ
##СЃС‚СЊРµ
РќРµСѓР¶РµР»Рё
##РѕС…СЂР°РЅ
РїРёС‚Р°РЅРёСЏ
##СЂРёСЃ
РјРµСЃ
Р“Рћ
СЃРїРѕСЂРёС‚СЊ
РїСЂРѕРіСѓ
РјРёР»Р»РёРѕРЅС‹
РјРёР»Рё
##СЂРѕС‚Р°
РїР°С‚СЂРёРѕС‚Рё
РїРѕСѓ
РїРµСЂРµР№
##СЋСЂ
РЎР°РЅРєС‚
##Р°СЂРґР°
РґРІРёРіР°С‚РµР»СЏ
РґРµРјРѕРєСЂР°С‚Рё
Р”РјРёС‚
РѕРєР°Р·Р°Р»РёСЃСЊ
##РіРёРЅР°Р»
С‚РµРѕСЂРёСЏ
СЂР°Р·РѕР±СЂР°С‚СЊСЃСЏ
РЁС‚Р°
##СЃСЊСЏ
РєРѕСЂСЂРµ
С‚РІРѕРµРіРѕ
РїСѓС‚РµРј
РґРµРІРѕС‡РєР°
1990
##ge
##Р№РєР°
РїРѕР·РІРѕР»РёС‚СЊ
РїРѕР»РѕРІ
##РЅРЅРѕРјСѓ
СЃРѕРѕР±СЂР°
РѕС‰СѓС‰РµРЅРёСЏ
С„РёР»
РїС‹С‚Р°Р»РёСЃСЊ
РЅР°Р·РІР°РЅРёРµРј
РІРѕР·Р»Рµ
РјРѕСЃРєРѕРІ
С‚СѓР°
РІРїСЂРѕС‡РµРј
РїРѕСЏРІРёР»Р°СЃСЊ
РЅР°СЃС‚Р°
РјРёРЅСѓС‚С‹
РџРђР РќРђРЎ
СЂР°Р·РґРµ
РїСЂРёС…РѕРґ
185
##Р»РµС‚РѕРІ
С„Р°Р»СЊ
РјРµСЃС‚РЅС‹Рµ
РїРѕС€Р»Р°
Р»С‘
##РјРѕРЅ
РѕР±СЂР°Р·РѕРІР°РЅ
С‚РµРјРё
2003
С‡СѓР¶Рѕ
##РЅСѓС‚СЃСЏ
РїРѕРґСЂР°Р·СѓРјРµ
РїСЂРµРїРѕРґР°
##СЃС‚СЂС‹
СЃР°РЅ
Р РѕСЃСЃРёРµР№
СЂРѕСЃСЃРёР№СЃРєРёРµ
РёРЅС‚РµСЂРµСЃС‹
РЅРµРѕРґРЅРѕ
##........
РІРёРЅРѕ
Р¶РµРЅС‹
СЂРµР¶РёСЃСЃ
СЂСѓРєРѕРІРѕРґРёС‚Рµ
РїРѕР»РёС‚РёРєСѓ
СЃСЂРµРґРЅРµ
РїСЂРµРґРїРѕС‡РёС‚Р°
РџРѕРјРѕ
С…Рµ
РІРёРЅР°
СЌРјРѕС†РёРѕРЅР°
Р—Р°РїР°Рґ
СЃСЃС‹Р»РєР°
СЃР°РјРѕР»РµС‚
РІР°СЂРёР°РЅС‚С‹
##С€РµРЅС‹
##С‡Р°СЃС‚Рё
СЂРѕСЃСЃРёР№СЃРєРѕРіРѕ
РїСЂРѕСЃС‚СЂР°РЅСЃС‚РІР°
:"
1941
РўСЂСѓ
СЂРµС„РµСЂРµРЅ
##С„РёРєР°С†РёРё
СЂСѓРєР°
СЏР№С†Р°
РїРѕР·РЅР°РєРѕРјРё
##РѕРґРѕ
##РїРёС‚Р°РЅ
##С€РµС‚
##РґСѓРµС‚
Р”РѕСЂРѕ
РїСЂРёС‡РёРЅР°Рј
С‚РІРѕСЋ
Р»РµРіРµРЅ
##РµР±Р°
РїРѕРґРЅСЏ
##РёР·РІРѕ
##РіРѕСЂ
##28
РїРёСЃС‚Рѕ
РїР»РѕС‰Р°РґСЊ
Mr
РїСЂРёРѕ
##РІРµСЂР°
##СЂРїРё
##РІСЃРµРіРґР°
##ave
.вЂ“
СЌС„С„РµРєС‚РёРІ
СЃРµР·Рѕ
РїСЂРѕРєСѓСЂР°
##СЋС‰РёР№СЃСЏ
##РєРѕРІС‹
РѕР±СЂР°Р±Рѕ
##РІРёСЏ
68
СЃРїРѕСЂС‚Рё
РІС‹Р±
РїРѕС‚РµСЂРё
##С‚РѕРІР°
С‚СЂСѓР±
РћСЃРЅРѕРІ
##СЃС‚РІРёР№
РїР°С‚СЂРёРѕ
РєРІР°РЅ
##СЏРµС‚
Р»Р°Р±РѕСЂР°
##РµС‚РѕРІ
##ran
СЃРѕР±РёСЂР°РµС‚СЃСЏ
Р·РЅР°РјРµРЅРё
##СЃРёРё
РІС‹СЃС‚СЂРµ
С‚РµС‚
##width
Р±Р»СЏРґСЊ
С€Р»Рё
##С‚РёРІРЅС‹Рµ
РЎРђ
РїРѕР»СѓС‡Р°СЋС‚
РїР»РѕС‰Р°РґРё
РґСѓРјР°СЋС‚
(!
РЅРёС‡С‚Рѕ
Р С‹
РіР°Р·Р°
Р±СЋРґР¶РµС‚Р°
СѓРґРѕРІР»РµС‚
РїСЂРёРјРµРЅСЏ
РєСѓСЃРѕРє
СЃРµРєСЃ
РјРµС‡С‚Р°
##Р¶РґР°РµС‚СЃСЏ
##Р»СЊРґ
С…РѕРґ
СЃРѕР·
##РґРµСЂР¶Р°С‚СЊ
РІРѕР·РґСѓС…Р°
СѓСЃС‚СЂР°РёРІР°РµС‚
СЃР±Рµ
СЂРµРј
##height
preview_height
preview_width
РЇР±Р»РѕРєРѕ
РЅРµРєРѕС‚РѕСЂРѕРµ
РјР°СЂС€СЂСѓ
Р·Р°С‡Р°
Р’РЎР•
##С‡РёР»СЃСЏ
##Neo
РЅРѕСѓС‚
РјРµР¶
СЌР»Рё
РІСЃСЏРєРёР№
Р’РёРє
РІРѕР·Р±Сѓ
##РЅРµРЅРЅРѕ
РѕРїСЂРµРґРµР»Рё
##СЃС‚СЏРј
РїС‹С‚Р°СЋСЃСЊ
РЁРµ
##16
Р”РјРёС‚СЂРёР№
##95
РјР°РЅРёРїСѓ
СѓРґРѕРІРѕР»СЊСЃС‚РІРёРµ
##РґРёР»РёСЃСЊ
##РІРёРј
##РЅРѕСЃС‚РµР№
##С€РёСЂ
Р·Р°СЏРІР»РµРЅРёСЏ
Р¶РѕРїСѓ
Р±РѕР»СЊРЅРѕ
##Р¶РєРѕР№
РїСЂРёРІР»Рµ
РїР»РѕС…РѕР№
РјРѕР»РѕРґРѕ
РЅРµРёР·РІРµСЃС‚
С†Р°СЂ
РїСЂРµРґРІР°СЂРё
Р°РІС‚РѕРјРѕР±РёР»СЏ
С…СЂР°Рј
##С‡РёС‚СЃСЏ
##Р·Р°РЅ
РѕС‚РµС‡Рµ
РґРѕР±Р°РІР»СЏ
##РјРµСЂРёР·
##РЅРµС€СЊ
РіРёРіР°РЅ
Р·Р°РєРѕРЅРѕРґР°
С…РѕРґСЏС‚
##РґРµРєСЃ
С‚СЂРµР±СѓРµС‚СЃСЏ
РѕРєРєСѓРїР°
РґРёР·Р°Р№
РїСЂРёРЅСЏС‚
##РіРёСЃС‚СЂРё
РіРµРЅРµСЂР°Р»
РјСѓР¶С‡РёРЅС‹
РїРѕР№РґСѓ
РђСЂРј
СЃС‚РѕРёРјРѕСЃС‚Рё
РІС…РѕРґРёС‚
РЅРµРѕР±С…РѕРґРёРј
С€РєР°
##С‰РёРєР°
РїРѕРїС‹С‚РєРё
РІРµС‰Р°
РјРµС‚РѕРґРё
##Р¶РµРЅРёСЋ
С„РёРЅР°РЅСЃРѕРІ
СѓРє
##РЅРѕРІСЊ
1999
РіСЂ
РєРѕРЅСЃРµСЂ
СЃР»РѕРІСѓ
РїСЂРёРІРµР·
РµРІСЂРµР№
Р‘СѓРґСѓ
РїСЂРѕРІРµ
РІРІРµСЂС…
Р‘Р°РЅ
РџРёС‚
РљСѓСЂ
##С‚Р»Рё
РўР°РєРѕРµ
РїРѕРЅСЏР»Р°
СЂРµРІРѕР»СЋС†РёРё
РїСЂРѕС†РµРЅС‚Р°
С†РµСЂРєРІРё
РџРѕСЃР»Сѓ
##С„Р°Р»СЊ
##_time
you
С„РёР·РёРєРё
РєСЂРµРґРё
РїРѕС‡Сѓ
РїРѕСЃС‚Р°РІРёР»
start_time
##РіРЅР°С‚СЊ
РЅР°РїСЂР°РІР»РµРЅРёРё
РЎР°РјРѕ
РјРёСЃС‚РµСЂ
РїСЂРѕРґРѕР»Р¶Р°С‚СЊ
Р°РІР°
РїСЂРѕРґСѓРєС‚
Р¶СѓСЂРЅР°Р»РёСЃС‚
РїСЂРѕР¶РёРІ
РСЂ
СЃРµРјСЊСЋ
РћР±С‹С‡РЅРѕ
РїРѕСЃС‚РѕСЏРЅ
РїР»РѕС…РѕРіРѕ
##ga
РјР°С‚РµСЂРёР°Р»
СЃСѓС‚РѕРє
РґР°РЅРЅРѕР№
РЅРѕРі
Р·РЅР°Рє
##РµРІРѕР№
##СЃС‚РІРѕРІР°Р»Рё
СЃРµРєСѓРЅРґСѓ
##С‡РµРЅРєРѕ
СЂРѕСЃ
РєРѕРЅС‚СЂРѕР»СЊ
РІСЂР°С‡Р°
##ush
С„РѕСЂРјС‹
СЂСѓРєРѕР№
РІРµСЂРЅСѓР»СЃСЏ
РїРѕС‚СЂСЏ
РїСЂРѕРґР°С‚СЊ
Р—Р°С‚РµРј
...-
РІС‹РїРё
РїРёСЃСЊРјРѕ
С„Р°РјРёР»Рё
СЃРЅРѕ
СѓРЅРёРІРµСЂСЃРёС‚РµС‚Р°
##РґРµРЅС‚Рё
##РјРѕРє
РґРѕРїСѓСЃС‚РёРј
##nal
##Р»РµРєСѓ
##С‚РµСЂС‹
##СЋС‰РµРј
РѕСЂРёРµРЅС‚Рё
РјР°СЃС‚
РїРѕС‚СЂРµР±Рё
Р·Р°РїРѕРјРЅРё
РёРјРїСѓР»СЊ
СЂРѕРґРёР»СЃСЏ
##РєС†РёРё
##ty
РљРёРµРІ
Р’Р°Р»
Р Р°РЅРµРµ
##Р»СЊРј
##Р»РєРѕР№
##РўРђ
##РІРЅРѕСЃС‚СЊ
##РµСЂРѕ
Р±Р°С‚Р°СЂРµ
##РїР°РјРё
РєСѓР»СЊС‚СѓСЂС‹
##Р¶РµРЅР°
РљР°Р»
СЃРѕР·РґР°РЅРёСЏ
##СЃС‚РЅРѕР№
##РіРёР№
РґРµР№СЃС‚РІСѓ
РїРѕРґРІРё
СѓС‚СЂРѕ
РїРµС‚
РґРµС‚СЃС‚РІР°
СЃСЂР°Р±Рѕ
##С‚РµРё
Р·Р°РїРёСЃР°
Р“Р°СЂ
РёР·Р»Сѓ
РќРѕРІРѕСЃС‚Рё
РЎРѕРІРµС‚Р°
С…РёСЂСѓСЂ
Р РµР·
РІРµРєРµ
РІС‹Р±СЂР°С‚СЊ
РЎРµРј
РєРѕРЅСЃС‚РёС‚Сѓ
РїСЂРѕРјС‹С€Р»РµРЅ
Р РѕСЃ
РџРѕР№
РґРёРїР»Рѕ
РґРµР»Р°РµС‚СЃСЏ
РІС‹С€Р»Р°
РЅР°РІС‹
РєРѕРїРµР№
РґРѕРїСѓСЃРєР°
РїРѕР»РѕРІРёРЅСѓ
##РЅРµРЅ
Р›РѕРЅ
СЌС„Рё
Р—РЅР°РµС‚Рµ
РЎРћ
with
##РґРєРѕР№
РРІР°
СЂР°Р·РІРµСЂ
РєРІР°СЂС‚
##РєСЂР°С‚РЅРѕ
##45
РіР»СѓР±РѕРєРѕ
РїРёСЂРѕ
##ron
##ph
Р™РѕСЂ
СЃС†РµРЅ
Р•Р»СЊС†Рё
С‚РµРї
С‚РѕРІР°СЂРёС‰
РґРµСЏС‚РµР»СЊРЅРѕСЃС‚СЊ
РҐРѕС‡Сѓ
СѓС‰РµСЂ
РљРѕРЅСЃС‚РёС‚Сѓ
Р”РµСЂ
##ear
СЃР»СѓС€Р°
РіСЂР°Р¶РґР°РЅРµ
СЂРѕС‚
##С€РµР±
РєРѕРјРїР»РµРєСЃ
РѕС‚РІСЂР°
Р±СѓРґСѓС‰РµРіРѕ
РІРЅРѕРІСЊ
СЂРµРґР°Рє
##СЂС…Рё
Р“РѕР»Рѕ
РџСЂРѕРґРѕР»
РР±Рѕ
РґСѓС…РѕРІ
РЅРѕСЂРјР°Р»СЊРЅС‹Рµ
РјР°Р»С‹
##С…РЅРµС‚
РїРѕРЅСЏС‚РёРµ
СЃРѕСЃС‚РѕСЏРЅРёСЏ
Р°СЂС‚Рё
##СЂРѕРІР°РЅР°
РїРѕР±С‹
Р¶РёС‚РµР»Рё
РћР»Рё
С‡СѓРІСЃС‚РІСѓСЋ
РїСЂРµРґРЅР°
РїРѕР·Рґ
РўРѕРј
##РїРѕР»Сѓ
##РґРЅСЏСЏ
РїРѕСЏРІР»СЏРµС‚СЃСЏ
##РєРј
РѕР±РѕСЂ
РѕР±СЃСѓР¶РґР°С‚СЊ
СЂРµР°РіРё
Th
СЃРЅРёРјР°С‚СЊ
Р—Р°Рє
##РІР°РЅРЅС‹Рµ
РіРµРЅРµС‚Рё
РЅРµС„С‚СЊ
СЂР°Р·Р»РёС‡РЅС‹С…
СЃРїСЂР°РІР°
РџСЂРµРєСЂР°
РІРёР·Сѓ
РјСѓР¶С‡РёРЅ
РІРѕР·РґСѓС…
Р±РµСЂРµРіСѓ
СЃРІРµС‚Рµ
РѕС€РёР±РєР°
РђРЅРґСЂРµР№
РЅР°РіСЂР°
##СЂСѓСЏ
##РµС‚РѕРј
##iy
РўР°РєРѕР№
РґРµРґСѓ
##РіРі
##itf
##РѕСЂРґРёРЅР°
Р·РЅР°С‡РµРЅРёСЏ
РєСЂС‹Рј
СЂС‹Р±Р°
Р°РІР°СЂРё
##С‡РµРЅРёСЋ
РїСЂРѕРіСЂР°РјРјСѓ
РјРёР»Рѕ
РІРµС‰
##С€РµРЅРєРѕ
Р±РѕСЂСЊР±С‹
СЂР°Р·РІРµРґ
##СЃС‚РёР»
СЂРёСЃРє
СѓР№
СЃРѕСЃС‚Р°РІРё
РїСЂРµРґР»РѕР¶РµРЅРёСЏ
РєР°Р¶РґСѓСЋ
Р РРђ
##****
##СЃСЃРёСЋ
Р»РѕРєР°
##РєР»Р°СЃСЃ
РѕР±С‰РµСЃС‚РІРµ
##РјРµРЅРµ
РҐРё
СѓС‡РµС‚РѕРј
##Р·РјС‹
Р’СЃРµР»РµРЅРЅРѕР№
СЂРµР°Р»СЊРЅС‹Рµ
РіРѕРІРѕСЂРёРј
1944
.....
Р±С‹Рґ
РёРЅС„СЂР°
С€С‚СѓРє
РђР№
Р°СѓРґРёС‚Рѕ
СЃРёРіРЅР°
РЅР°Р»РёС‡РёРё
РѕР±СЉРµРґРё
Р»РµРЅСЊ
РњРѕСЃРєРІСѓ
СЃСѓРјРјСѓ
РїСѓСЃС‚Рѕ
РїР°СЂРЅРё
РЅР°С†РёРѕРЅР°Р»Рё
##РјРµСЂС‹
РїРѕСЃС‚Р°СЂР°
##Р»С‘РЅ
##РІРµСЂРµ
РЅР°РїР°Рґ
Р»РѕРјР°
РґРІРѕСЂРµ
РҐРѕС‚СЊ
РїСЂРёРєР°
##Р»СЋР±
РїРѕР»РЅРѕРј
СЃРµР№
РёРјСѓС‰Рµ
Р­С‚
СѓС‡РµРЅС‹Рµ
РєР»СѓР±Р°
##ne
РѕР±РѕРёС…
РєСѓСЃРѕ
Р°СЂРјРёСЏ
СЃРєР°Р¶РёС‚Рµ
##Р·Р°С‰Рё
СЃС‚РѕСЏР»
##РЅРµРєРґРѕ
РєР°РЅРґРёРґР°С‚РѕРІ
РІС‹СЂСѓ
РіСѓР±РµСЂРЅР°
##itfrid
РРІР°РЅРѕРІ
##22
##С‚РёР»РёСЃСЊ
СѓС…РѕРґРёС‚
РїСЂРѕС„РµСЃ
С‡СѓРІСЃС‚РІСѓ
С‚РµС…РЅРёРєРё
С…Р»РµР±
РѕСЃС‚Р°С‚СЊСЃСЏ
##РµРјС‹Рј
СЃСѓС‰РµСЃС‚РІСѓСЋС‚
СЃРѕР»РЅРµ
##Р±РѕР»СЊ
39
РєР°РЅР°Р»
##Р»РёС‚СЊСЃСЏ
РїСЂРёРЅРµ
РІРёРґРёС€СЊ
С„РёР»СЊРјРѕРІ
РёРґРµСЋ
РїРѕРґРґРµСЂР¶РєСѓ
СЃС‚СЂРµР»
Ditfrid
##РіРѕСЂРѕРґ
РїРѕРјРёРјРѕ
##СЂРёР°
РЅР°СѓРє
##СЂРѕРІР°РЅРЅРѕР№
РІРѕРµРЅРЅС‹Рµ
##oun
СЃС‚РёР»СЊ
РјРµР¶РґСѓРЅР°СЂРѕ
##С‰РµРЅС‹
##СЂРЅРѕР№
СЃР°РЅРєС†РёРё
Р·Р°Р±РёСЂР°
СЂС‹РЅРєР°
##С‚РЅРё
##СЃСЃРµСЂ
##РєСѓРїРё
СЃС‚С‹РґРЅРѕ
##Р»СЊРЅС‹
СЃС‚Р°Р»РєРё
РІРµС‰РµСЃС‚РІР°
Р·Р°РґРµСЂР¶Р°
РЎРѕР»
##РІРѕР·СЊ
РїРѕСЃР»РµРґРЅРµРіРѕ
С…РѕРґСѓ
РѕР±С‰РµСЃС‚РІРµРЅРЅРѕ
Р·РµР»РµРЅС‹
РєРѕРї
СЃРµР·РѕРЅР°
РїРѕРґС…РѕРґ
##С‚РѕРІРѕР№
С…РІР°С‚РёР»Рѕ
##Р»СЏРЅРґРё
СЃРІРѕСЏ
##СЃРµРІ
##Р·РјСѓ
РїСЂРµРїРѕРґ
##РїРёРЅ
РїРёСЃР°Р»Рё
##ton
РіСЂСѓР·
##РїР°РЅРёСЏ
РїРѕСЃР»РµРґСѓ
С‡РµРјРїРёРѕРЅР°С‚Р°
РѕС‚РІРµС‡Р°РµС‚
РґРѕСЂРѕРіР°
СЃРІСЏР·Р°РЅРѕ
РґРёР°РіРЅРѕ
Р¶РёР·РЅСЊСЋ
РіР»СѓРїС‹
РґСЂСѓР¶
СѓРјРµСЋС‚
РІРѕРїСЂРѕСЃСѓ
РєСЂРёС‚РµСЂРё
##РєР»Р°РґС‹РІР°С‚СЊ
Р­РЅ
Р РѕРґРё
РІС‹Р±СЂРѕ
СЃРѕРІСЂРµРјРµРЅРЅС‹С…
РёРјРµРµРј
СѓРІРµСЂРµРЅС‹
Р°РїРїР°СЂР°С‚
##РєС‚РѕРІ
СЃРЅРёРј
##С‡РєР°С…
РєСЂР°С‚
РїСЂРёРґСѓ
СЃСѓРґРёС‚СЊ
Р°РєС‚Сѓ
##РјР±Рё
РєРЅРёРіРµ
Р РµСЃРїСѓР±Р»РёРєРё
65
##РєРѕРІРѕРіРѕ
РїРѕРґСЃР°Р№
РћР±Рѕ
С‚СЂР°С‚РёС‚СЊ
РјРµС‚РѕРґ
РјСѓР¶Р°
##СЂРёР»РёСЃСЊ
Р’СЃРµРіРѕ
РёРґРµР№
##Р°РЅСЊС€Рµ
РёРЅС‚РµСЂРµСЃРЅС‹Р№
РІР°РєСѓ
РІР·СЂС‹РІ
##РЅСѓР»Р°СЃСЊ
С‡С‚
Р·Р°СЂРїР»Р°С‚Сѓ
РїСЂРёРјРё
##ial
##СЂРѕРЅС‹
РґР°С‘С‚
РјР»Р°Рґ
РЅР°СЂСѓС€РµРЅРёРµ
Р°РґР°
РЅР°С…РѕРґСЏ
СЃРѕРѕР±С‰РёР»
С…СѓРґРѕ
РіРѕР»РѕРІ
РЅСЂР°РІСЏС‚СЃСЏ
РєР°РїСЃСѓ
СЃРѕРјРЅРµРЅРёСЏ
РџРѕР±Рµ
##yp
РђС„СЂРё
РќР°СЂРѕРґ
##РІС‘СЂ
Р’РµСЂС…РѕРІ
de
РЅР°Р»
РјСѓСЃСѓР»СЊ
Р’РµСЃСЊ
РїСЂРѕС€РµР»
РѕС‚РґР°С‚СЊ
СЃР°Р»Рѕ
##ug
РІРѕСЃРїРѕРјРёРЅР°
##С…РѕРґРѕРј
Р—РµРјР»Рµ
СѓР±РёР№СЃС‚РІРѕ
##С‚РёРІРё
СЃСѓР±СЉРµ
##РіРёС…
РђРј
С‡РµСЂС‚
##78
РґРµРїСѓС‚Р°С‚РѕРІ
##СЃС‚РЅС‹Р№
Р•РґР 
##РїРёРё
РїСЂРѕРІРѕРґРёС‚СЊ
Р Р°РЅСЊС€Рµ
РѕС„РёСЃ
##РєРѕРІР°СЏ
##uch
РњРѕРё
Р·Р°Р¶Рё
СЃР°РјРёРј
##РґР°СЏ
РёРґСѓ
РЁСѓ
##РµРјРѕРµ
РјРѕРЅР°СЃС‚С‹
С‚РµРјРїРµСЂР°С‚СѓСЂР°
##igil
СЃРёРіР°СЂРµС‚
##СЂРЅС‹С…
РЅР°С‡РЅСѓС‚
##РїР°Р»Рё
Р±РѕР¶Рµ
Р°С‚РјРѕСЃС„
РµРґРёРЅРѕСЂРѕ
СѓС‡РёС‚СЊСЃСЏ
РўРёРїР°
Р‘РѕРіР°
СЃР»РµРґС‹
РїРѕРґРІРѕ
РїСЂРµРґРїСЂРёРЅРёРјР°
360
Р·Р°СЃС‚Р°РІРёС‚СЊ
СѓСЃРїРµР»
РІС‹СЃС‚Р°РІ
РѕС‚РІРµС‡Р°
##Р±Р°РЅ
СЃРѕРµРґРёРЅ
##С‡РёРєРѕРј
РїРѕСЂРЅРѕ
##dd
РїРѕР»СѓС‡РёР»Р°
РєР°СЂС‚РёРЅРєР°
##Р¶РЅРѕРµ
Р±РѕР»СЊС€РѕРіРѕ
##РёРІР°С‚СЊ
РЎРІСЏ
РјРёР»Р»РёР°СЂРґРѕРІ
РїРѕРґСЂРѕСЃС‚
РєР°РјРµСЂС‹
##Р±СЂР°СЃС‹
##С…Р°С…Р°
РќРѕСЂРјР°
Р±Р°Р·Р°
СЂРѕСЃСЃРёРё
РІРѕСЃС‚РѕСЂ
##С‚Р°СЂРё
##att
Go
##igilist
РїСЂСЏРјРѕР№
РІРѕСЃРїРѕР»СЊ
180
РЎРј
РѕРїСѓ
СЂР°Р·РѕС‡Р°
##РїРµР»СЊ
СЃРїСЂР°РІ
СЂРµР¶РёРјР°
С‚РµС…РЅРѕР»РѕРі
РјР°РєСЃРёРјР°Р»СЊРЅРѕ
##РЅР°Р·
РѕР±С‰Р°С‚СЊСЃСЏ
Р·Р°РїРѕР»
##РґРµСЏ
##СЃС‚СѓРїРёС‚СЊ
##СЃС‚СЏС‚
РѕС‡Рё
РґС‹СЂС‹
РїРѕС‚РѕРє
##РїР»Р°РЅРµС‚
##С‘РЅРЅС‹Рµ
РїСЂРѕРёСЃС…РѕРґСЏ
Р»РёС†РµРЅ
##С‰РµРЅР°
##РєРѕРІРё
РєР°Р¶РґРѕРјСѓ
##РёС€СЊ
Р»СѓС‡С€РёС…
РёРЅС‚РµСЂРµСЃРЅРѕРµ
С‚Рґ
РґРµР±СЋС‚
Р±Р°С‚
РїСЂР°РІРёР»
РёСЃРїРѕР»СЊР·СѓРµС‚СЃСЏ
Р”РќРљ
##С‘РЅРЅС‹Р№
РїСЂРµРґСЃС‚Р°РІР»СЏРµС‚
РєР°РєРёРјРё
##РёР·РјР°
##РґРµР»Р°С‚СЊ
##СЃС‚Р°С‚РѕС‡РЅРѕ
РѕРєРЅР°
СЂР°Р±РѕС‡РёС…
РїСЂРѕС‡РёРј
Р·РµСЂРєР°
РґРѕРєР°Р·С‹РІР°
ch
СѓРіРѕР»Рѕ
Р±РѕР»СЊС€РµРІРё
РІРѕРµРЅРЅРѕ
РћС‚Рµ
700
РјРёРЅСѓС‚Сѓ
РґРѕРїРѕР»
РњР°СЃРєР°
РњРљРЎ
РїРѕР±РѕР»СЊС€Рµ
РїРѕС…РѕР¶
##ue
РІРѕСЃСЃС‚Р°РЅРѕРІ
РљР°СЃСЊСЏ
СЃРєСЂРѕРј
РїРѕР»РЅРѕРµ
СЌРЅРµСЂРіРµС‚Рё
РЅРµРјС†С‹
48
##РґРµРЅСЊ
С‚РѕРІР°СЂ
СЌРїРёР·Рѕ
РЅР°Р·РІР°РЅРёСЏ
РїРѕРґРґРµСЂР¶РєРё
СѓР»РёС†С‹
РєРѕРґ
РѕС‚РґС‹С…Р°
##РјСѓРЅ
СЂРµСЃСѓСЂСЃС‹
РѕРїРїРѕРЅ
##С‚РёРІРЅС‹С…
РїРѕСЃРјРѕС‚СЂРёРј
СЃРёС‚Сѓ
РіСЂР°РІРёС‚Р°
##РЅРёРјРё
РёРіСЂР°Р»
##РґР°Р»СЊ
##РєРѕР»Рѕ
РїР»Р°РЅРµС‚Рµ
РѕР±СЉРµРєС‚
Р°СЃС„Р°Р»СЊ
Р±Р°РєСЃРѕРІ
##Р°СЂС‹
##ern
РјРѕР»РѕРґРѕР№
СЌРєРёРїР°
РєРѕСЂРё
##РќР°
РџР Рћ
СѓР±РёР»Рё
С‚СЂР°Рј
РїРѕРґРєР»СЋ
РїРѕС‡СѓРІ
СѓР±СЂР°С‚СЊ
РІСЃС‘Рј
РІС‹Р±РёСЂР°С‚СЊ
РїСЂРµР¶РЅРµРјСѓ
Р№Рѕ
##С‡РёС‚Рµ
РІС‹РїСѓ
С€РїРё
##ah
РґР°Р»Рµ
С‚РµС…РЅРѕР»РѕРіРёР№
СЃРѕРІРµС‚СЃРєРёС…
##РЅСЏСЋСЃСЊ
РЅР°Р±РёСЂР°
184
РѕР±СЏР·Р°РЅ
РїСЂРёР·РЅР°С‚СЊ
Р·Р°Р±Р»Сѓ
##СЌСЌ
РґРѕРіРѕ
С‚РѕС‡РєР°
РІР°С‚
РїСЂРµРґР»РѕР¶РёР»
РЎР»Рё
СЃРѕР±СЂР°РЅ
##РєРѕСЃ
Р¤РЎР‘
Р±Р°РЅРє
##Р»С‘С‚
СѓСЃРєРѕ
1945
##СЂРёС„
РѕР±РЅР°СЂСѓ
РўРІРѕ
С‡СѓС€СЊ
##СЏРµС‚СЃСЏ
СЂРµС‡Рё
С‚СЂРµРЅРµСЂ
РІРµСЃРµР»Рѕ
Р·Р°РїР°СЃ
СЂРѕСЃСЃРёР№СЃРєРёР№
##СѓРјРµ
С‡РµР»РѕРІРµС‡РµСЃС‚РІР°
РџСЂР°РІРёР»СЊРЅРѕ
РїРѕРґРѕР±РЅРѕРіРѕ
РЅР°РґРѕРµ
С‚СЂРµР№
СЃРґРµР»Р°РµС‚
Р”РѕРєС‚РѕСЂ
РєР°Р±Рё
РїРѕРіСѓ
Р­СЂ
1943
##Р¶РµРЅРЅС‹С…
##Р°РЅСЃРєРѕР№
##РІРµСЂРё
СЂР°Р±РѕС‚Р°Р»Рё
!!!!
СЃРѕР¶
РІРЅРёРјР°С‚РµР»СЊРЅРѕ
РјР°СЃСЃСѓ
РїСЂРёРІРѕРґРёС‚
РєСѓРїРё
РјР°СЂРё
РїРѕР·РІРѕР»СЏ
РјРѕРґРµСЂР°
РїСЂРёРіРѕС‚РѕРІ
РҐРѕС‡РµС€СЊ
СЃРїСѓСЃРєР°
##СЂРёСЂРѕРІР°С‚СЊ
РїРѕРґС…РѕРґСЏ
РЅР°С€Р»Р°
РљРћ
##РєРѕРІС‹Рј
##int
СЃРїР°СЃС‚Рё
##С‡РµСЃС‚РІСѓ
РєСЂСѓРїРЅС‹С…
Р“СЂРµ
РЁРё
Р»РѕР±
РїР°СЂС‹
СЂРµР¶РёРјРµ
Р·Р°РєРѕРЅРѕРІ
РїСЂРµРґСЉСЏ
РєРѕСЃСЏ
РџРѕРјРЅРё
РєРѕРјРїСЊСЋ
##Р·РµСЂР°
##РїСЂРѕРІРѕ
РїСЂРѕРґР°РІ
Р»РѕРіРёРєР°
##РјР°Р»Рё
##РІРѕРјСѓ
С…РѕРґРёР»
##С‰Р°Р»
РµРґ
Р°РєС‚РёРІРё
##С€РёРЅСЃС‚РІРѕ
РІРѕРїСЂРѕСЃРѕРј
##Р·Р°Р»
СѓС€РµР»
СЃРѕР±Р°РєРё
СЃРѕРІСЂРµРјРµРЅРЅРѕР№
##Р¶РµРЅРЅС‹Рµ
РёРЅР¶РµРЅРµСЂ
СЂР°Р·РґРµР»
РІРµРЅ
СЂРµСЃСѓСЂСЃРѕРІ
##РіРЅР°Р»Рё
Р·Р°СЂРµРіРёСЃС‚СЂРё
РїСЂРѕРІРѕРєР°
РїСЂРёРЅСЏР»
СѓРЅС‹
РїРѕРєР°Р·С‹РІР°СЋС‚
##Р±СЂР°Р»Рё
РґРѕСЃС‚РёР¶РµРЅРёСЏ
СѓР»С‹Р±
РїСЂРёС€Р»Рѕ
РїР»РµРј
РѕС‚С‡РµС‚
РїРѕРїС‹С‚РєР°
РЎРєРѕСЂРѕ
##Р±РѕСЂС‹
Р°С‚Р°Рє
РІРµРґРµС‚
СѓР±С‹
05
РјРѕС‚РѕС†Рё
##eb
##Р±РµСЂРі
РєРѕСЂРїСѓ
РїСЂРёРґСѓРјР°Р»Рё
РґРµРїСѓС‚Р°С‚С‹
СЃС‹СЂ
Р»РёС†Рµ
РёРЅСЃС‚СЂСѓРє
РѕСЃРЅРѕРІР°
РїРѕРєР°Р·Р°Р»Рё
Ch
СЃР°РјРѕР»С‘
РїРѕР»РЅР°СЏ
##РґРёРІРё
РІС‚РѕСЂРѕРј
РїСЂР°Р№РјРµСЂРёР·
РїР°РґР°РµС‚
Р±СѓС…
Р‘СѓРґРµС‚
СЂСѓРєРѕРІРѕРґСЃС‚РІРѕ
РѕС‚РІРµС‚СЃС‚РІРµРЅРЅРѕСЃС‚Рё
РїРѕС€Р»Рѕ
РїСЂРѕРґРѕР»Р¶Рё
Р·СѓР±
##РїРµР»
##ment
##СЂС‘
Р•РІРі
РўРµСЃ
##С‡РЅРёРєРё
РїРѕСЏРІРёС‚СЃСЏ
##РёРІР°РµС‚СЃСЏ
РІСЉ
РІСЃРµР»РµРЅРЅРѕР№
РїСЂРѕС†РµСЃСЃР°
?В»
С‚СЊ
С„Р°РЅС‚Р°СЃС‚Рё
СЃР»РµРґСЃС‚РІРёРµ
Р°РєР°РґРµРјРё
РїСЂРµРґСЃРµ
СЃРѕР±Р°РєР°
РЅР°С‡РёРЅР°СЏ
РѕСЂСѓ
С‡РµСЃ
РўРђ
РґРµР»Р°РµС‚Рµ
РµРґС‹
##Р»СЏС‚СЊСЃСЏ
РјР°С‚С‡Рµ
XX
РјРѕР»РѕРґРµ
СЃРјРѕС‚СЂРёС‚
РџСѓС‚
##СЂР°Р¶Рё
РєР»РёРµРЅС‚Р°
РїРµРЅСЃРёРё
РґРµРїСЂРµ
СЃРІР°РґСЊ
РѕРіСЂР°
РѕРєР°Р·Р°Р»Р°СЃСЊ
РёС‚
РѕС‚РЅРѕС€РµРЅРёР№
##73
РіРѕР»РѕСЃРѕРІ
С…РѕС‚РёРј
##tp
##РІС€СѓСЋ
РњР°С‚
РѕС‚РІРµС‚С‹
##РґР»Рё
РёРґРµРЅС‚Рё
РЅР°РїРѕРјРёРЅР°РµС‚
Р±Р°РіР°
Р РµСЃ
РІРµР»РёРєРѕР»Рµ
РћРћРќ
РєРѕРјРјРµРЅС‚Р°СЂРёСЏС…
СЃРѕРІРµС‚СЃРєРѕР№
СЃРµР»Р°
РёРјРµРµС‚СЃСЏ
РІРїР»Рѕ
РІРµСЂРЅСѓР»
РџР”Р”
##РЅС‚С‹
СЂРµРєРѕРјРµРЅРґСѓСЋ
##РµРЅРёСЏРјРё
РґР°РІР»РµРЅРёРµ
Р±РёР·РЅРµСЃР°
en
##СЂСЊРµ
##СЃРѕР·РЅР°
РёР·Р±СЂР°РЅ
95
Р·Р°РЅРёРјР°СЋС‚СЃСЏ
Р’Р’Рџ
##РјСѓРЅРё
РєРѕСЃРјРѕСЃРµ
РѕСЂРіР°РЅРёР·Р°С†РёСЏ
РїРѕР»СѓС‡РµРЅРёСЏ
Р°РІС‚РѕРјРѕР±РёР»Рё
РєР°СЂС‚РёРЅРєСѓ
РѕРєРѕРЅС‡Р°С‚РµР»СЊРЅРѕ
Nigilist
183
РЇРїРѕРЅ
Р±РµСЂСѓС‚
##С€Р°С‚
С‡РµРјРїРёРѕРЅР°С‚Рµ
##Р”Р•
NigilistNeo
СЃР»С‹С€Р°Р»Рё
РїСЃРёС…
РѕР±С‰РµР№
Pro
С‚РµРєСЃС‚Р°
Р•Рµ
СЃРїРµСЂ
РџРѕРґСЂРѕР±
43
РїСЂРёРµС…Р°Р»
С‚РёС‚
##СЂС‹Рј
##СЏР·С‹
##СЃС‚РµСЃС‚РІРµРЅРЅРѕ
СЃРµСЂРёР°Р»
РЎРїРµ
Р°РЅРµРєРґРѕ
##Р¶РµРЅРЅС‹Р№
Р“РѕР»
РїРѕРєР°Р·Р°Р»
Р·Р°РєРѕРЅСѓ
РёРЅРІРµСЃС‚Рё
РІРѕСЃСЊ
##РІСЏРЅ
РѕС‚РєСЂС‹С‚СЊ
РїСЂРµРґРѕСЃС‚Р°РІ
##Р°РјР°
РєРѕРјРЅР°С‚Рµ
##РµРЅС†РёРё
##Р»Р»Рѕ
Р–Р°Р»СЊ
##che
##Р“Р
##С‚Р°Р»СЊСЏРЅ
##РѕР±Р»Р°
РњСЌ
##РґР°Р»Р°
СЃРµС‚СЊ
РјР°СЃР»Р°
РєР°СЂС‚РёРЅСѓ
РїСЂРёРѕР±СЂРµС‚
РїРµСЂРµС…РѕРґ
СѓРіР»Сѓ
Р±РёР±Р»РёРѕС‚Рµ
##СЃР»Р°Р±
РњР°Р»Рѕ
РіСѓР±РµСЂРЅРёРё
РїСЂР°РєС‚РёРєРµ
Р­Рґ
##РіРѕРґ
РІР·РѕСЂ
##СЃС‚СЂРѕРё
С„РёРіРЅСЏ
##С‚СѓСЂРѕР№
РІРѕРґРµ
1086
СЌС‚Р°Рї
##Р»Р°СЂСѓ
##РіРёС‚Рµ
РјРіРЅРѕРІ
##РµС‚Р°С…
РєСЂР°СЃРЅС‹Р№
РїРёС€РёС‚Рµ
РљР°РєРѕРµ
##СЃС‚СѓРїРёР»
РїСЂРѕС‡РёС‚Р°Р»
РјСѓСЃРѕСЂ
РїСЂРµРґРЅР°Р·РЅР°
##),
РґРѕР»Р¶РЅРѕСЃС‚СЊ
##uk
##С‰РёРЅС‹
СЌРєСЃС‚
РїРѕРІРµСЂРёС‚СЊ
СЃРїР»РѕС€
##63
Р¶РµРЅРё
СЂРµР±С‘РЅРєР°
##С…РѕРґСѓ
##РіР°РґС‹
##РІР»Р°
##РЅСѓС‚СЂРё
С„СЂР°Р·Р°
РѕС‚РЅРѕС€РµРЅРёСЋ
РРіРѕ
##РІРµСЂРѕ
РґРІРёРі
РїР»Р°РЅС‹
РѕСЃС‚Р°РІР»СЏ
##С€РµРЅРёР№
РџР°СЂС‚РёСЏ
##AS
РЅР°СЂСѓС€РµРЅРёСЏ
РєРѕСЂРѕС‡Рµ
##Grey
РµРґРµС‚
РЎСЂРµРґРё
##С‡Р°Р»Рѕ
РњРёС…Р°РёР»
РїСЂРµРІРѕСЃ
480
С‚РµСЂРјРѕ
СЃРѕС‚СЂСѓРґРЅРёРєРѕРІ
РїРѕР·РёС†РёСЋ
РЅРѕРІС‹Рј
РѕС‚РјРµС‚РёР»
##РєРЅСѓР»
СЃР°РјРёС…
СЃС‚РѕРёР»Рѕ
РїСЂРѕСЃС‚
РЅР°СЃР»Р°
##РІСЏС‚
СЃРёРјРІРѕР»
d3
##РЅРґСЂРѕРё
44
##РІР»РµРЅ
Р±СѓРґСѓС‡Рё
##РІРµРµ
РІРїРµСЂРµРґРё
РєСЂСѓРїРЅРµР№
РјРѕР·РіРё
СѓРґРѕРІР»РµС‚РІРѕ
Р’СЂРµРјСЏ
СЃР°РјСѓСЋ
РїРѕСЃС‚Р°РІРёР»Рё
РїСЂРµРґРїРѕС‡
РіРѕСЂРѕРґСѓ
СЃРµР»Рµ
РёРЅС‚РµСЂРµСЃСѓРµС‚
##С‚РµР»СЊРЅРѕРј
РґРёРєС‚Р°
Р°С‚РѕРј
РјР°Р»СЊС‡РёРє
РѕР±РѕР·
РЅР°С€С‘Р»
СЃСЃС‹Р»РєРѕР№
РіРѕСЂРѕРґРѕРІ
РЅРµР±РѕР»СЊС€Рѕ
##С‡РёСЃР»Рё
РЅРµСЃС‡Р°СЃС‚
01
РѕРіРѕРЅСЊ
##С„Р°РЅ
РџРёС‚РµСЂ
РіР»Р°РІР°
РѕС‚РјРµ
С‚РµСЂРјРё
Р’РѕСЃ
##РўРџ
##88
##С‚РёРІРЅРѕР№
РњРѕР»
##ence
Р°СЂРіСѓРјРµРЅС‚
##РІС‹РІР°С‚СЊ
РєРѕРјР°РЅРґР°
РЅР°С‡Р°Р»Р°СЃСЊ
РїРѕСЃС‚РѕРІ
РїРѕР·РёС†РёСЏ
С‚РѕРІ
РїРѕРєРѕР»РµРЅРёСЏ
РІРѕР»С€РµР±
Р±РµР·СѓРј
##РґР»РµРЅРЅРѕ
Р°РјРµСЂРёРєР°РЅСЃРєРёС…
##СЃС‚Р°Р»
Р·Р°Р±Рё
##СЌС‚Р°
Р—РµРјР»СЏ
##РіРёРЅ
РіРµРЅРѕ
Р’РѕР№
##РїСѓС‚
РЅР°СЃР»Рµ
СЌРєСЃРїРµСЂРёРјРµРЅС‚
РЅР°Рє
Р”РѕР±Р°
РњРѕР¶РµС‚Рµ
##lay
РїСЂРёСЏ
РїРµСЂРёРѕРґРёС‡РµСЃРєРё
Р РѕСЃРєРѕСЃ
##РЅРѕРІРѕР№
##РѕР±СЂР°Р·РѕРІР°
РєРёРЅ
С‚РµСЂСЂРѕСЂ
РњР°РЅ
С‚РµР»РµРє
##С…РѕРґРёР»Р°
Р°РєРєСѓРјСѓР»СЏ
##СЉРµРј
СЃР»СѓС‡Р°Рё
Р±Р°Р»Р°РЅ
РІРѕР»РЅС‹
РґРѕР»СЊС€Рµ
Р Р°Р·Сѓ
##riter
С…РѕРґРёС‚
##ish
С‚РµСЃС‚Рѕ
РїР°РЅРµ
Р¶РёРІРѕС‚
РѕРєРѕРЅС‡РёР»
##СЃС‚СЂРѕРІ
СѓР»
СЋСЂРёРґРё
MrGrey
СѓСЃРїРµС…
СЃРѕРјРЅРµРІР°СЋСЃСЊ
РЎС‚Р°Р»РёРЅР°
##С‚РµР»СЊРЅС‹РјРё
СѓС‡Р°СЃС‚РЅРёРєРѕРІ
##ows
РіРѕРІРЅР°
РСЃС‚
СЂРµС€Р°РµС‚
##РїСЃ
РјРµРґРІРµ
Р”РµР»Р°
СЃРїРѕСЃРѕР±РµРЅ
РІС‚РѕСЂРѕРµ
Р¶РµРЅСѓ
##ann
##СЃС‚Р°РІР»СЏС‚СЊ
##Р±РѕРµ
С‡РёРЅРѕРІРЅРёРєРѕРІ
СЃС‚Р°СЂС‹С…
СЃСЂРµРґРЅРµРіРѕ
##РІРµСЂС€РµРЅРЅРѕ
Р·Р°РІРµРґ
##Р»РѕСЂ
##С‡РєРѕРІ
С‚РµСЂРјРёРЅР°
С„Р°РєСѓР»СЊС‚
РіР»Р°РІРЅРѕР№
РёР·РіРѕС‚РѕРІ
РїСЂРѕРґСѓРєС‚РѕРІ
СЂРµСЃС‚РѕСЂР°
РєРѕСЂР°
##С‚РЅРѕРј
СЃРёРґРµР»
Р°СЃСЃ
РџСЂРѕСЃС‚Рё
##erg
РїСЂРёСЃРѕРµРґРёРЅ
С…РѕСЂРѕС€РµР№
СЃРїРёСЃРєР°
Р»Р°Р±РѕСЂР°С‚Рѕ
Р·Р°РјРµС‚РёС‚СЊ
##РєСѓСЂРѕ
##С†РµСЃ
##Р¶РґР°СЋС‚
##СЃРµРІРґРѕ
##Р·С‹РІР°С‚СЊСЃСЏ
РіРѕСЂРѕРґР°С…
РђРјРµСЂРёРєРµ
##СЃР»Р°РІ
СЃРѕРІРїР°
РїРѕРґРЅСЏС‚СЊ
РЅРѕР¶
SpaceX
РјР°С‚РµСЂРёР°Р»С‹
РїРѕРЅРµ
РїРµСЂРµРЅРѕ
С‡РёС‚Р°СЋ
##СЂРѕРІРєСѓ
Р±РѕР»Рё
СЃРµСЂРµРґРёРЅРµ
РЅР°РІСЃРµРіРґР°
##СЂРѕРІР°РЅРЅР°СЏ
РЈРІРµСЂ
СЃРѕРїСЂРѕРІРѕ
РєРѕСЂР°Р±Р»СЏ
Р·Р°СЂСѓ
РЈР¶
##С‚РѕСЂРµ
Р±Р»РѕРєР°
РўРЎ
РїРѕРІС‚РѕСЂ
РёРЅРѕР№
Р“СЂР°Р¶РґР°
##С…Р°Р»Рё
РЅР°С‡Р°Р»РѕСЃСЊ
СЃР»Р°Р±С‹
Р¶РґСѓ
РїСЂРёСЂРѕРґРµ
Р»РѕР¶СЊ
##С‚Р°РЅРёРё
РЈСЂР°
СЃРµСЂСЊС‘Р·РЅРѕ
##С‘Рґ
##РёСЃС‚С‹
##РІС‹Р±РѕСЂ
СЃРїРѕСЂС‚Р°
Р·РІРµР·РґС‹
РѕРїС‚РёРјРё
dr
Р¤РёРЅР»СЏРЅРґРё
РѕС‚РєР»СЋ
##РёС‡Р°
wer
СѓРєСЂР°РёРЅС†РµРІ
С…РѕС…
РќРµРґР°
РїР»Р°С‚С„РѕСЂ
СЂРµР°Р»СЊРЅРѕР№
РёРјРµРЅР°
РїРѕРґСЂР°Р·
la
РќРµР»СЊР·СЏ
РўСЂР°РјРї
СЂР°СЃС‡РµС‚
РҐР°СЂ
С†РІРµ
РљРёСЂ
РѕСЃС‚РѕСЂРѕ
##СѓРіРѕ
der
РўРѕСЂ
di
que
СЂР°Р·СЂРµС€
:(
##Р‘Рћ
el
se
del
die
1992
und
et
na
Writer
was
##Р»РёР№
РїР°СЃРїРѕСЂС‚
РїРѕРІРµСЃ
##РЅСѓР»Рѕ
des
den
РґСЂСѓР·СЊСЏРјРё
РіРѕС‚РѕРІР°
da
je
van
РёСЃРїРѕР»СЊР·РѕРІР°РЅРёРµ
СѓР»РёС†Сѓ
sa
do
РІР°СЂРё
СЃРїРѕСЃРѕР±РѕРј
##РєР»Р°РґС‹РІР°РµС‚СЃСЏ
СЂРµР°РєС†РёСЏ
il
by
og
РѕС…СЂР°РЅ
РґСѓРјР°Р»Рё
La
Р·РЅР°СЏ
##uss
##С‡РЅС‹
er
РёРЅС„СЂР°СЃС‚СЂСѓРє
Р‘С‹Р»Рё
von
1998
du
##С…РѕР¶РґРµРЅРёРµ
av
РІС‹Р»Рµ
med
con
РѕРїСЂРµРґРµР»РёС‚СЊ
##С†РµСЂ
est
Р·РµР»
per
Р‘Р°Р»
РёС‚Р°Р»СЊСЏРЅ
som
Р±Р°РЅРєРё
por
СЃСЉРµРј
Р·Р°РґР°С‡
РџРѕСЃРјРѕС‚СЂРёС‚Рµ
1991
РїСЂРёСЃРѕРµРґРё
Р»РёС‡РЅРѕРµ
De
Р»Р¶Рё
no
##Р°РЅРѕРј
РїСЂРµРјСЊРµСЂ
Р·Р°РјРµРЅРёС‚СЊ
es
РјРёРЅРёСЃС‚СЂ
su
##ens
D0
С€С‚СЂР°С„
##С‡РєРѕ
Р РѕР±
km
РІС‚РѕСЂСѓСЋ
РґРѕРєСѓРјРµРЅС‚РѕРІ
РєРѕРјРјРµРЅС‚Р°СЂРёРµРІ
РѕР¶
om
РљСЂР°СЃРЅРѕ
Р—Рµ
Р»С‹
##ta
СЃРѕРѕС‚РЅРѕ
СѓРіРѕР»
##te
Р·Р°Р»Рµ
РєСЂРµРїРѕ
##na
para
mit
Р’РµР»РёРєРѕР№
##Р·РёРЅР°
El
СЃРµР·РѕРЅРµ
his
181
ha
##da
РѕР±РµР·СЊСЏ
РІСЂР°С‡Рё
РїСЂРѕС‡РёС‚Р°С‚СЊ
РџРѕРј
РїСЂРѕСЃС‚Рё
Den
Die
##РґРѕРІР°Р»
РґСЂРµ
##РјРёРіСЂР°
1980
РЎС‹
das
En
С‚РµР»РµРІРёР·Рѕ
РєРѕРЅС‚СЂР°РєС‚
РєРѕРЅС‚Р°
РѕСЂРґРµРЅ
par
##СЊРµРІ
##РєСѓРї
РїР°Сѓ
РіРІР°СЂ
##de
РїСЂРёРєР°Р·
Р”Р¶Сѓ
РЅР°РІРѕ
au
##are
РѕР±С‹С‡РЅС‹Рµ
РЅР°СЃС‡С‘С‚
РРґРё
che
РІРёРґСЏС‚
РґСЂ
##СЂРµРјРµРЅРЅРѕ
em
Р РµС‡СЊ
dem
##С†РёРѕРЅРЅР°СЏ
##РРЇ
СѓР±Рѕ
СЌРј
РєРѕРЅС‚РµРєСЃС‚Рµ
РїРѕР»РёС‚РёС‡РµСЃРєРѕР№
Р±РµР·СѓСЃР»РѕРІРЅРѕ
РЎРєР°Р¶РёС‚Рµ
РѕСЂСѓР¶РёРµРј
РїРѕСЃРµС‚Рё
##С†РёРѕРЅРЅРѕ
РћС‚РµС‡РµСЃС‚РІРµРЅРЅРѕР№
Le
Il
С„РёР»РѕСЃРѕС„Рё
Р·Р°СЂРїР»Р°С‚Р°
СЃРѕР·РЅР°РЅРёРµ
##РЎРћ
New
СЃРІРѕР±РѕРґСѓ
Р‘РѕР»
ein
РґРѕРєСѓРјРµРЅС‚
СЃРѕРІРµС‚Р°
um
##РІР°Р¶РЅРѕ
РЅР°Р»РѕРіРѕРІ
##С‚РµРєР°
##РїСЃРё
ist
var
СЂР°СЃС‚РІРѕ
are
##Р±СЂР°Р»
op
Р·Р°РјРµС‚РЅРѕ
РѕСЃС‚Р°РЅРѕРІРёС‚СЊ
##Р»СЏРЅ
РЅР°С‡РёРЅР°С‚СЊ
##РґС‘Рј
were
РѕРєР°Р·Р°С‚СЊСЃСЏ
od
son
##Р»РѕРіРёСЏ
##Р»Рґ
World
С‚РµРјРї
##do
##РєС‚РѕСЂРѕРј
which
##ja
РІРµР¶
РїСЂРѕРіРЅРѕ
ve
РїСЂРёРЅСѓ
##ti
sur
РіРѕРјРѕ
Un
РЅРµРїРѕСЃСЂРµРґСЃС‚РІРµРЅРЅРѕ
РјР°Р»РµРЅСЊРєР°СЏ
РµР±
РїСЂРёРІРѕРґ
РІРѕРѕР±СЂР°
РїРѕСЃР»РµРґСЃС‚РІРёСЏ
РѕС‚РєР°Р·Р°С‚СЊСЃСЏ
РїСЂРѕСЃС‚РёС‚Сѓ
Life
war
za
##to
РЈРґР°
##ni
##no
СѓС‡Р°СЃС‚РІРѕРІР°Р»
##СЂСѓРµС‚Рµ
182
##zz
Cl
det
РћС‡РµРІРё
Р±СѓСЂР¶Сѓ
##РµРЅРЅС‹РјРё
С‚СЂРµС‚
РјРѕР»РѕРґРµС†
РЅСЋР°РЅ
Р РѕРґРёР»СЃСЏ
He
РљР°Р·Р°С…
РњР°РјР°
az
te
##va
##СЏР»Рё
Р·Р°С‡Р°СЃС‚СѓСЋ
С‡Р»РµРЅРѕРј
mm
].
##nt
##ma
##Р»РѕРІР°С‚СЊ
##РјРЅРѕ
Р—Р°РЅ
РєРѕРЅСЃРѕ
had
СЃР±
##ng
It
СѓР»СЊ
##РІРёС‚Рµ
so
##je
РѕС‚РІ
##С‘СЂС‚
РїСЂРёРѕР±
Р’С‹СЃ
XIX
РІС‹РіРѕРґРЅРѕ
1997
1996
##li
РґРІСѓРј
РІСЏ
has
##С€С‚
С‡РµС‚С‹СЂРµС…
Р»РѕРїР°
С…РѕСЂРѕС€РёС…
СѓРґРёРІРёС‚РµР»СЊРЅРѕ
ur
##Р»СЊРЅР°
##С‘РЅРѕРє
РґРµСЂРµРІРЅРµ
РўРµС…
University
##С‚РєР°РјРё
##РЅРµРЅСЊ
РїРѕРїР°Р»Р°
Р’Р°С€Рµ
РЅР°СЃС‚СѓРї
С€РµР»
##Р°Р»РѕРј
Р“Р°Р·
РїСЂРѕС€Р»Рё
ni
РІС‹СЃРѕС‚
РЅРѕРјРµСЂР°
##РєРѕРЅРѕРјРё
РѕР±РѕСЂРѕРЅС‹
##РґРёРЅР°РјРё
РўР°Р№
John
first
Р‘РµРЅ
##С…РѕР·
##ca
РЎС‚СЂР°РЅРЅРѕ
os
met
РїСЂРµРґСЃС‚Р°РІР»СЏСЋ
С‚СЂСѓРґРѕРј
РѕСЂРіР°РЅРёР·РѕРІР°
##РµРјРѕСЃС‚СЊ
РєРѕРѕСЂРґРёРЅР°
Р”РµРЅРё
all
1995
СЂР°РґР°
РњРёСЃС‚РµСЂ
##Р»РёРё
##СЃС‚СЊСЏРЅ
РїСЂРёР·С‹РІР°
РѕРєР°Р¶РµС‚СЃСЏ
##for
1994
РІРѕСЃРїСЂРёСЏ
non
##С€РµСЃС‚РІ
##РІР°РјРё
##si
РґРѕРєР°Р·Р°С‚РµР»СЊСЃС‚РІ
##РІРµР·РґР°
af
РјСЌ
РІРѕР·РґСѓС€
their
ar
РІСЃС‚СЂРµС‡Рё
film
СѓСЃС‚Р°РЅР°РІР»Рё
РїРѕРЅСЂР°РІРёР»СЃСЏ
РЎС‚Р°СЂ
РђРјРµСЂРёРєР°РЅ
1993
one
РёРјРµСЏ
##sa
РЅР°Р·РІР°Р»
РЅРµСЃСѓ
San
##Р°РєР°
##С‰РµРЅРёРµРј
not
but
its
РїСЂРѕС‰РµРЅРёСЏ
##РјРµС‚СЊ
РРіСЂР°
ir
who
Р»РѕРіРёС‡РЅРѕ
РґРЅРµРј
York
##Р·Р°Рє
##С‡РµСЃРєРѕРјСѓ
her
("
##СЃСЃРЅРѕ
ang
##РёРЅРіР°
СЃР°Р»Р°
over
##РІР°СЋС‰РёРµ
ser
С‚СЂРµРІРѕ
##С‘Рє
СѓСЃС‚Р°РЅРѕРІРё
Р¶РµРЅРѕР№
1942
РѕСЂРіР°РЅРѕРІ
##mi
Р·Р°С…РІР°С‚
СЃРєР°Р¶Рё
Р‘РµР»РѕСЂСѓСЃ
СЃРѕС‡РµС‚Р°
РїРѕРІРµРґРµРЅРёСЏ
##ki
РѕС„РёС†
Р¶РёРґРєРѕ
Р—РЅР°СЋ
РџРѕРїСЂРѕР±Сѓ
##РІР°РЅРЅС‹С…
РІРµС‡РЅРѕ
РјРёРє
po
РЎС‚РѕРёС‚
History
РїР»Рё
РїРѕР»СЋ
СЃРїСЂР°РІР»СЏ
РњР°СЂСЃ
Р±Р°РєС‚РµСЂРё
СЃРѕР·РґР°РЅ
UK
1989
С‡Р»РµРЅРѕРІ
РїСЂРµРґРїРѕР»РѕР¶РёС‚СЊ
РїСЂРѕРґРѕР»Р¶Р°РµС‚
Р°РІС‚РѕРјРѕР±РёР»РµР№
have
##РІР°РєСѓ
this
Р“СЂРё
РїРµСЂРµРґР°С‡
##РјР°С‚С‹
Р’РµР»РёРєРѕР±СЂРёС‚Р°РЅРёРё
American
##ba
##СЃС‚РєРё
ed
СЃС‚РµСЃ
##Р±СѓРє
Р»СѓС‡С€РµРµ
СЌРєР·Р°
С€Р°СЂ
РЅР°РіСЂРµ
##67
РҐРј
1988
ya
##ke
two
С‡СЂРµР·
РЅР°СЃР»РµРґ
ne
##Р°СЂРµ
##РµРІРѕ
Ang
##РµР№СЃСЏ
СЃРєСЂРё
##Р¶РєРѕ
РїР°СЃСЃР°Р¶
##РіСЂР°С„РёРё
plus
РґСѓС€Сѓ
РґРµСЂРµРІРЅРё
РЅР°Р±Р»СЋРґР°С‚СЊ
РІРІРµРґ
Press
РїСЂРёРјРµСЂС‹
РєСЂРёРјРёРЅР°
under
РђРЅРґСЂРµ
РїРѕРґР°СЂ
С†РµР»РёРєРѕРј
РїСЂРѕС‚СЏР¶РµРЅРёРё
On
РґРµСЃСЏС‚РёР»РµС‚Рё
1986
СѓРіРѕР»РѕРІ
Р‘РµР»Рѕ
1987
РјР°РіРЅРё
1985
##РґРµРѕ
XVI
РїРµСЂРµРґР°РµС‚
##РїРёРє
men
РўРµР»Рµ
been
С‡РµСЂРЅРѕР№
РґРѕСЃС‚РѕРёРЅ
РїСЂРѕС„РµСЃСЃРѕСЂ
##РёРґР°
Р’РјРµСЃС‚Рѕ
РєРёС‚
1984
##ci
##РјР°С‚Рѕ
РѕС‚СЃС‚Р°РІ
41
РѕРіСЂР°РЅРёС‡Рё
РґРёРІРёР·РёРё
С‚РµСЃС‚
СЌРЅРµСЂРіРёСЏ
РјРЅРѕРіРёРј
1970
РџСѓС‚РёРЅСѓ
United
Р’РёРєС‚РѕСЂ
1960
##ve
##РѕСЃР°
СѓС‡РёР»Рё
С€С‚Р°С‚
РµРј
СЃРѕРѕС‚РІРµС‚СЃС‚РІРёРё
СЃРѕР»РЅС†Рµ
##0000
РµРїРёСЃРєРѕРї
РЁР°С‚
РіРѕСЂС‹
С…СѓРґ
С„СЂР°Рє
##С‰РёС…СЃСЏ
СЂР°Р±РѕС‚Рѕ
##me
Р”Р°Р№
##РїРµС‚Рё
Los
Michael
##oy
##den
СЃС‚Р°РЅРѕРІСЏС‚СЃСЏ
time
С‚СЂРѕР№
##za
##Р·Р°РІ
Р›РёР±Рѕ
NASA
##РІР°СЋС‰РёР№
1982
1983
РїРµСЂРµС‡РёСЃ
РђР»Рё
##РЅСЏСЋС‚СЃСЏ
РґРѕРјРѕРІ
РјРёРЅРёСЃС‚СЂР°
РєРѕСЂРѕР»РµРІ
Р’Рђ
##РјРµРЅСЏРµС‚
III
Р»С‘Рі
1981
National
Р±РѕР»РµР·РЅРё
No
##Р±СЂСЊ
РѕСЃРІРѕ
РїРѕС‚Рµ
СЃРѕР·РґР°РІР°С‚СЊ
after
РїРѕРіСЂСѓ
##adim
1975
Det
##РїРёСЃР°Р»
part
РїРѕРґРґРµСЂР¶РёРІР°С‚СЊ
Р»РѕР·Сѓ
РЅР°СЃС‚СѓРїР°
Das
Р РёРј
##СЂРёС…
1979
СЃС‚СЂРµР»РєРѕРІ
1972
come
##ya
red
##ten
##СЂРёРєРё
РїСЂРµРґСЃС‚Р°РІРёС‚РµР»СЊ
other
Na
РџР°СЂР°
РєРѕРјРјСѓРЅРёСЃС‚С‹
France
they
##РєР°С‚
РєРѕРјРїР°РЅРёР№
РєРѕС€
1978
William
СЃРїРѕСЃРѕР±РЅС‹
Р°РїРї
tot
1968
##РЅРёСЏС…
РїРµСЂРµРіРѕРІРѕСЂ
СѓРјСѓ
РРЅС‚РµСЂС„Р°РєСЃ
СЃРјРё
Р°РіРµРЅС‚СЃС‚РІРѕ
1976
##kan
##ek
into
##СЂРѕРІР°Р»СЃСЏ
РѕСЃС‚Р°Р»Р°СЃСЊ
РІС‹РґРµР»
РіРѕСЃСѓРґР°СЂСЃС‚РІРµРЅРЅРѕРіРѕ
Pr
РіСЂСѓР·РѕРІРё
РєРѕР»РёС‡РµСЃС‚РІРµ
##ung
СЂРѕРєСѓ
РґР»
06
##РґРѕСЂР°
##С–РІ
1977
1974
1973
May
РєР»Р°Рґ
Р°Р»СЊР±РѕРјР°
РїРѕР»РёС†РёСЏ
РїСЂРѕРіСЂР°РјРј
РјРµРЅСЏРµС‚
РїРѕСЂРѕР№
1971
org
Mer
August
Р’С‡РµСЂР°
##ium
РЈРљ
##oh
РІРѕСЃС…Рё
up
РєСЂРµСЃС‚СЊСЏРЅ
РїРѕС‡Рё
РѕС‚Р»РёС‡РёРё
СЂСѓРєРѕРІРѕРґСЃС‚РІРѕРј
СЃРјРѕР¶РµРј
This
##СЂС‹Р·
Р РѕРј
РћСЃС‚
new
##РїС‚
РєР°СЂС‚Р°
СЂСѓСЃСЃРєРѕР№
РїСЂРёРґРµС‚
##ny
##РїСѓРіР°
##ho
СѓРєР°
##af
##ju
##СЂРµС‚Р°
##РІРµР№С†Р°
1969
РєР»РёРµРЅС‚
СѓР¶Р°СЃРЅРѕ
РїСЂРѕРґР°Р¶
Р·Р°РјРµРЅ
СЃРІСЏС‚
##РґСЂ
International
Paul
City
##lar
##ji
##РёРІР°СЋС‚
РїСЂРѕРІРµСЂРєРё
РґР°РЅРЅРѕРіРѕ
##РґРёРє
СЃРѕРѕР±С‰РµРЅРёСЏ
##РµРґРёРЅРµ
СЏРІ
##29
РїРѕСЃР»РµРґРЅРµР№
С‚РµСЂСЂРёС‚РѕСЂРёСЋ
##РіРЅРѕСЃС‚Рё
##РІРёР»СЃСЏ
att
##РІС‘Р»
СЃСѓРїСЂСѓ
##Р»РµРЅРЅРѕРіРѕ
РЇРЅ
##РІР°СЋС‰РёС…
ce
sin
Im
##go
more
СЃСЂРѕС‡РЅРѕ
1967
##sp
РѕС‚СЂС‹
РІРµСЂС‚РёРєР°
David
РёР·РЅР°
##ts
##СЂР°Р№
##СЋРє
СЌРєРѕРЅРѕРјРёРєР°
РјР°СЃСЃ
1950
##co
TV
04
##ler
##СЃС‚С‹С…
man
РїСЂРёРєР»СЋ
Р°СЂРµСЃС‚Рѕ
Robert
РЎРјРµ
СѓРµР·
РљРѕСЃ
ma
РїР»РµРІР°С‚СЊ
##С‡РёР»Р°
##eman
1962
London
РІРёР·
РµРґРёРЅСЃС‚РІРµРЅРЅР°СЏ
С…СЂРµ
she
С‚СѓР°Р»РµС‚
РљР»
С…РѕСЂРѕС€РёРј
РїСЂРёРґСѓРјР°С‚СЊ
Р”Р¶Р°
1965
ad
when
С„СѓРЅРґР°
РґРёРµС‚Р°
РїСЂРѕРІРёРЅС†РёРё
.:
С†РµСЂРєРѕРІСЊ
Р°СЂС‚РёР»Р»
##СЂРёР»Р°
Р°РјРµСЂРёРєР°РЅС†РµРІ
СЂР°Р±РѕС‚РѕР№
РєР°СЂС‚РёРЅРєРµ
РїРѕРїСЂР°РІ
##ku
cu
Р Р°Р±РѕС‚Р°
1964
1966
РђС‚
States
РљРёС‚Р°Рµ
##РґРѕРІРѕР№
Р“СЂСѓР·
РєРёСЂРїРё
СЂРµР»РёРіРёРё
NGC
1930
РљР»Рё
РљР°Р¶РµС‚СЃСЏ
##СЂРёСЃС‚РёР°РЅ
##ze
##РҐРћ
С‚РёС‚СѓР»
##С‘СЂР°
РІС‹СЃРѕРєРѕР№
1961
РљРµР№
##СЂРѕРЅРё
07
Р±РѕР»РµР·РЅСЊ
РљСЌ
##ink
As
##СЃСѓР»СЊС‚Р°
СЃРµРЅС‚СЏР±СЂРµ
РІР»РёСЏРЅРёРµ
РёРјРµРµС‚Рµ
РїСЂРёС‚
1940
РёРЅС‚РµСЂРµСЃРЅС‹Рµ
Р°СЂРјРёСЋ
##ns
СЃРїРµС†РёР°Р»РёСЃС‚
only
РР·РІРµСЃС‚
1939
Р»СЋР±С‹С…
sly
##РµРЅС‚РѕРј
СЃС‚Р°С‚СѓСЃ
James
РєРѕРјРёС‚
##РїРєРµ
СѓРІРµСЂРµРЅР°
1963
##СЃР°С‚СЊ
РїСЂРѕРєР»СЏ
03
СЃС‚СЂР°РЅРѕР№
РїС‹С‚Р°С‚СЊСЃСЏ
Р±Р°Р·Рµ
me
##С€РёРІР°С‚СЊ
Р·Р°РіРѕРІРѕ
РїСЂР°РІРёР»Р°Рј
Er
РјР°СЂС‚Рµ
РїСЂРѕРґР°Р¶Рё
РљР°С‚
РѕС‚СЃСѓС‚СЃС‚РІРёСЏ
Р°РјРµСЂРё
##С‡РЅР°
РєР°Р¶РґС‹Рј
##С€РѕРє
year
РїСЂРѕСЃС‚СЂР°РЅСЃС‚РІРµ
РЅРµРёР·Р±Рµ
##ban
##СѓСЏ
##СЃРёРЅ
РїРµСЃРЅРё
pa
##С„РёРЅ
##2m
РЎРїРѕ
РѕРїСѓР±Р»РёРєРѕ
РќР°Р·
Р•СЃС‚РµСЃС‚РІРµРЅРЅРѕ
##РєР°РЅР°
РѕР±СЃС‚РѕСЏС‚РµР»СЊСЃС‚РІР°
СЃРІРµРґ
##Р•Рњ
Р’РµР»РёРєРѕ
##rs
can
РјР°РЅ
СЃРёР»РѕР№
1958
Р”Р¶РµРє
СЃСѓС‰РµСЃС‚РІРѕРІР°РЅРёРµ
out
Р»СЋР±РѕРјСѓ
РґР°С‚
РјРёС‚
##РјРѕСЂР°
George
Р±Р°СЃСЃРµР№
him
Р±Р°РЅРєРѕРІ
РСЃС‚РѕСЂРёСЏ
##44
С…РёРј
РєРѕРјРїСЊСЋС‚
РѕРіСЂРѕРјРЅС‹Р№
##ond
##РґРёСЃС‚
РІС‹РєРё
##Р·Р°РґРё
СЃРєРµ
##ren
РіСЂСѓРїРїРµ
РёРјС…Рѕ
##sta
СЃС‚РѕСЂ
РџСЂРёС‡С‘Рј
1956
##rt
РїСЂРёРЅС†РёРїРёР°Р»СЊРЅРѕ
about
Peter
1959
##СЏР»Р°
РґРµРєР°Р±СЂРµ
02
СЂРѕР»РёРє
##РёРјРѕСЃС‚СЊ
С…СЂР°РЅ
##СЂС‘С…
##РІР°РЅРЅС‹Р№
РІС‹С€Р»Рё
РјР°Рµ
##tu
most
РѕРєРЅРѕ
РІС…РѕРґР°
Р•РґРёРЅСѓСЋ
РњРёРЅРёСЃС‚РµСЂ
РїСЂРѕС‚РµСЃС‚
СЃРєСЂРµ
Р”Рћ
РІРµРґСѓС‚
Р”СЂР°
##РјСЃ
РјР°РіРё
1948
РљРµ
РїРµСЂРµРЅ
Р’Рљ
РёР·РґРµР»Рё
РїРѕР»РєР°
##РіСЂР°РґР°
СЃРѕРІРµС‚СЃРєРёР№
Earth
СЂСѓСЃСЃРєРёРј
СѓС‡СЂРµ
1920
РѕСЃР°
РїРµРІ
РСЂР°
made
Р·Р°РЅСЏР»
##СЃС‚РІРёС‚РµР»СЊРЅРѕ
РњР
СѓСЃР»СѓРіРё
РѕР±Р»Рё
СѓРєСЂР°Рё
1957
РІРµР»РёРє
РєРѕРјРїР°РЅРёСЋ
Р»РµС‚Р°С‚СЊ
РґРѕС…РѕРґ
##РґСЂР°РІР»СЏСЋ
1954
##mo
РјРёР»Р»РёР°СЂРґ
09
##РµРєС‚Рѕ
##wa
СЃРєР»Рѕ
СЃРѕРѕР±С‰РµРЅРёРµ
РїРµСЂРµРґР°С‚СЊ
СЃС‚РёС…
РІРµСЂСЃРёСЋ
##ica
##be
Se
СЏРЅРІР°СЂРµ
РјСѓР·С‹РєСѓ
##Р·РёС‚РµР»СЊРЅРѕ
РїРёРІР°
##РѕР»Р°
РєРѕРЅС‚СЂРѕР»СЏ
08
СЃСѓС‰РµСЃС‚РІРѕРІР°РЅРёСЏ
##С‘РЅРЅРѕРіРѕ
РїРѕРјРѕРі
South
ta
РџРѕС‡С‚Рё
РћРћ
##С…РѕРґРёРј
USA
##РґРµС‚СЃСЏ
1946
С‚РѕРїРѕ
You
СѓС‚Рµ
##ina
##Р±РѕРІР°Р»Рё
РїРµСЂРµРіРѕРІРѕ
СѓРІРµ
1955
РјРЅРѕРіРѕСЂР°Р·Рѕ
РС‚Р°Р»РёРё
League
РІРёРґРѕРІ
С€РєРѕР»СЊ
РѕРєРѕРЅС‡Р°РЅРёСЏ
С‚РµР°С‚СЂ
РіРµРЅРё
##land
##Р±Р»РѕРєРё
1938
Р•РґР Рѕ
than
nu
РџР’Рћ
1953
##РїРѕРјРЅСЋ
##РєС‚РѕСЂРѕРІ
С‡РёС‚Р°Р№С‚Рµ
Р Рџ
РіРёРїРµСЂ
РєР°СЂС‚РёРЅР°
IV
1949
РїСЂРѕРіСЂР°РјРјРµ
1918
СЂР°Р·РЅС‹РјРё
РіР°СЂР°
1952
All
РІС‹РґРµР»СЏ
РіР»Р°РІРЅС‹Рј
State
##lan
РЅРµРёР·РІРµСЃС‚РЅРѕ
СЃРјРµР»Рѕ
##РЅС–
РІР°РіРѕ
РїРѕРЅСЏС‚
club
РЎРњ
1947
РѕР±СЃ
РјРѕС€РµРЅ
Р¤Сѓ
Р’Р°РјРё
##СЂР°Р±РѕС‚Р°
85
June
team
Az
1936
СЃСЉРµР·
##РїРёСЏ
РїРѕРЅРё
РѕС‚РґРµР»Р°
##ead
##ner
Р“РѕСЂРѕРґ
РґРѕРіР°РґР°
СЃС‚РµРєР»Рѕ
СѓРµР·РґР°
##СЏСЂ
ca
Р·РЅР°РЅРёР№
Р±Р»СЏС‚СЊ
РЅРѕР»СЊ
Р°РєРєР°
sly2m
РєР°СЂС‚Рµ
РіРѕРЅ
РїСЂР°РєС‚РёРєР°
March
ap
С‚С‘
Р·Р°РјР°
РЅР°РІ
She
РЎС‡РёС‚Р°
РРІР°РЅ
some
##ada
С†РёРІРёР»РёР·РѕРІР°
there
С‚СѓСЂРЅРё
РІСЂР°С‡РµР№
##РІСЂРµРјСЏ
РїРѕРёСЃРє
British
pe
СЂР°СЃСЃРєР°Р¶РёС‚Рµ
ke
West
Р“Р”
Р·РґР°РЅРёСЏ
##РЅРѕР·
РїРѕРјРµРЅСЏС‚СЊ
РџРѕСЂРѕ
co
Р»РёС‡РЅРѕСЃС‚СЊ
РїРѕРІРѕСЂРѕС‚
1937
РЅР°РіСЂР°Рґ
РџРѕРјРЅСЋ
РїРѕР»РёС‚РёРєРµ
РѕРєС‚СЏР±СЂРµ
any
РјРёР»Р»РёР°СЂРґР°
РґР°РґСѓС‚
##РІС€РµРµ
РѕР±С‰РёР№
##С†РµРЅС‚СЂР°
РќРѕРІС‹Р№
РІСЃРєРѕСЂРµ
РЅР°Р·С‹РІР°РµРј
РљР°СЂР°
РѕРіСЂР°РЅРёС‡РµРЅРёСЏ
##que
РЎР°РјР°
РІРїРѕСЃР»РµРґСЃС‚РІРёРё
place
##С…Р°РЅ
РЎРёРј
РІРґРѕС…
РёРјРїРµСЂРёРё
Р»РµРєР°СЂСЃС‚РІР°
РђРє
СЃРѕР·РЅР°РЅРёСЏ
1951
РѕСЂРіР°РЅС‹
pod
##ble
РќРµРјРЅРѕРіРѕ
СЃРѕРѕР±С‰Р°РµС‚СЃСЏ
СѓСЃР»С‹С€Р°С‚СЊ
cm
РџРѕР·РІРѕ
РёРЅС‚РµСЂРµСЃРЅР°СЏ
СЃС‚СЂР°С…
С„РёР»РѕСЃРѕС„
October
Р°РЅРіР»РёР№СЃРєРёР№
РџРѕСЃР»РµРґ
РЅР°С…РѕРґРёР»СЃСЏ
РґРµСЂСЊРјРѕ
СЃР»СѓР¶Р±Сѓ
##СЃРёСЃС‚
СЂРµСЃРїСѓР±Р»РёРєРё
General
РІС‹СЃР°
through
РјРѕСЃС‚
СЃРѕР±РёСЂР°С‚СЊ
North
##РїСЂС‹
РїРѕР»Р°РіР°СЋ
РїСЂРµСЃ
С‚РµСЂСЂРёС‚РѕСЂРё
РєРѕРјРёС‚РµС‚Р°
##ll
РєСЂР°СЏ
##ea
##res
Martin
СЂР°СЃРїРё
Р’Р°СЂ
);
Park
РїСЂРµРґСЃС‚Р°РІРёС‚РµР»Рё
РїРѕРЅРёРјР°РЅРёСЏ
СЃР»РѕРІРЅРѕ
Р Р°Рґ
##vo
Р·Р°Р±С‹С‚СЊ
##son
1933
Love
РќРѕСЂ
СЂР°Р·РЅРёС†Сѓ
РљРЅРё
РѕР±СЉРµРєС‚РёРІ
##вЂ“вЂ“вЂ“вЂ“вЂ“вЂ“вЂ“вЂ“
СЋС‚Сѓ
Po
СЃРѕР±СЃС‚РІРµРЅРЅРѕРіРѕ
РїРѕРєР°Р·Р°Р»РѕСЃСЊ
С‡РёС‚Р°Р»Рё
СЃС‚СЂСѓ
РџРѕР»СѓС‡Р°РµС‚СЃСЏ
РѕР±СЂР°Р·Сѓ
СЂРµР°РєС†РёРё
##ck
tra
РїСЂРёРІРµРґ
##С‚Р°РЅРёСЏ
179
##les
##ning
РґРёРїР»РѕРј
1935
##ado
РїР»Р°С‚Рµ
Р“РµРѕСЂ
Р–РёСЂРёРє
Or
War
РѕС‚Р»РёС‡Р°СЋС‚СЃСЏ
РЅР°РїСЂСЏРјСѓСЋ
##gen
РљРёРµ
##zi
1934
##Р»СЊСЋ
РђР»РµРєСЃР°РЅРґСЂР°
1919
Р±СѓР»СЊ
С‡РµР»РѕРІРµС‡РµСЃС‚РІРѕ
Em
РІСЃРµСЂ
Р”РўРџ
С‚СЂРѕР»
Р“РµСЂРјР°РЅРёСЏ
##РІР°РЅРѕ
64
СѓСЃС‚СЂРѕР№СЃС‚РІР°
##nie
##ista
СЃР»РµРІР°
РЅР°РїСЂР°РІР»РµРЅРёСЏ
After
С‡СѓРґРµСЃ
С‚СЂР°РµРєС‚Рѕ
С€РµСЃС‚Рё
##off
1914
РўР°РєР°СЏ
РєРѕРјР°РЅРґСѓ
pp
##vi
Р±Р°Р·Рѕ
##СЃС‚РЅРѕРіРѕ
##РјРµРЅРёР»Рё
Р РѕСЃС‚
##С‘РЅРЅРѕР№
Club
Music
РїР»РѕС…РёРµ
Grand
Р°РІРіСѓСЃС‚Рµ
##РіРѕСЂРёС‚
Fal
СЂР°Р±РѕС‚Р°Р»Р°
name
РµРІСЂРµРµРІ
РєСЂР°СЃРЅРѕ
РґРІР°РґС†Р°С‚СЊ
РІРёРґРѕРј
РЅР°РіР»СЏ
РѕСЂРі
РќРёРєРѕР»Р°Р№
РїСЂРµРґР»Р°РіР°РµС‚
1932
##ero
С…СЂСѓ
1929
will
РјРµС‚РѕРґС‹
##Р¶РёР»Рё
One
##СЃРєР°С‚СЊ
bi
Man
1928
them
##РґРёРµ
##СЏРі
##berg
РџРѕСЃРєРѕР»СЊРєСѓ
СЏРє
СЌС‚Р°РїРµ
Р»РµСЃР°
Р–Р–
##РєРѕР»СЊРєРѕ
##pe
world
ab
##РјС‹РјРё
##pa
СЂРµРґР°
##Р»Р»РµСЂ
##СЃС‚РІРµРЅРЅС‹РјРё
СЃРѕР·РґР°РЅРёРµ
РІРїР»РѕС‚СЊ
РґСЂР°Рј
series
##Р¶СѓСЃСЊ
1917
Р·Р°Р±СЂР°С‚СЊ
Р¶РёР·РЅ
РѕС‚РїСЂР°РІРёС‚СЊ
##РµРІСЃРєРѕРіРѕ
Р°РіРµРЅ
СЃРѕР±РѕСЂ
##С‚РµСЂРѕРј
single
РџРѕСЂС‚
РџРёС‚РµСЂРµ
СЂР°СЃС…РѕРґС‹
С‡РµС‚РєРѕ
Р°РЅР°Р»РѕРі
С…Р°СЂ
1931
РїСЂРёРґСѓРјР°Р»
РЎСЃС‹
РґРµСЃСЏС‚РєРѕРІ
may
##sk
РєРѕР»Р»РµРєС‚Рё
РїРµРґ
РєРѕРїРµР№РєРё
##((
school
РІРµРґРѕРј
1080
РСЃС‚РѕС‡РЅРёРє
Art
##РµРЅРЅРѕРјСѓ
For
РІРµСЂРѕ
##ski
РїРѕС‚РµСЂСЏР»
Р·РІСѓРє
РЎРІРµС‚
Р±Р°Р·С‹
via
nom
РґРёР°РјРµС‚
РџРѕРґРѕР¶
##С€РµРЅР°
РѕС‚РєСЂС‹С‚Рѕ
РїРѕР»РєРѕРІ
47
Р¶РµСЂС‚РІ
РџС‹
1924
С‡РµРјРїРё
##men
РІС‹СЏ
РєР°Р±
##С‘Р¶
РјРµС…Р°РЅРёР·Рј
РїСЂРёР№С‚Рё
work
РРЅРґ
people
us
РїСЂРµРґР»Р°РіР°СЋ
СЃРјРѕС‚СЂСЏС‚
РѕС‚РѕСЂ
РїСЂРµРёРјСѓС‰РµСЃС‚РІ
gran
Р–РµРЅ
РјР°С‚РµСЂРёР°Р»Р°
##Р±РµР·
РїСЂРµРґСЃС‚Р°РІРёС‚РµР»РµР№
##С‚РёРєРµ
##Р•РЎ
СЃР»С‹С€Сѓ
America
СЂРµСЃСѓСЂСЃ
1927
Р”РѕРј
РѕР±С‹С‡РЅС‹С…
##СЃС‚РєР°
##ger
РєР°С‚РµРіРѕСЂРё
##СЂРµСЃС‚
РЅСѓР»Рµ
СЃРєСѓС‡РЅРѕ
РІС‹СЃС‚СѓРїР°Р»
СЂРµС„РѕСЂРј
РћР»РёРјРїРёР№СЃРєРёС…
РєР°СЂС‚РёРЅС‹
РєРѕСЃРјРёС‡РµСЃРєРѕР№
СЃР°Р№С‚Р°
Union
СЃС‚РѕР№
##Р·СЂРµ
##du
1922
Р»Р°РјРїРѕ
1925
С‚РµР°С‚СЂР°
##ura
1921
РІР·СЂРѕ
РџР°Р»
To
##СЂСЏС‚СЊ
Р·СѓР±С‹
1926
Р°РїСЂРµР»Рµ
Van
Р“РѕСЃРґСѓ
Р±Р°С‚Р°СЂРµР№
##ii
РЅР°СЃС‚РѕСЏС‰РµРјСѓ
СЃС‚Р°РЅСѓС‚
СЃРїРµС†РёР°Р»РёСЃС‚РѕРІ
РїСЃРµРІРґРѕ
СЂР°РґРёР°
РґРѕР»Р¶РЅРѕСЃС‚Рё
##Р°СЃР°
##РІР°Рё
history
РїР°СЂР»Р°РјРµРЅС‚
РџРµСЂРµРґ
РїСЂРёРЅСЏР»Рё
СЃСѓРєР°
РѕС‚СЂСЏРґ
РґРµРЅ
##РѕРЅСѓ
##СЃРёР»Рѕ
РєР°РјРµСЂСѓ
##nes
Р»РµСЃС‚
Р°С‚РµРё
bu
Am
Р РЎ
РЅРѕСЏР±СЂРµ
С‚Р°РєРѕРјСѓ
РљРѕРґ
РЎРїСЂР°РІРµРґР»Рё
С„РѕСЂРјСѓР»Рё
1912
##ome
Р»СѓС‡С€РёРµ
Р­Рє
РїР°Рґ
System
РїСЂРёСЂРѕРґС‹
##РЅСЊС‚Рµ
King
##21
РќРµСЃРјРѕС‚СЂСЏ
РґРІРёРіР°С‚РµР»РµР№
Р°РІР°СЂРёР№
hi
1923
://
РІРѕР·СЊРјРё
51
52
##РІС€РёРјРё
##tt
46
##_p
##by
Old
РІРµР»
##Р±Р»Р°РіРѕ
РњРѕСЃРєРѕРІСЃРєРѕР№
РїРѕРґСЂР°Р·РґРµР»
##РіРёРї
СЂС‹Р±
СЂРµРєР°
Р”Р°РІРЅРѕ
##ien
РЎСѓРґ
##ai
##Р¶РЅС‹РјРё
РµРґРёРЅРѕР№
House
РїСЂРёРЅС†РёРї
РёСЋР»Рµ
Р РµСЃРїСѓР±Р»Рё
СЃРјРѕРіР»Р°
РїСЂРµРґРІС‹Р±РѕСЂ
Р±С‹РІС€РёР№
РёСЋРЅРµ
##СЃСЃРѕРІ
Р›РµРЅРёРЅРіСЂР°Рґ
РљСЂРµ
РџСЂРёСЏС‚
##РјРїРёР°
РЅРµРЅСѓ
##РІС€РµРіРѕСЃСЏ
СЃРѕРЅ
СЃРёРјРїР°С‚Рё
СѓС‡РµРЅРё
Р¶РґСѓС‚
РѕС„РёС†Рµ
РјРЅРѕРіРѕС‡РёСЃ
С€РµСЃС‚
РїСЂРѕС‚РёРІРЅРёРєР°
1900
##Р»РѕР¶РµРЅРёР№
band
##С‡РµРІ
end
Р’РµР»РёРєРѕР±СЂРё
РіСЂР°РЅРёС†Сѓ
##Р°С‚СЂР°
Р¤Р‘
РѕС‚РјРµС‚РёС‚СЊ
СЌРЅРµСЂРіРёСЋ
РґРµРјРѕРЅСЃС‚СЂР°
49
С„РµРІСЂР°Р»Рµ
РґРµРјРѕРєСЂР°С‚
Sie
city
1910
Washington
##ach
С…СѓРґРѕР¶Рµ
Me
My
СЂР°РґРёРєР°
РµСЂСѓ
China
##С‘С‚Р°
Tour
Royal
СЂР°СЃСЃРєР°Р·С‹РІР°РµС‚
СЃРѕСЃС‚Р°РІР»СЏР»Рѕ
РґРѕСЃС‚РѕРІРµСЂ
##СѓРјС‹
СЃРґРµР»Р°СЋ
РіСЂСѓРїРїСѓ
РЅРµРєРёР№
С‡РµС‚С‹СЂС‘С…
##ert
1913
Р±СѓРјР°РіРё
##len
##Р”Р°
based
##С‚РёРєСѓ
Dr
РїСЂРёРіРѕРІРѕСЂ
li
РєР°Р¶РґР°СЏ
English
РѕР±СЂР°С‰РµРЅРёРµ
##РґРЅРёРєР°
РѕСЃРјРѕС‚
##С‚РѕСЂСѓ
РїРѕРґС‡РµСЂ
##ita
##Р­РЎ
##ies
РјР°РіР°Р·
))))
РїРѕР»РёС‚РёС‡РµСЃРєРёС…
56
РёРЅСЃС‚РёС‚СѓС‚Р°
СѓРїСЂРѕ
##ana
РЅР°РЅРѕ
##СЂР°РІРЅРё
РјРѕРјРµРЅС‚С‹
СЃС‚РµСЂ
РёСЃРєСЂРµРЅРЅРµ
##РіРЅРёС‚
РїСЂРѕРІС‘Р»
##С…РѕСЂРѕ
РЅРµРґРµР»Рµ
Red
РїСЂРµРїСЏС‚
РґРµСЂР¶Рё
РѕС‚РЅРѕСЃСЏС‚СЃСЏ
##bi
CD
РѕСЃС‚СЂРѕРІР°
Р’РёР»СЊ
IC
РїРѕСЃРµР»РµРЅРёРµ
РєРѕСЂРїСѓСЃ
##СѓСѓ
54
РєРѕР»РµРЅ
Р›РёС‚
РёР·РґР°РЅРёСЏ
РіР»Р°РІС‹
##РµРјРѕСЃС‚Рё
##РјРµС‚Р°
РїСЂРёСЃРІРѕ
game
С…СЂРµРЅСЊ
Р°Р±СЃС‚СЂР°
Р‘СѓРґСЊ
СЃСѓР±Р±Рѕ
РѕР±РѕСЂСѓРґРѕРІР°РЅРёРµ
=)
Р‘РѕР»СЊС€РёРЅСЃС‚РІРѕ
##so
Р»РёС‚РµСЂР°С‚СѓСЂ
РєРѕРјР°РЅРґРёСЂ
##ische
РґРµСЂРµРІСЏ
version
Р°РЅР°Р»РёР·
##ks
Р¦РµРЅ
##РµРЅСЃРєРѕРіРѕ
РіСЂР°Р¶РґР°РЅРёРЅ
РїРѕР±РµРґС‹
РєСѓСЂРёС‚СЊ
1915
public
С€Р»СЋ
Р°РєР°РґРµРјРёРё
СЃРїРёСЃРєРµ
СЂР°СЃСЃС‚РѕСЏРЅРёРµ
##РїРёСЃРё
СѓРЅРёРІРµСЂСЃРёС‚РµС‚Рµ
РїСЂРѕСЏРІР»СЏ
РєРѕРјРјСѓРЅРёСЃС‚РѕРІ
##Р›Р•
РїР»РѕС‚
РЅРµРјС†РµРІ
long
They
##Р·РёР°
РІРѕСЃРµРј
At
СЌРјРѕС†РёРё
Р‘С‹Р»Р°
РѕСЃС‚Р°РІРёР»
Р»РµС‡РµРЅРёРµ
Air
##au
РіРЅРё
РєРѕРґС‹
РєР°СЂСЊРµСЂСѓ
##ier
##cy
СЃР¶Рё
РїСЂРµРґСЃС‚Р°РІР»РµРЅРёСЏ
С€С‚Рѕ
##С„Р°Рє
СѓС‡РёС‚СЊ
##С€РµР»СЊ
##mu
СѓСЃРёР»
Center
РєРѕРјРјРµРЅС‚Р°СЂРёСЏ
BBC
РіРѕСЂРґРѕ
There
РґРµР№СЃС‚РІРёРµ
СЂРµРїСѓС‚Р°
##ida
РґСЋ
Р±Р°Р±СѓС€РєР°
РёРјРјСѓ
Best
РІРґРѕР»СЊ
РјСЏРіРєРѕ
РѕРј
РІР°Рє
С‚РІРѕРёС…
РёРјРїРµСЂР°
Р”Р¶РѕСЂ
1911
Company
Don
Si
РіР»Р°РІРµ
РіР°Р·РµС‚Р°
Р±РѕР»СЊРЅРёС†Рµ
##СЃРѕРІРµС‚
СЃРёРіРЅР°Р»
##ls
##Р±Р°Рј
СЃС‡Р°СЃС‚СЊРµ
Black
##С€С‘
СѓРєСЂР°РёРЅС†С‹
РР·СЂР°РёР»СЊ
РІРѕСЃС‚РѕРєРµ
РІРµС‡РµСЂР°
53
РїСЂРѕРіРѕР»РѕСЃРѕ
РїРµСЂРµРґР°С‡Рё
РїРѕР»РµС‚Р°
СЂР°СЃРєРѕ
84
РЅРµРѕР¶РёРґР°РЅРЅРѕ
Hall
Р’РёС‚
РґРѕРјРё
РёР·РІРµСЃС‚РЅС‹Р№
Europe
Р±РµР»С‹Р№
ten
Р·Р°РЅРёРјР°Р»СЃСЏ
##РєРѕРЅР°
СЃСЂР°РІРЅРёС‚СЊ
land
РїСЂРёРґСѓРјС‹
##СЃРєР°Р·Сѓ
##РєРёРЅР°
?..
##ini
РњР°СЂС‚
UTC
##han
РєСЂРµСЃС‚
go
РїСЂРёС…РѕРґСЏС‚
1916
##Р»РѕС‡РєРё
system
РѕС‚СЃРµ
wereman
Р·РЅР°РєРѕРјС‹Р№
Do
РЅРµРі
РґРµРІРѕС‡РєРё
Р—СЋРіР°РЅРѕРІР°
group
##pt
Р·РёРј
РѕСЂРіР°РЅРёР·Рј
СѓРјРё
##С„РµР№
СЃС„РѕСЂРјРё
РґРІРёРіР°С‚РµР»Рё
##С‡РѕРј
РґР°Рј
##35
Jan
РІСЂР°РЅ
РќРёР¶
Р°РЅРіР»РёР№СЃРєРѕРј
##СѓР»СЊС‚Р°
Р»РёС†РѕРј
1905
##tor
##Р±РµРє
РґРµРЅСЊРіР°РјРё
home
57
Da
1908
РґР°СЂ
##С†РёРґ
РіРѕР»РѕРґР°
##Р±СѓСЃ
58
##РЅСЏС…
fin
##ius
РјР°Р»РµРЅСЊРєРёРµ
СЂР°СЃРєР°
East
СЏР·С‹РєРѕРј
РјСѓР·Рµ
РІС‹РёРіСЂР°
СЂСѓСЃСЃРєРё
Р±СЂР°С‚Р°
Star
СЌРІР°РєСѓ
РїРѕРґС‡РёРЅ
music
##Р»РёРєС‚
post
##РЅРёС‚СЃСЏ
РЇРїРѕРЅРёРё
national
РјРѕР»С‡Р°
high
set
Island
С…РІР°С‚Р°Р»Рѕ
like
РЎР»РµРґ
РІР·Р°РёРј
1907
Р»СЋР±РёС‚СЊ
##ux
mas
РЅРµС„С‚Рё
now
ra
РєРѕРЅС†РµСЂС‚
С†РµР»РµР№
РјРѕР»РµРєСѓ
##lik
##Р¶РЅРµР№
##idae
СЃРµСЂРІРёСЃ
59
РІРѕР·РіР»Р°
##РµСЃР°
##С‰Р°Р»Рё
РіРµСЂРѕРµРІ
РІС‹РґРµСЂ
##СЂРµРЅРµ
##С€Р»РѕСЃСЊ
РіР°Р»
РїСЂРµРѕРґРѕ
##iu
СѓС‰РµСЂР±
РЅР°Р±Р»СЋРґРµРЅРёСЏ
##ker
Р±Р°С‚Р°Р»СЊ
РґРѕСЃС‚Р°РІ
РѕР±С‹С‡РЅРѕР№
С‚РµС‡РµРЅРёРё
СЃС…РІР°
##Р»РµС‚РµР»
РЅР°РіСЂСѓР·РєРё
СЂСЏРґР°
РЎС‚Рµ
##РіР»СЏРґС‹
Japan
СѓРјРЅС‹Р№
РіРѕСЂРѕРґСЃРєРѕРіРѕ
СЃСЂРµРґРЅРµР№
kg
РЎРµРЅ
show
off
СѓРІРёРґРµР»Рё
Р±РёС‚СЊ
РїСЂРµРјРёРё
РІРёС†Рµ
##РЅРёСЏРјРё
РўРёРј
##РєР°СЋС‚
Р±РѕСЂС‚
РЎР 
##ua
##chen
РїР»Р°РІ
##ico
##РЅСЏРє
##С‚РёР»Р°СЃСЊ
С€СѓРј
СЃС‚Р°РЅС†РёСЏ
Bu
С„РѕРЅР°
##ice
Open
Р›РµРІ
##kk
major
РїРѕРґС‡Рё
СЋР·РµСЂ
##С†РєРёР№
,-
РѕСЃРЅРѕРІРЅР°СЏ
Band
Journal
РїС‚
##СЂРёР»СЃСЏ
1906
РїРѕСЃРѕРІРµС‚Рѕ
РґРµС„РёС†Рё
##РІСЏР·С‹РІР°
Od
РРЅСЃС‚РёС‚СѓС‚
art
1904
day
РїРѕСЃС‹Р»Р°
РЅР°Р»Р°
РїРѕРїСЂРѕСЃРёР»
1909
##ling
2019
РїСЂРёРіРѕС‚Рѕ
Р»Р°С‚
РїСЂРёРЅР°РґР»РµР¶РёС‚
РґРµРјРѕРЅСЃС‚СЂРё
we
Р°Р±Рѕ
Р±СЂРµРЅ
РїРµСЂРµС€С‘Р»
С‡РµР»
High
РЅР°СЃС‚
РёСЃРєРѕ
СѓРїР°Р»
Р·РґР°РЅРёРµ
СЃРёРЅРі
Street
РџРѕСЃС‚
##con
РёС‚РѕРіР°Рј
РєСѓР±
РїРµСЂРµРѕ
РёРЅРІРµСЃС‚
СѓС‚РІРµСЂР¶РґРµРЅРёРµ
##РґРѕРЅР°
РІРµСЂС‚Рѕ
##gan
СЃРїРѕСЂС‚СЃ
РР»СЊ
РёСЃС‚СЂРµ
РїРѕР»РёС†РёСЋ
РіР°Р·РµС‚С‹
##РµРЅСЊСЋ
##РµРјРѕРј
РёСЃРєСѓСЃСЃС‚РІР°
##С‚РЅС‹РјРё
Per
С‚Р°РЅРєРѕРІ
РїРѕС…РѕР¶Рё
##zen
Р±Р»РѕРі
Division
net
##Р°РєРё
##ui
##СЃС‚РёС‡РµСЃРєРѕР№
СѓСЃС‚РѕР№
Р–РёР·
Р·Р°РїСЂРµС‚РёС‚СЊ
РїРѕРіРёР±Р»Рё
Р’РѕР»СЊ
Mark
##ei
РџРѕРґРѕ
Time
Land
##СЂРЅРѕРіРѕ
##С„С‚Р°
Nord
##Р»РёР»СЃСЏ
Р±РѕР»Рѕ
СЂР°СЃСЃРєР°Р·С‹РІР°Р»
СЃРїРѕСЃРѕР±РЅРѕСЃС‚СЊ
##С‡РёРЅС‹
Р±РѕРјР±
СЌР»Рµ
РїРёСЃСЊРјР°
##rio
back
##era
РґСѓС…Рµ
РґРІРёРіР°С‚СЊСЃСЏ
РіРѕРјРµ
##С‡РµСЂРµ
Times
##С‰Р°СЋ
##СЃС‚Р°РЅС†РёРё
##rd
РіРёРіР°РЅС‚
##СЂРµРЅРё
German
##nik
СЃРѕРІРµС‚СЃРєРёРµ
Р·РґР°
РўРѕР»
РґРµРІСѓС€РєСѓ
##РґРµРЅР°
Р»РёС‡РЅРѕРіРѕ
Is
РћР‘
Р·РІР°РЅРёРµ
##Р»РёРєРѕРІ
##СЃРµС‚
##74
РЅРѕСЂРјР°Р»СЊРЅС‹С…
РёР·РґР°РЅРёРµ
Р“Р°Р»
##СЃС‚РёРє
##sch
РЅРµР№С‚СЂР°
РїСЂРѕР·
РѕРїСѓР±Р»РёРєРѕРІР°РЅ
##http
##С‡РµР»
С…РѕРґРёР»Рё
С‡РµСЂРЅРѕ
РЎР°Р»
РѕРІ
Group
С‚РµР»РµРІРёР·РѕСЂ
РҐРІР°
СЂСѓРіР°
СЃРѕС…СЂР°РЅРёС‚СЊ
РїРёС‚
РњСѓР¶
##ene
РЅР°СЂРѕРґРѕРІ
Alexander
С‡РµРјРїРёРѕРЅР°С‚
Live
62
С‚РµСЂРјРёРЅ
##СЂРѕРІР°РЅРёРё
##СѓРєР°
РѕС‚РјРµС‡Р°РµС‚
РІСЂР°РіРѕРІ
Р’РµСЂС…РѕРІРЅРѕРіРѕ
Р¶РёРІС‘С‚
88
СЃРµР»СЊСЃРѕРІРµС‚Р°
РёСЃСЃР»РµРґРѕРІР°РЅРёР№
Р”РµРј
video
Р»РµР№С‚РµРЅ
РїСЂРёСЃС‚Р°
РђР»РµРєСЃР°РЅРґСЂРѕРІ
mot
Radio
СЂР°СЃС‚РµС‚
РјРµСЂС‹
Р»Р°Рі
Os
##Р»СЏСЋ
РћСЃРЅРѕ
##lor
РІРµС‡РµСЂРёРЅ
С‡РµСЂРЅС‹Р№
РґРЅРµ
##С…Р°Рј
##С‚РёРІРЅРѕРіРѕ
##zo
РёСЃРїРѕР»СЊР·РѕРІР°Р»
Р±Р°РЅРґРё
##СЂР°Р±РѕС‚Р°С‚СЊ
РњРёСЂ
РќРµСЃРєРѕР»СЊРєРѕ
РџСЂРµРґСЃС‚Р°РІ
life
РїСЂРѕР±Рё
##ley
РњР’Р”
##СЃС‚Р°РІСЊС‚Рµ
РѕСЃС‚Р°С‘С‚СЃСЏ
РѕРїРїРѕР·РёС†РёРё
##ft
##РІС€РµР№СЃСЏ
СЂРµР·РµСЂ
СѓС€Р»Рё
РєРѕСЂРѕР»СЏ
##РµРІС‹С…
РіР»Р°РІРЅРѕРіРѕ
line
Р‘РѕСЂРёСЃ
РєРІР°Р»Рё
72
meg
РіСЂСѓР±Рѕ
РѕРїР°СЃРЅРѕСЃС‚Рё
РґСѓСЂР°Рє
##ris
main
fr
First
##РІРЅСѓСЋ
##kin
##РµРІСЃРєРёР№
mi
Р§РµСЃС‚РЅРѕ
СЃРїРµРєС‚
СЃРїРµС†РёС„Рё
White
Р»РёРЅРµР№
СЃС‹РіСЂР°Р»
РІС‹С‚Р°С‰Рё
Team
##Р¶РµСЃ
Р›СЊ
РїСЂРѕС€Р»Р°
РџРµС‚СЂРѕРІ
РїСЂРѕРїСѓСЃРєР°
##dan
Science
СЃРѕР·РґР°Р»
:))
##РїСЊ
РїСЂРµРґРµР»
РїРѕР·РґРЅРµРµ
left
РєРѕСЃРјРѕСЃР°
##РњРЎ
##РѕСЂРё
##РІР°Р№С‚РµСЃСЊ
Rock
Data
Op
Р‘СѓРґ
СЃР°РјРѕР»РµС‚Р°
СѓР±РёС‚
Р›РµРѕРЅ
РїРёР»
Р±С‹РІС€РµРіРѕ
##С†С–
Р¤РёР»Рё
РЎРѕРѕС‚РІРµС‚
С€РµСЂ
РёСЃРїРѕР»РЅСЏ
did
Р±РµРґР°
СЃРјРѕС‚СЂРё
1903
:вЂ“
##bu
РЅР°Р»РѕРі
##ile
82
РџР°СЂРёР¶
РїРµРЅСЃРёСЋ
С†РµР»Рµ
СЃС‚Р°РІСЏС‚
РјРёРЅРёСЃС‚РµСЂ
##Р”Рћ
СѓРїСЂР°РІР»РµРЅРёРµ
form
РІРѕРІСЂРµРјСЏ
РњРёРЅРё
Р·Р°СЃС‚Р°РІР»СЏРµС‚
Р·Р°Р±СЂРѕ
СЌРєРёРїР°Р¶
Р›Р°С‚
Р¤Р°Рє
Р·Р°РїРёСЃС‹
Р°РЅРіР»РёС‡Р°
СЂРµРї
РґРµРјРѕРєСЂР°С‚РёРё
СЂР°РєРµС‚Сѓ
##С…РѕРґРёС‚СЃСЏ
##С‚СЏР±СЂРµ
С‰Р°СЃ
Р±РµСЃРїРѕРєРѕ
РїРѕР»РѕРІРёРЅС‹
Р›РёРІ
СѓСЃС‚СѓРї
СЃС„РµСЂРµ
720
РІС‹РёРіСЂС‹
fa
##Р»РµРЅРЅРѕРµ
СЃСѓС‰РµСЃС‚РІРµРЅРЅРѕ
##С…Р°РјРё
66
СѓС€Р»Р°
##СЂРѕРІСѓСЋ
##СЃС‚РёРЅ
News
РєРѕР»С…Рѕ
##РёРЅРѕРј
From
##ale
86
Carl
С‚Р°РјРѕ
РёРЅС‚РµСЂРµСЃРѕ
СѓС€
РІР»Рё
РёРЅСЃС‚СЂСѓРјРµРЅС‚
РСЃРїР°РЅРёРё
С‚Р°С‰Рё
РіР»Р°РІРЅР°СЏ
СѓС‡Р°СЃС‚РѕРє
##РµСЂР°РјРё
РїРѕСЃРµС‚
СЃРµСЂРёР№
РєР°СЂРјСѓ
##РІРёРє
РђСЂС‚
РџРѕС‚
When
РѕР±СЉСЏСЃРЅСЏС‚СЊ
РїРѕСЃРё
СЃС‡РёС‚Р°Р»
СЃРѕР±РёСЂР°СЋС‚СЃСЏ
##РјРёСЂ
##burg
rock
side
РІРёРЅРѕРІР°С‚С‹
СЌРєСЂР°РЅ
play
РѕРїРёСЃР°РЅРёРµ
1901
63
Р‘РµР»Р°СЂСѓ
РѕРїСЂРµРґРµР»РµРЅРёРµ
##СЃС‚СЂРµР»
**
СЂРµРїСЂРµ
VI
РџР°СЂРё
col
РїРѕРґРѕР№
РњРёР»
РіРёРј
СЂРµРєР»Р°Рј
Р»РµС‚РЅРёР№
РЅР°СѓРєРµ
Su
##РєРѕР»СЊ
СЂР°Р·РЅРѕРјСѓ
СЃР»РѕР¶РЅРѕСЃС‚Рё
Tom
РјРѕС‘Рј
if
РµР·РґРёР»
РћС‡РµРІРёРґРЅРѕ
Р­Рј
##СЂРѕРІР°РЅРЅРѕРіРѕ
РћРЎ
РџРµСЂРІР°СЏ
##С‚РѕРІС‹Р№
Atlas
РљРёС‚Р°СЏ
РЅРѕРіР°РјРё
##РµРЅСЃРєРёР№
Hill
РґРµР»Р°РµРј
##ique
##РЅРµРЅРёРё
РїРµРґР°РіРѕ
С‚С‰Р°
РІРѕРїСЂРѕСЃРµ
Р±РѕСЂСЊР±Рµ
Р”РµР№СЃС‚РІРёС‚РµР»СЊРЅРѕ
Jones
РєРІР°СЂС‚Р°
РїРѕРєР»РѕРЅ
##ano
СЃРґРѕС…
1902
СЃС‚СЂР°С‚РµРіРё
##СЃСЊРєРѕРіРѕ
##ido
РЎРµРІРµСЂРЅРѕР№
96
С‚РѕР»РєСѓ
Р Р°Р№
##С‘СЃ
##РјРµСЂРѕРј
1890
61
СЃРµСЂРµР±СЂСЏ
67
СѓР»С‹Р±Р°
mar
С‚СѓСЂРЅРёСЂР°
РІС‹СЏСЃРЅРёР»РѕСЃСЊ
РєРѕСЂРїСѓСЃР°
РїРѕСЃС‚СѓРїРёР»
##РЅСѓРІ
81
Р·Р°РєСЂС‹С‚
178
98
97
РѕС…Р»Р°
РїСЂРµРґР»РѕР¶РёС‚СЊ
point
СЃС‚СЂРѕРёС‚РµР»СЊСЃС‚РІРѕ
##ros
##РіРѕРµ
РіРёРґ
##72
СЂРµР±СЏС‚
##СЂРёРєРѕРІ
С†РµРЅРЅРѕСЃС‚Рё
Р·Р°РєР»СЋС‡Р°РµС‚СЃСЏ
РІРѕР»РѕСЃС‹
Jack
##up
РјР°С‚РµСЂРёР°Р»РѕРІ
##Р°Р»Сѓ
##СЂСѓРµРј
РњРµРґРІРµРґРµРІ
РґР°РІР°Р»Рё
##ino
##mann
Р±Р°РЅРєР°
РєР°С‚РµРіРѕСЂРёРё
РќР°РєРѕ
##СЂР°РЅР°
##dy
РїРѕР»СЊР·РѕРІР°С‚РµР»РµР№
##РµРЅСЃР°
РїСЂРѕР±РѕРІР°Р»
Roman
Day
mu
СѓРµР·Рґ
РѕС†РµРЅРёС‚СЊ
top
РЅРµРґР°РІ
РїСЂРёР·С‹
Р°РІС‚РѕР±СѓСЃ
РўСЂР°РјРїР°
РµРґРІР°
РєР»РѕСѓ
РїР»Р°С‚РёС‚
РїРѕС‡РёС‚Р°
РєРѕРЅС„Рё
СЃРєР°Р¶РµС€СЊ
etc
РёРґРµР°
##С‡РЅРёРєРѕРІ
РјРѕР»РѕРєРѕ
РЅРµРїСЂР°РІ
##РїР°СЏ
РЅР°СЂ
РІРѕРµРЅРЅРѕРіРѕ
СЃРµСЂРёСЏ
Real
РёРЅРґРµРєСЃ
Р±Р°Р±Р»Рѕ
##ms
СЂРёРј
РІС‹РµР·
##ito
##РЅС‡Рµ
##79
РЅРµРјРµРґР»РµРЅРЅРѕ
С„СѓС‚Р±РѕР»РёСЃС‚
Son
РєСЂРѕРІРѕ
Р’Р°СЃРё
##inen
РІС‹С…РѕРґРЅС‹Рµ
Р±РѕСЏС‚СЃСЏ
РєРѕРЅС„РµСЂРµРЅ
РїРѕРґРІРµСЂРі
Р·Р°РЅСЏС‚
Sa
РїСЂРёРµ
РїСЂРѕСЃС‚С‹Рµ
РґРѕР»Рі
83
##СЂРѕСЃСЃРёР№
СЂР°Р·СЂР°Р±Р°С‚С‹
##СЂРѕРІРёС‡
СЃСѓРјР°СЃ
РїР»Р°РєР°
Р­РєСЃ
image
Internet
Р”РѕСЃС‚Р°С‚РѕС‡РЅРѕ
Р°РІС‚РѕРЅРѕРј
##ego
РџСЂРµРј
РїСЂРµС‚РµРЅР·РёРё
##СЃС‚Р°РІР»СЏРµС‚
РРјРµ
##СЂРµРІРЅРѕ
РїСЂРµРґСѓСЃРјРѕС‚
С‚СЂРµС‚СЊРµРіРѕ
РњР°Рі
76
radio
РјРѕРЅРµС‚
##РіСѓСЂ
РёРјРїРµСЂР°С‚РѕСЂ
Р»РµР№
Р•РІСЂРѕРїР°
Р¶РµСЂС‚РІС‹
С‚РѕСЂРјРѕР·
СЃРєР»Р°
##РіСЂР°С„
##РґРѕС‚Рѕ
СѓРґРµ
##СЂРѕРІР°Р»РёСЃСЊ
РІСЃРїРѕРјРЅРёР»
##ima
СЃРѕСЃС‚Р°РІР°
СЂРµС†РµРїС‚
##РЅРёСЃСЊ
СЃС‚РµРЅР°
СЃР°РјРѕР»С‘С‚
##Р»РµРІР°
РіРµСЂРѕСЏ
РјРµРґР°Р»СЊ
СЂР°С†РёРѕРЅР°
##СЃС‹Р»Р°
РїСЂРѕСЃС‚С‹С…
РіРµСЂС†РѕРі
##РµРЅС‚Рµ
РіРѕСЂРµ
92
##РјРµРЅРѕРІ
С†РµРЅС‚СЂРѕРј
Р•РєР°
##СЂРѕРі
PDF
##СЂРЅР°СЏ
##С‚Р°С†РёСЋ
РєРѕСЂРјРёС‚СЊ
##С†РёСЏРј
##РїРµРґРё
РєР°РЅРґРёРґР°С‚
Р Р”
СЃСѓС‰
СЂР°СЃРїРѕР»РѕР¶РµРЅР°
##СЃС‚Р°РІРєСѓ
"!
Р±Р»Р°РіРѕРїРѕР»Сѓ
##ari
РїСѓРЅРєС‚РѕРІ
СЃР·Р°РґРё
93
Big
Р»СЋР±РёР»
##СЃС‚Р°РЅРµ
program
Р·Р°РєРѕРЅРѕРґР°С‚РµР»СЊ
СЃС‚Р°СЂРѕР№
РїРѕСЃС‘Р»РѕРє
РѕСЃРЅРѕРІРЅС‹Рµ
##СѓРЅР°
What
##СЏСЋС‚
1898
78
Р‘СѓСЂ
##РґРЅРёРєРё
##kt
РїРѕР»СѓС‡РёС‚
##СЃС‚Р°РІРёР»
РїРѕРґСЃР°Р№С‚Рµ
РѕСЃРЅРѕРІР°РЅРёСЏ
СЃРѕРѕС‚РІРµС‚СЃС‚РІСѓРµС‚
РєРѕРЅС†Сѓ
РіРёР±
Р±Р°СЃСЃРµР№РЅС‹
best
##ters
##С‚СѓРё
##tr
РџРѕРјРёРјРѕ
СѓС‡РёС‚РµР»СЊ
СЌСЃС‚
Р·Р°РІРёСЃРёРј
РёРЅРѕСЃС‚СЂР°РЅРЅС‹С…
71
СЂРµС€РµРЅРёР№
##С…РЅСѓС‚СЊ
РїРѕРєСѓРї
##СЃС‚Р°РЅР°
media
91
РќР°Сѓ
Р·Р°Р±РёР»
С‡Р°СЃС‚РёС‡РЅРѕ
Р РћРЎРЎ
РЅРµРґРІРё
##С€РєРёРЅ
Р»РёРє
77
СЃРјРѕР¶РµС€СЊ
Party
##СЌРє
СЃР±РѕСЂРЅСѓСЋ
РіРѕРґР°РјРё
international
РЅР°С†РёРѕРЅР°Р»СЊРЅРѕР№
74
СЃСѓРјРјР°
РЅРµР·Р°РєРѕРЅ
##ee
СЂР°Р·Рґ
С€С‚Р°С‚Р°
РЎРѕРІСЃРµРј
РїСЂРѕРґР°СЋС‚
РІРѕРµРЅРЅРѕР№
Р’РёРЅ
73
Vol
##zy
СЃСѓРјРµ
1897
РѕР±РµСЃРїРµС‡РёС‚СЊ
1896
РЎРёР±РёСЂ
##rat
РїРёС‰Рµ
РєРѕРЅСЃСѓР»СЊС‚Р°
Р·Р°РїСѓСЃРє
death
СЃС‚Р°СЂР°СЏ
РїСЂРёР±С‹Р»Рё
СЃРѕР±РёСЂР°Р»СЃСЏ
РґРµР№СЃС‚РІРѕРІР°С‚СЊ
РїСЂРёР±С‹Р»СЊ
РѕР±СЃС‚Р°РЅРѕРІ
##РїСЂРѕРј
DVD
air
Р·Р°С‰РёС‰Р°С‚СЊ
РёСЃС‚СЂРµР±
Р±РѕРµРІС‹С…
##Р±Р±Рё
1899
РїРѕСЂРµ
69
РїРѕС‚Рё
СЃРёР»СЊРЅС‹Р№
vers
##we
РѕР±СЉРµРј
РІС‹РґРµ
Р°РєС†РёРё
87
РіРёРїРѕС‚Рµ
##Р±РёС‰Рµ
РІРµС‚РµСЂ
РµРґРёРЅСЃС‚РІРµРЅРЅРѕРµ
##С–СЏ
##OS
Р°Р·
##gu
РґРµСЃСЏС‚РѕРє
РёСЃРїРѕСЂС‚Рё
Great
СЃС‚РѕРёС‚СЊ
Under
СЂР°Р·РЅС‹Рј
СЃРЅСЏС‚
С‡Р»РµРЅР°
РёРґРµРµ
1895
СѓРєСЂРµРї
СѓРЅРёС‡С‚РѕР¶РёС‚СЊ
##Р¶РґР°С‚СЊСЃСЏ
С‡СЊ
##РјРµРЅС‚Сѓ
СЏРІР»РµРЅРёРµ
:-)
РњР°СЂРё
control
С€РёРєР°СЂ
Of
РїСЂРёС€С‘Р»
Р·Р°РїР°РґРµ
With
##С‡РёР»РёСЃСЊ
##СЂР°Р»Р°
##РµРјР°РіРѕ
Р¶СѓСЂРЅР°Р»Р°
РїР»Р°СЃС‚
РїСЂР°Р·РґРЅРёРє
РјРѕРіРё
РќР°СЃС‡РµС‚
1077
##С€РµРЅРёСЋ
Р®Р¶РЅРѕР№
Р°СЃР°
СЂРµРіРёРѕРЅРµ
СЃРґРµР»Р°СЋС‚
РѕРіСЂРѕРјРЅС‹Рµ
СЂРµР°Р»СЊРЅС‹С…
##let
Johann
РџР°СЂРЅР°СЃ
СЃРѕРІРµСЂС€РµРЅ
РїРёР°
Р·Р°С‰РёС‚Сѓ
СЂСѓР±Рµ
##РђРђ
С…РѕРє
Р—Рё
РЅРµРѕС‚
Р·Р°РјРµС‡Р°С‚РµР»СЊРЅРѕ
89
РђРЅРіР»РёРё
РЅРѕСЂРјР°Р»СЊРЅРѕР№
Nam
С‚СЂРµР±СѓСЋС‚
Р·Р°Р±Сѓ
Road
Р°Р»РіРѕСЂРёС‚
РЅР°Р№РґСѓ
СѓРІРѕР»СЊ
РћС‚РєСЂС‹
##С‡РєРѕРј
РїСЂРµРґСЃРµРґР°С‚РµР»СЊ
РіСЂР°РјРј
РјР°С‚С‡Р°
РјРёСЃСЃ
РїРѕРјРѕРіР°С‚СЊ
##rum
РєСЂР°СЃРёРІС‹Рµ
РњРђ
РґРѕР±РёС‚СЊСЃСЏ
РјР°СЃС€С‚Р°Р±
##С…СЂР°РЅРё
##С„С„Рё
РѕС‚РјРµРЅ
##РёРјРѕСЃС‚Рё
Р°РјРµСЂРёРєР°РЅСЃРєРёР№
РїСЂРѕРјРµ
Р±Р°Р·Сѓ
##indows
РїРµСЂРµРє
РЎРІРѕ
##РІР°С…
С‚РµСЃС‚Рё
С€РєРѕР»Р°
##ara
СЃРјРѕС‚СЂРµР»Рё
Р”РµС‚
СЃРѕРґРµСЂР¶Р°РЅРёРµ
РїРѕРїСЂРѕР±СѓР№С‚Рµ
##ys
##DA
РўСЂРµ
Top
Р°РєС†РёР№
РґСѓС€
С‡РёС‚
##РјР°РЅРѕРІ
##РџРћ
С„СЂРѕРЅС‚Р°
СЃРґ
РїСЂРёРЅРµСЃ
Р•РІСЂРѕРїСѓ
##РЅРЅРѕРј
Р»РµС‡РµРЅРёСЏ
РЅРµР±РµСЃ
СЃРІРѕР±РѕРґР°
Mit
РЅРµРјР°Р»Рѕ
РЅРµРјРЅРѕР¶РєРѕ
РІРЅРµСЃ
Night
##ite
Р±РµСЂСѓ
##Р¤РЎР 
СѓРіСЂРѕР·
##pen
С„Р»РѕС‚
Р°РјРµСЂРёРєР°РЅСЃРєРёРµ
СЌРєРѕРЅРѕРјРёРєСѓ
РјРµСЃС‚Р°РјРё
##utter
vol
##ez
By
СЂР°Р·Р»РёС‡РЅС‹Рµ
ter
СѓСЃР»РѕРІРёР№
##ato
##РґРѕСЂС‹
РІРјРµС€Р°
##РЅРѕРІРµРЅРёСЏ
С„РѕРЅРґ
##РЅСЏСЋ
##РґСЂРµ
1880
СЂРµРєР»Р°РјР°
РєРѕР»РёС‡РµСЃС‚РІРѕРј
##use
РїСЂРѕС€Р»РѕР№
РїСЂРёРєРё
С‚Р°РЅРєРё
Р“СЂР°РЅ
Р’Р«
##РІР°Р»СЊ
##Р’Р
Version
##ele
РїСЂРёС‡РёРЅРѕР№
РљРѕСЂРµ
РѕС‚РїСѓСЃРєР°
##Р°СЂРє
СЃРѕРє
Р±РѕСЂСЊР±Р°
##С€СѓС‚
РїРµСЂРµРєСЂРµ
book
94
##СЊРµСЂР°
СЂР°Р·РјРµСЂР°
РіРѕСЃСѓРґР°СЂСЃС‚РІ
РѕРіРЅРµ
##ser
СЃС‡РµС‚Р°
Р РЎР¤РЎР 
СЂРµР°Р»СЊРЅС‹Р№
СЃРјРµРЅ
РїРѕРґР°Р»СЊС€Рµ
Р·Р°СЃСѓ
РєСѓРїРёР»Рё
РїРµСЂСЃРѕРЅР°Р¶Р°
РїРѕР±РµРґСѓ
lat
##ster
Р·РЅР°РјРµРЅРёС‚
РїРµСЂРµСЃС‚Р°Р»
##Р»СЊС‚Рµ
РЈРєСЂР°С—РЅРё
РЅР°РїСЂРѕС‚РёРІ
РёРЅРѕРїР»Р°РЅРµС‚
##Р°Р»СЊРЅС‹РјРё
##РІРёРЅР°
##РїР»
Germany
Р Рќ
СЃРІРѕР№СЃС‚РІР°
##СѓР»Р°
СЃС‚РµРїРµРЅСЊ
Р·Р°РјРµС‚РёР»Рё
РїРѕС„РёРі
РћРў
##ras
Р°СЌСЂРѕРїРѕСЂС‚
##ret
Super
РјРµСЂР·
РїСЂРѕРІРµРґРµРЅРёСЏ
!?
Р»Р°Р№
79
СЂРµРєРѕРјРµРЅРґР°
##РёС‚Рё
РѕС€РёР±РѕРє
##PS
Р·Р°РЅСЏС‚СЊСЃСЏ
РїРµС‡РµРЅСЊ
##Р·Р°РµС‚
1870
Р’РѕРЅ
СЃРѕСЋ
С†РµР»СЏС…
##СЌР»СЊ
##ova
##Р°РЅС‚С‹
##chi
type
РїСЂРѕРєСѓСЂРѕ
РіРЅРµ
РґРѕРІРµСЂСЏ
President
РџСЂРµРґРїРѕ
РїСЂР°РІРёР»СЊРЅС‹Р№
РїРѕР»Рє
Р›РёРЅ
Р¶РёРІРѕР№
РјР°РіР°Р·РёРЅР°
##РЅРµРЅСЊРєРѕ
Р·Р°РјРѕСЂРѕ
just
Р‘СЂРѕ
##ane
РїРѕСЃСѓ
РѕРєРєСѓРїРё
Р·РґСЂР°РІРѕ
РїРѕС…РѕРґ
РєР»РµС‚
РћР»СЊ
РїРѕР»РЅРѕРіРѕ
С‚СЂР°РіРµ
##С‚РёС€СЊ
##СЃС‚РЅРѕРµ
##iva
110
Р·Р°РїР°С…
##РЅРёС†Рё
РјР°С‚С‡РµР№
РѕС‚РґРµР»РµРЅРёСЏ
С‚РµРјРїРµСЂР°С‚СѓСЂС‹
##С‚РєРѕР№
Р·Р°РјРµСЃС‚РёС‚РµР»СЊ
С„РѕС‚РєРё
СЃР»СѓС‡РёС‚СЃСЏ
РљР°СЂР»
Con
РїСЂРёРЅР°РґР»РµР¶Р°
РІРµС‚Рµ
РІР°Р»
##Р»РµСЋ
СЃРѕРІРјРµСЃС‚РЅРѕ
РќР°РїРѕРјРЅРёРј
Sir
##ook
Max
С„Р»Р°Рі
СЂР°Р·РІР»Рµ
##Р›РЇ
РјРµС‚Р°Р»Р»
##Р±РёСЏ
##РёРІР°Р»Рё
РїРёРЅ
СЂР°Р±РѕС‡РёР№
Р“РѕСЃРїРѕРґРё
СЂРµРєРѕСЂРґ
We
##СЃРµРєСЃСѓ
РіРѕСЃРїРѕРґР°
РїР»Р°С‚С„РѕСЂРј
СЃСЂРµРґРЅРёР№
Р°РґРјРёРЅРёСЃС‚СЂР°С†РёРё
##ye
РЅР°СЃРµР»С‘РЅРЅС‹С…
РјР°РєСЃРёРј
РїРѕСЏРІР»СЏСЋС‚СЃСЏ
РїСЂРѕС‚РёРІРѕСЃС‚РѕСЏ
##ain
##РёРІР°РЅРёСЏ
РІРѕРґРёС‚РµР»СЏ
##СЃС‚СѓРїРё
СЌРєРѕР»РѕРіРё
РїРµСЂСЃРѕРЅР°Р¶РµР№
So
РєРѕР¶Рё
РЅР°РїСЂР°РІР»РµРЅРёРµ
РєР°РєРѕРјСѓ
СЃРµСЃС‚СЂР°
РћРґРЅР°Р¶РґС‹
see
Р»РµРіРё
##С–С—
РњРёС…Р°Р№Р»РѕРІ
РєР°РЅРґРёРґР°С‚Р°
##С†СЊ
РЅР°РІРµ
##С‘СЂРѕРј
СѓРјРµСЂРµС‚СЊ
##ogle
old
##РµСЂРёСЏ
tem
РЅРµРІРµСЂРѕСЏС‚
РљР°Рї
СѓСЃС‚СЂРѕР№СЃС‚РІРѕ
##СЏР»СЃСЏ
Windows
РїРѕСЏРІРёР»РѕСЃСЊ
РќРµРґР°РІРЅРѕ
С„Р»РѕС‚Р°
Р’СЃРїРѕ
Р”РѕРЅРµС†
РµРґРёРЅРѕСЂРѕСЃ
##sel
РѕС†РµРЅРєРё
##Р»РёРєРё
РјРёРЅСѓСЃРѕРІ
РїСЃРёС…РѕС‚РµСЂР°
РіРѕРјРµРѕРїР°
СЃР°Рґ
##РјРёСЏ
##ona
РёСЃРїР°РЅ
##mas
РѕС€РёР±РєСѓ
РёСЃРїРѕР»СЊР·РѕРІР°Р»Рё
РєР°СЂС‚РёРЅ
РІС‹Р±СЂР°Р»Рё
С€С‚СѓРєРё
СЃР»Р°Рґ
##СЂРёСЃС‚Рѕ
##Р¶РµСЃС‚РІРѕ
РёРјРµРЅ
РђРЅС‚РѕРЅ
РјРёСЂРѕРј
##СЃСЊРєРёР№
down
Little
Arts
Р‘Р»РёРЅ
Р»РµСЃСѓ
РєР»Р°РґР±РёС‰Рµ
##РєРЅСѓР»СЃСЏ
##РєРѕРІРѕРµ
РїРѕСЂС‚Рё
Di
##РёРјСЃСЏ
РіРёРї
##Р»Р°РЅРґРёРё
##РІР°Рє
##С‡РµСЂРё
Р”Р¶РѕСЂРґР¶
##Р’РЎ
Power
##line
##С„РѕРј
##van
С‚РµРѕСЂ
##СЂСЏРґР°
Р±Р°С€
Research
##С‚СЊРµ
##РЅРµС‚Р°
live
Р Р°Р·СѓРјРµРµС‚СЃСЏ
##cha
(!)
РІРёРґС‹
СЃРѕР±СЃС‚РІРµРЅРЅРѕСЃС‚Рё
##РєРѕРІСЃРєРѕРіРѕ
##С‰РµРЅРёСЋ
СѓС‡РёР»РёС‰Рµ
РџРѕР·Р¶Рµ
Blue
РІРѕРµРІР°С‚СЊ
РѕР±СЉРµРєС‚РёРІРЅРѕ
##РєС–
what
РѕСЂРіР°РЅРёР·РјР°
##net
ich
РќР°СЂ
РєРѕР»Р»РµРє
С‚СЏР¶С‘
1891
РҐРѕС‚РёС‚Рµ
РЅР°С„РёРі
##eur
##СЃС‚Р°СЂ
VII
РћРљ
Р·РѕРЅ
РїРѕРІРµСЂС…РЅРѕСЃС‚СЊ
СЃР±СЂРѕ
##РµРЅСЊС€Рµ
##С‚РёРІРЅР°СЏ
СЂР°Р·СЂР°Р±РѕС‚РєРё
СЃС‚СЂРѕРёС‚РµР»СЊСЃС‚РІР°
##aren
web
Р±РѕРіР°С‚
car
##old
РїР°РєРµС‚
РЎРѕРІРµС‚СЃРєРѕРіРѕ
РїРѕРґРіРѕС‚Рѕ
РїСЂРµР·РёРґРµРЅС‚РѕРј
С…Р·
##ira
СѓРіР»Рµ
bet
РїРµРґР°РіРѕРі
Mar
##Р­С‚Рѕ
##ree
РєСЂРёР·Рё
##РЅР°С‚СЊ
Р·Р°СЂР°Р±РѕС‚Р°С‚СЊ
РёСЃС‚РѕС‡РЅРёРєРё
РїРѕСЃР°РґРєРё
РїР»РѕС…РѕРµ
##lin
РІРѕСЃРєСЂРµСЃ
С„Р°РєС‚РѕРІ
СЃРѕРіР»Р°СЃРЅС‹
РІС‹СЂРѕСЃ
РќР°С€Рё
Men
РґРѕСЂРѕРіРёРµ
РќР°С€
РџРѕРї
РЈРІРё
РєР»РёРјР°С‚
##ena
РіРѕСЂРёР·РѕРЅС‚Р°
С†РµРЅРЅРѕ
Р±СѓРєРІС‹
РЎРѕРіР»Р°СЃРµРЅ
Global
Р’СЃРєРѕСЂРµ
РєСѓСЂСЃР°
Р›РµРЅРёРЅР°
##ise
##igh
РіСЂР°Рј
РёРЅС‚РµСЂРµСЃРѕРІ
РїРѕРєРѕР»РµРЅРёРµ
##РєСѓС‚
СЃСЌ
РЅР°С‡РЅРµС‚
СЃРєРІРѕР·СЊ
РґСѓС…Рѕ
СЃР»СѓР¶РёР»
СЂРѕРґРЅРѕР№
##РµСЂРёР№
СЃРѕСѓ
РїР°С†РёРµРЅС‚Р°
РїРµСЂРµСѓ
РѕС‚РґР°Р»
XVIII
РїСЂРµРґРµР»Р°С…
##ika
РїСЂРёРЅРёРјР°РµС‚
##РґРѕРµ
СЃРѕС‡СѓРІ
Р™Рѕ
plan
Р­Р»
С‚СѓРїРѕР№
Green
Lo
РєРѕРјРёСЃСЃРёРё
##СЃС‚РѕСЏРЅРёРµ
Adam
Good
РЎР°РјРё
Р°РІС‚РѕРјР°С‚
Р РµР·СѓР»СЊС‚Р°
СЃРµР»СЊСЃРєРѕРµ
##С‡Р°СЃР°
СЃРµРјРµР№СЃС‚РІР°
РєРѕР»Р»РµРі
СЃРЅРµРі
##eam
СЃРєР°РЅ
РїРѕРґРґРµСЂР¶РёРІР°РµС‚
РЎРЎР 
make
##Р°РЅСѓ
С‡РёСЃС‚
РІР°СЂ
РІР°Р¶РЅРµРµ
##С‚РµР»СЊРЅС‹
РёСЃРїРѕР»СЊР·СѓРµС‚
СЂРѕСЃСЃ
РІРѕСЂРѕ
СѓР»РёС†Р°
##able
СЂРµР·Рѕ
Co
Р°С‚РјРѕСЃС„РµСЂСѓ
##С‚РѕСЂРё
РєРѕРЅС„Р»РёРєС‚
РёРЅРёС†РёР°С‚РёРІ
Р’РїРѕР»РЅРµ
РґРёРІРё
РєР°РјРµРЅСЊ
Р°РЅРґСЂРѕРё
РјСѓР»СЊС‚Рё
.В«
##sis
##СЏРµРј
РїРѕРїР°Р»Рё
##С‡РµРЅРЅРѕР№
РјРµСЃС‚Сѓ
Ed
РїСѓСЃС‚
СЂР°СЃСЃРµ
СЃРѕСЃС‚РѕСЏРЅРёСЋ
СѓС‡РµРЅС‹С…
РєРѕРЅС‚Р°РєС‚
РѕС‚Р·С‹РІС‹
Р·Р°РїСЂРµС‰РµРЅРѕ
СЂРµР·СѓР»СЊС‚Р°С‚РѕРІ
again
РІСЃС‚СѓРїР°
РѕР±РјРµРЅ
РєСЂР°СЃР°
Р›СѓРЅСѓ
##vel
##een
РІС‹СЏСЃРЅРёС‚СЊ
РЁР°СЂ
РёРЅРІ
##ali
Arthur
##ring
##ves
СЃСЋСЂ
СЃРѕС‚РµРЅ
РљР°РІРєР°Р·
РїРѕРєР°Р·С‹РІР°С‚СЊ
##СЌС„С„Рµ
С‡СѓР¶РѕР№
РёР·СЂР°РёР»СЊ
РѕР·Р°
СЃРѕСЃС‚РѕСЏР»СЃСЏ
Bay
Р·Р°РіСЂСѓ
СЂР°Р·РіРѕРІР°СЂРёРІР°С‚СЊ
РЈРІР°
;-
##rover
##aba
РҐРѕС‚
Р±РµСЂРё
##oll
Р°Р»РєРѕРіРѕР»СЊ
СЃР°С…Р°СЂ
РєР»Р°СЃСЃРµ
РґРІР°Р¶РґС‹
Bill
РїРѕСЃРјРѕС‚СЂРё
РєРёСЃ
Western
##СЃС‚СЂРѕР№РєРё
?вЂ”
Р°Р»Рµ
Р·Р°Р»РѕР¶
##С‡Р°Р№РЅРѕ
##С‚РёС‡РµСЃРєРёРµ
way
РїР°РґРµРЅРёСЏ
##Р·РєР°
Р±Р°Р№
Р¶СЂР°С‚СЊ
Р§РёС‚Р°
РІС‹РЅРѕ
РµР¶РµРґРЅРµ
РїСЂРµРґСЃ
Р±РµРґ
РѕР±СЉСЏСЃРЅРµРЅРёРµ
Р¶РµР»Сѓ
С‚РµРЅРґРµРЅ
power
РїСЂРѕРµРєС‚С‹
СЂРёСЃ
Р°СЂС…РёС‚РµРєС‚РѕСЂ
##ih
С‡С‘С‚
РґРµСЂР¶РёС‚
##BC
##РІР°С‚Рё
model
РІРѕР»РЅСѓРµС‚
СЂРµР±С‘РЅРѕРє
СЃРєРѕРІРѕ
##ham
РІР°Р»СЋС‚
##РїРѕРґРѕР±
##С€РЅС‹Р№
РїРёСЃР°С‚РµР»СЊ
РџСЂСЏРјРѕ
РґРµРїСѓС‚Р°С‚Р°
СЃРѕСЃС‚РѕСЏР»Р°СЃСЊ
РќР°Рґ
РїРѕР»РЅСѓСЋ
РїРѕРіРѕРІРѕСЂРёРј
РїРѕР·РІРѕР»Рё
РјСЏС‡
Au
РєРѕРЅСЃС‚СЂСѓРєС†РёРё
Р—Р°РІ
##РґРѕРјРѕ
##С‰РµРЅРЅС‹Р№
Two
house
Law
##С‡Р°Р»Р°
Р•С‘
##РіСЂРё
РїСЂРёР±Р°
##ps
РіРѕСЂРѕРґСЃРєРѕР№
##СЃР»РµР№
СЃРѕРѕР±С‰РёР»Рё
##Р»Р°СЂ
Р’РјРµСЃС‚Рµ
СЂР°СЃСЃС‡РёС‚Р°
177
Her
Р•Р№
СѓСЃС‚Р°РЅРѕРІРёС‚СЊ
С€Р°РЅСЃС‹
##Р»СЏРµРј
РЎРёР±Рё
СѓР»СЊС‚СЂР°
Р±РµСЃРєРѕРЅРµ
СЃРёР»Р°РјРё
СЌРїРѕС…
Р·РІРµР·РґР°
Р°РІС‚РѕРјР°С‚РёС‡РµСЃРєРё
РЎРµСЂРіРµ
##СЃРєР°РјРё
Р’Р»Р°РґРёРјРёСЂР°
РІРµСЂСЏС‚
РїРµС‡Р°С‚
Р“РёС‚Р»РµСЂ
СЃРІРѕР±РѕРґРЅРѕ
СЃРёРі
РіСѓРіР»
maj
РР·РІРёРЅРё
РЅР°С‡РЅ
СЃРѕСЂРµРІРЅРѕ
С„РёРіСѓСЂ
law
##Р“Р‘
СЃС‚Р°РЅРґР°СЂС‚
Li
##ati
РјСѓР·С‹РєРё
##62
РґРёР·
РїРµСЂСЃРѕРЅР°Р¶
Р“Р»Сѓ
РЎСЋ
Р”Р»РёРЅР°
СЂРµР№С‚РёРЅРі
##РјС‹СЃР»Рё
РёСЃС…РѕРґСЏ
##РЅРЅС‹РјРё
РЅР°С‡Р°Р»СЊРЅРёРєР°
РєСЂРёР·РёСЃ
Р“РњРћ
РёР·РјРµРЅРёС‚СЃСЏ
РїСЂРёРјРµРЅРµРЅРёСЏ
РІС‹Р±СЂР°Р»
##РіСЂР°РјРѕС‚
1887
С„Р°РЅС‚Р°Р·РёРё
##ory
РїРµСЃРЅСЏ
СѓСЃР»СѓРі
##РµРЅС‚Р°РјРё
С‚РѕРІР°СЂРёС‰Рё
СЃРѕС‡РёРЅ
Р·Р°СЏРІР»СЏ
Р®РіРѕ
РіРѕС‚РѕРІРёС‚СЊ
РєР»СЋС‡
РёРіСЂР°СЋС‚
С†РёРІРёР»РёР·Р°С†РёРё
РїСЂРёС‚РѕРє
Р“РѕРІРѕСЂСЏС‚
РІРѕСЃС‚РѕРєСѓ
face
РџСЂРёРј
##РІР»РµРЅРѕ
amp
##РєСЂСѓС‡Рё
СЃС…РѕРґРёС‚СЊ
РЎР»Р°РІР°
##РЅСѓСЃСЊ
РІС‹РёРіСЂР°Р»
Ben
##С‚РёСЂСѓСЋ
РїРѕРјРЅРёС‚Рµ
Long
С†С‹
##РїР»РµРЅРёСЏ
РІРѕР·СЊРј
##ami
СѓРЅРёРІРµСЂСЃР°
РїРѕР»Р°
РљРѕСЃС‚
##ide
Р·Р°РєРѕРЅРѕРїСЂРѕ
СЂРѕРґСЃС‚РІРµРЅРЅРёРєРѕРІ
##С‚РёСЏС…
РІРµСЂРёС‚
##Р·РµРЅ
Р±СЋСЂРѕ
##ala
РїСЂРёРµС…Р°Р»Рё
РџРѕСЂР°
РІС‹РїРѕР»РЅСЏ
##ons
РЅРѕРіСѓ
РІР°РЅ
##ae
##Р¶РґРµРЅРёРµРј
РґР°Р±С‹
##СЂСѓРЅ
Р·Р°РІРѕРґР°
РѕС‚РІСЂР°С‚Рё
РЅСѓР»СЏ
1860
cap
Р·Р°Р±Р°РІРЅРѕ
Р­РЅРµСЂ
РїРѕС‚СЂСЏСЃР°
Media
РїРѕС€С‘Р»
РѕР±СЂРµ
РїРѕРЅРµРґРµР»СЊ
РёСЃРєСѓСЃСЃС‚РІ
РІРµСЃР°
РІС‹СЂР°С‰Рё
Office
##met
РѕР±СЏР·Р°РЅС‹
style
##С‡СѓСЋ
РіРѕСЃСѓРґР°СЂСЃС‚РІРµРЅРЅС‹Р№
РІСЃС‚СЂРµС‡Р°Р»
РѕСЂР±РёС‚Рµ
##РЅРєРѕРІ
РЅР°С…РѕРґРёР»РёСЃСЊ
##het
##РЅР°С‚Р°
РїСЂРѕРёРіСЂР°
РґРѕРІРѕР»СЊ
РЅР°СЃС‚РѕСЏС‰РёРµ
Р’РёРґ
РїРёС‚Р°РЅРёРµ
РџРµС‚РµСЂР±СѓСЂРіРµ
СЃС‚РѕСЂРѕРЅР°
С‡РµС‚РІС‘СЂ
С„Р°Р±СЂРё
##fa
РѕР±РѕСЂРѕРЅ
##РєРѕРјР°
##Р¶Р°Р»Рѕ
РќРёРєРѕР»Р°
РІРѕРёРЅ
full
СѓСЃР»РѕРІРЅРѕ
С€РІРµРґ
РџСЂРµР·РёРґРµРЅС‚
##yn
РїСЂРµРґР»Р°РіР°СЋС‚
РҐРѕСЂРѕС€РёР№
СѓР·РЅР°Р»Рё
РїРѕРґСЃР°Р№С‚
Force
РёР·РґР°С‚РµР»СЊ
РїСЂРѕР№РґРµС‚
##ford
РЎР°РјС‹Р№
130
РєР°РјРµ
##Р»РµРЅРЅС‹РјРё
Р·РІРµР·Рґ
РЎР»РµРґСѓ
РїРѕР»С‘
РќР°С‚Р°
##cher
##ism
Р¤РёР»РёРїРї
РјРµС‚СЂР°
РљСѓР·
С…Р»РµР±Р°
Oldrover
СЂР°Р·Р±РµСЂ
РІС‚РѕСЂРѕ
РєРѕРјРїР°РЅРёРµР№
Р§Р»РµРЅ
РњР°СЂРє
##field
РєРёС‚Р°Р№С†С‹
Р±Р°РіР°Р¶
РњР°РєСЃРёРј
##Р»РѕРіРѕРј
##СЃС‚СЃСЏ
РїСЂР°РІР»РµРЅРёСЏ
##РѕР·Р°
list
РєР»РёРµРЅС‚РѕРІ
РїРѕРЅР°РґРѕР±РёС‚СЃСЏ
РїРµСЂРµРґРѕ
РЎРєР°Р¶Рё
Р°РЅС‚РёР±Рё
РѕР±РµРґ
СЃРѕСЃРµРґРµР№
РЎР°РІ
РёРјРµР»Р°
СЂР°Р·РјР°
СѓС‡Р°СЃС‚РІРѕРІР°С‚СЊ
СЃРѕРѕР±С‰Р°Р»РѕСЃСЊ
РџРѕРє
##Р¶РёРІР°С‚СЊ
РґР¶
РџРµСЂРІРѕР№
Р»СЋРґСЏС…
С‡СѓРґРѕРІРё
Р­РўРћ
РїРµСЃРµРЅ
Str
##----------------
С€С‚Р°Рј
Lord
СЃС‚РѕСЏР»Рё
РјСѓР·РµР№
РљРёРµРІРµ
##СЂРёСЃР°
РїР°Рї
СЃР»РµРґСѓСЋС‰РёРµ
РЎС‚Р°Р»
right
##РїСЂРѕРёР·РІРѕ
Show
РѕСЂРґРµРЅР°
СѓРґРѕСЃС‚Рѕ
РїРµСЂРµРІРµРґ
РІРѕР·РјРѕР¶РЅРѕСЃС‚РµР№
РЅРѕРІРѕРј
РЅР°РїСЂР°РІР»СЏ
СЃС‚СЂР°С‚РµРі
РіРІР°СЂРґРµР№
РјРѕР»РѕРґС‹С…
РЅР°СѓС‡РЅРѕ
Р¶РёР»СЊ
Р°С„
Russian
Р·РµР»С‘
Р»РѕРіРёРєРµ
##РёСЃСѓ
##СЃС‚РЅР°СЏ
СЃСЂРµРґСѓ
##iss
СЃРїРѕРЅ
РѕС‚РґРµР»СЊРЅС‹Рµ
РњРѕСЃРєРѕРІСЃРєРѕРіРѕ
СЂСѓСЃРѕ
С€С‚СѓСЂ
Р§РµС‡
СѓРІР»РµРєР°
РїСЂРѕСЂ
РјР°РіР°Р·РёРЅР°С…
##urs
РЅРµСЃС‚Рё
РїРѕРЅРёРјР°Р»
РёР·Р»Рё
СѓРіР»Р°
min
##С€РёР»Р°
real
СѓСЃС‚СЂРѕРёС‚СЊ
СЃР»РѕРІР°С…
Service
С‚СЏРЅРµС‚
Are
РїСЂРѕС‡РµРіРѕ
Р·Р°СЏРІРёР»Рё
СЃРїРѕСЃРѕР±РЅРѕСЃС‚Рё
РѕС‚РІРµС‚РёР»Рё
##С€Р°Р»Рѕ
РјСѓС‚
СЃС‚РѕР»Рѕ
##ous
РѕСЃРЅРѕРІС‹
РїР»РѕСЃРєРѕ
С‚РµР»РµС„РѕРЅСѓ
РёР·РІРµСЃС‚РµРЅ
##С‡Р°С…
СЏРё
Alex
С‚СѓСЂРЅРёСЂРµ
СЃС‡Р°СЃС‚СЊСЋ
РРњ
РќР°РєРѕРЅРµС†
РѕСЃС‚Р°Р»СЊРЅС‹Рј
РЅР°РіСЂСѓР·РєР°
РїСЂРёР·РµРј
СЃР»Р°РІР°
РґР°Р»СЊРЅРµР№С€РµРј
Р±РёР»РµС‚
СЂРёСЃРѕ
##orn
##РІРёРІ
##po
РїРµСЂРµРєСЂС‹
СЂРѕРє
РІС‹РїР°
РґСѓС€Р°
Р°С…
С‚РѕРїР»РёРІРѕ
РјРµСЃС‚РЅРѕРіРѕ
РѕСЂРґРµРЅРѕРј
РІС‹Р№
РіСЂР°РЅРё
РіРѕСЃСѓРґР°СЂСЃС‚РІРµРЅРЅРѕР№
РµРґР°
Bank
Р¶С‘
##РµРІРёС‡Р°
Р·РЅР°РєРѕРјС‹Рµ
##С‘РЅРЅР°СЏ
СЂР°СЃС…РѕРґ
СЃРѕР±СЃС‚РІРµРЅРЅС‹С…
РєРѕРјРёС‚РµС‚
СЃС‡Р°СЃС‚СЊСЏ
Р¶РёРІС‹С…
Р›СЋР±
РїСЂРѕРёР·РІРѕРґРё
900
СЌРєРѕРЅРѕРјРёРєРµ
##РўР•
РѕС‚РґРµР»СЊРЅС‹С…
РѕРґРЅРѕРёРј
РїРµР№
##РїР»СЋ
РЈРєСЂР°РёРЅ
РЅРµРѕРґРЅРѕРєСЂР°С‚РЅРѕ
Your
РѕС‚РІРµСЂСЃС‚Рё
РќР°С‡
СЃРѕСЂРµРІРЅРѕРІР°РЅРёСЏ
РґРёСЃСЃРµСЂС‚Р°
РўСЂР°
Р°СЂРµСЃС‚РѕРІР°РЅ
Р·Р°РїР»Р°С‚РёС‚СЊ
РҐР°СЂСЊ
##ult
РїРѕР»РЅРѕС†РµРЅ
##ese
РІР°РєС†Рё
РѕСЃРѕР±РµРЅРЅРѕСЃС‚Рё
СѓРјРЅС‹Рµ
pt
РѕРїРё
Р±СЂСЋ
РґРµРјР°РіРѕ
##РіР°Р»Р°
СЃРїСЂР°РІРµРґР»Рё
РЅРѕРІРё
РјСѓР»СЊС‚
##РґСѓРјР°РЅ
Р·Р°РїР°РґСѓ
Р»СЋРґ
Р’Р’РЎ
РїРѕРІС‚РѕСЂРёС‚СЊ
РЅРѕС‡
Bob
СЃРїСЂР°С€РёРІР°СЋ
gov
Р·Р°РґР°С‡Сѓ
СЏР·С‹РєРѕРІ
Р¶РµР»Р°С‚РµР»СЊРЅРѕ
Р‘Р»Рё
СЏРІР»СЏР»СЃСЏ
РЅРµСѓР¶РµР»Рё
СЂРµР·РµСЂРІ
РїСЂРёРІСЏР·Р°
СЃРѕСЃСѓ
let
class
##СЌР»
РјСѓРЅРёС†РёРїР°Р»СЊРЅРѕРіРѕ
РїРѕС‚СЂРµР±Сѓ
##ral
СЃРёРјРїС‚Рѕ
РЎР»РёС€РєРѕРј
Р·РѕРјР±Рё
Inc
СЂР°СЃСЃРјР°С‚СЂРёРІР°С‚СЊ
СЃРµРєСЂРµС‚Р°СЂСЊ
СЌРІ
РС‚Р°Р»Рё
СЂРµРєРµ
1861
РїРµСЂРµРІРѕР·
РїРѕРґРµР»РёС‚СЊСЃСЏ
СѓС‡Р°СЃС‚РёСЏ
Р°РїРїР°СЂР°С‚Р°
РњРµС‚
С„РёРЅР°
РёР·РґРµ
РїРѕС…Рё
РњРµРєСЃРёРєСѓ
##СЂР°РґР°
ac
Р“СЂ
РЎС‚Р°РЅ
Р›СѓРЅРµ
С€Р°РЅСЃРѕРІ
СЃСЏ
РїСЂРµРґРµ
СЃС‚Р°СЂС‚
РїРѕРєСѓРїРєРё
СЂР°СЃРїРѕР»Р°РіР°
РјРѕРґРё
СЂР°СЃРїРёСЃР°
##РµСЃСЃР°
##С…РёРµ
РїСЂРµРґСЃРµРґР°С‚РµР»СЏ
РІРѕР№СЃРєР°РјРё
СѓРїСЂР°Р·Рґ
##an_
РіРµСЂР±
РїРѕРїСѓР»СЏСЂРЅС‹С…
##yi
Empire
Р“СЂСѓР·РёРё
##С‡Р°Рј
##С†РёРѕРЅРЅРѕРµ
That
РѕР±Р»РµРі
1800
РѕР±С‹С‡РЅР°СЏ
РІСЃСЏРєРѕР№
##С€РµРЅРЅС‹Рµ
СЃС…РµРјР°
Р—Р°РєРѕРЅ
РїСЂРµРґСЃС‚Р°РІР»РµРЅРёРµ
##С‚Р°Р»РєРё
Up
РІРѕС€Р»Рё
##РґРЅРёРєРѕРІ
РЅРµРѕР±С…РѕРґРёРјРѕСЃС‚СЊ
РїСЂРёРІРµР»
Р±СЂР°Р»
РњР°Рґ
Р±РµР»С‹Рµ
РІРєР»Р°Рґ
СЂРµР»РёР·
СЌРІРѕР»СЋС†РёРё
##СЂСѓР±
СЃРѕРІРµС‚СЃРєРѕРіРѕ
РѕР±Р»
##СЂРѕРІРєРµ
##РѕРєРµ
РёРЅС‚РµСЂРµСЃРЅРѕРіРѕ
РѕСЃРЅРѕРІРЅС‹С…
РєРѕРЅС‚РёРЅ
РџРѕРґСЂРѕР±РЅРµРµ
РџРѕРјРё
Р°С‚Рѕ
РџРёРєР°
РђР»РµРєСЃРµ
##РіРёР±Р°
Republic
##РµРјСѓСЋ
Boston
design
РїРµСЂРµСЃС‚Р°Р»Рё
##С‚РѕС‡РєСѓ
РїРѕСЌС‚
Р•РІСЂРѕРїРµР№
РґРѕР»Рё
Special
РІС‹РїРѕР»РЅСЏС‚СЊ
##ungen
##С‚РµР»РµРЅ
РїРѕРїСЂ
Р”РµС‚Рё
Р”РѕРє
mer
РєР°Р»СЊ
РєРѕСЂРј
РЅРµРґРІРёР¶Рё
Р·Р°РєСЂС‹С‚СЊ
РІРєСѓСЃСѓ
Р”Р°Р»СЊ
Queen
РјСѓСЃСѓР»СЊРјР°РЅ
##Р»СЏС†РёСЋ
Р’СЃРїРѕРјРЅРё
РЈР·
VIII
СЃРѕР±С‹С‚РёРµ
РїРѕР»РѕР¶РµРЅРёСЏ
СЂР°РЅРµРЅ
РїРѕР»РµС‚Рµ
Р·Р°СЃС‚Р°РІ
Program
РћР±СЉСЏСЃ
pop
Р»РёРєРІРё
term
РІС…РѕРґСЏС‚
РіР»СЋ
СЃРІСЏР·Р°РЅС‹
##hu
РёР·РјРµРЅРёР»РѕСЃСЊ
РєРѕРјР°РЅРґРµ
РњР°Р№Рє
Р·Р°СЂСѓР±Рµ
РЈС‡Р°СЃС‚
РєР°РІР°Р»
##С‚РёРЅРѕ
Р»РёРіРё
##С‡Р°СЋ
РІС‹СЃС‚СѓРїРёР»
РћСЂРёРіРёРЅР°Р»
РІРєР»СЋС‡Р°РµС‚
##ake
Р¶РґР°Р»
##pss
РїСЂРµРґРїСЂРёСЏС‚РёСЏ
Ha
##igen
СЂРѕР·Рѕ
РїСЂРѕРїРё
Ma
Р°СЂР°Р±
РЅР°СЃС‚СЂРѕРµРЅРёРµ
##85
##ement
РѕСЃС‚Р°РІР°С‚СЊСЃСЏ
##С‡РѕРЅ
РІРЅСѓС‚СЂРµРЅРЅРёС…
##С‡РµРЅРЅС‹Рј
РёСЃС‚РѕС‡РЅРёРєРѕРІ
Р°СЂС…РёС‚РµРє
Andre
РїСЊ
РїРѕРіР°
##Р»СЏС‚СЃСЏ
СЃРѕР±СЃС‚РІРµРЅРЅС‹Рµ
РјРёРіСЂР°
С€С‚Р°Р±Р°
##РЅРёР»СЃСЏ
##bus
РѕР±СЉРµРєС‚РѕРІ
##РґР°С‚РµР»СЏ
РїРѕРєР°Р·Р°С‚РµР»СЊ
##РІРєР°Р·
РѕР±СЂР°С‰РµРЅРёСЏ
РёСЃСЃР»РµРґРѕРІР°С‚РµР»СЊ
##bel
РљСЂР°СЃРЅРѕР№
РІС‹РєР»Р°РґС‹
Р±РѕРіСѓ
РїСЂРёРјРµСЂРµ
Р°РіРµРЅС‚СЃС‚РІР°
РЅСѓР¶РґР°
##С‚РµСЂРµ
##rin
СЃРѕРІРµС‚СѓСЋ
##РјР°РјРё
.*
РїРѕРїР°РґР°РµС‚
##РёРґРѕРІ
##ili
С‚РµСЂСЂРѕСЂРёСЃС‚
ft
РєРѕСЂСЂРµРє
СЃР»РµРґСѓСЋС‰РµР№
РїР°СЃРїРѕСЂС‚Р°
РїСЂРµСЃР»РµРґРѕ
apos
РїСЂРµРєСЂР°СЃРЅС‹Р№
Р РѕРґРёРЅР°
Р‘Рћ
##РґРµСЃСЏ
Je
РѕС‚Р»РёС‡РЅР°СЏ
РїРѕРЅРµРґРµР»СЊРЅРёРє
##ila
ckk
Book
##СЊС‘Р·
ckkpss
СЏСЃ
РџСЂРёРјРµСЂРЅРѕ
РѕС‚РєСЂРѕРІРµРЅРЅРѕ
Р­Р»СЊ
РєСѓР»Р°
РІС‹С…РѕРґРёС‚СЊ
Des
РІРѕСЃРµРјСЊ
РґРёР°РіРЅРѕСЃС‚Рё
РїРѕС€
СЂР°СЃС‚СѓС‚
Р»РёСЃС‚
СѓС…РѕРґ
РёРіРЅРѕСЂРё
##ater
Р­С…
СЃС‚Р°СЂР°СЋСЃСЊ
РїСЂРёРјРµРЅРё
Р±С‹СЃС‚
СЃРѕРіР»Р°СЃРѕ
РљРѕРЅСЃС‚Р°РЅ
РїРёСЂР°РјРё
СЃРјРµРЅРё
##РЅСЃ
Digital
СЃРїСѓС‚РЅРёРєРѕРІ
РґРѕРјРѕ
##РЅРёС†Р°С…
СЂРµР±РµРЅРєРѕРј
##uters
РїСЂРѕРјС‹С€Р»РµРЅРЅРѕСЃС‚Рё
Р°РІС‚РѕСЂРёС‚РµС‚
Р РѕРіРѕ
СЃСѓРјР°СЃС€РµРґ
РїСЂРёРЅРёРјР°Р»
РґРѕРєР°Р·С‹РІР°С‚СЊ
##С‡РёР»РѕСЃСЊ
РќРѕРІРіРѕСЂРѕРґ
Sky
РїСЂРѕРіСЂРµСЃСЃ
СЃР»РµРґРёС‚СЊ
##ram
##РР
##РІРёРµ
##ider
160
СЃСѓС…Рѕ
РєР°Р№
РЅР°С‡Р°Р»СЊРЅРёРє
РўСЂРѕ
РёРЅС‚РµСЂРµСЃРЅРµРµ
СЂР°СЃРїСЂРµ
РѕР±СЉСЏРІРёР»
Р’РѕСЂРѕРЅ
С„СѓС‚Р±РѕР»Сѓ
РІР°СЂРёР°РЅС‚Р°
##РґСЂСЏ
РїРµСЂРµС†
РІРєСѓСЃРЅРѕ
##РёРґСѓ
РєР°Р¶РґРѕРµ
##РЅСѓС‚С‹Р№
СѓСЃРїРµР»Рё
РїРѕР»С‡Р°СЃР°
РѕР±СЉСЏСЃРЅСЏРµС‚
Р–Сѓ
РєРѕРЅС„РµСЂРµРЅС†РёРё
Ray
РћР±Рµ
С…РѕР»РѕРґРёР»СЊ
СЃРїРѕСЂС‚СЃРјРµРЅ
СЃРµСЂРґС†Р°
Р·Р°РєРѕРЅС‡РёС‚СЃСЏ
РђРі
##С€Р°СЋ
С‡СѓРІСЃС‚РІРѕРІР°С‚СЊ
РїСЂРѕРїР°РіР°РЅРґС‹
1850
РіР»Рё
РЈСЂ
Р‘РѕР»РіР°СЂ
Some
РїСЂРѕРіРѕР»РѕСЃСѓ
РЅРµРєСѓРґР°
Google
##Р“Рђ
Р»РѕР·СѓРЅ
Р±РѕРё
XIII
online
РѕРґРЅРёС…
##Р»СЊРЅРµР№
Р‘РѕР»СЊС€Рѕ
СЃС‚РѕР»РєРЅРѕРІ
Home
РЎРѕРѕС‚РІРµС‚СЃС‚РІРµРЅРЅРѕ
РђР·РёРё
Р»РµРє
##РїСЂС„
##iti
##РјРёРё
##asy
РІРјРµРЅСЏ
##РєРѕРІСЃРєРёР№
Reuters
РІРµР»РѕСЃРёРїРµРґ
Р·РѕР»РѕС‚Рѕ
СЃС‚Р°С‚РµР№
##С‚С‹РІР°С‚СЊ
РїРѕР·РѕСЂ
СЃСѓРјРјС‹
РјСѓРЅРёС†Рё
РїСЂРёРІР»РµРє
РјРµС‚Р°Р»Р»Рё
Р°Р±СЃСѓ
РЎРµРІ
project
С‚СЂРµР±РѕРІР°С‚СЊ
1500
##rus
##Р»РєРѕРІ
##С€РµС€СЊ
СЃРѕСЃС‚Р°РІРёР»
##РёРІР°СЋС‚СЃСЏ
##РјРµРЅСЏР»
РєР»РµС‚РєРё
РєРѕР»С…РѕР·
СЂР°Р·РјС‹С€
App
СЃСЂРѕРєРё
РєРѕСЂР°Р±Р»Рё
ass
Р°РєРєСѓСЂР°С‚РЅРѕ
Nature
РїСЂРµСЃС‚СѓРїР»РµРЅРёРµ
1072
РїРµСЂРІРµРЅ
РІРЅСѓС‚СЂСЊ
РЅРµРєРѕС‚РѕСЂС‹Рј
##РїР»РµРЅРёРµ
РєРѕР»Р»РµРіРё
SS
РЅР°СѓС‡РЅС‹С…
XVII
РєРѕС‚Р°
РҐРѕСЂ
РїРѕСЏРІР»РµРЅРёСЏ
РјРµРґР°Р»Рё
РїРѕР»РµР·РЅРѕ
РєРѕРјРјРµРЅС‚
Р™РѕСЂРє
Р•РіРёРї
vi
СЂСѓСЃСЃРєРѕ
140
РїСЂРѕРµРєС‚Рё
Р°РєС‚С‘СЂ
free
РѕС‚СЃСѓС‚СЃС‚РІРёРё
РЇРІР»СЏ
СЂР°Р·СЂРµС€РµРЅРёРµ
СЃСѓС‰РµСЃС‚РІРѕРІР°С‚СЊ
РІСЃРєСЂС‹
Sun
Act
СЃСЂРµРґРµ
РјРёР»
##ding
С‚СЂРѕРµ
РѕС‚РїСѓСЃРє
Р±СѓРј
РџРѕС…
СЂР°Р·Р±РёСЂР°С‚СЊСЃСЏ
РѕРїР»Р°С‡Рё
##Р—Р°
СЃРЅР°СЂСѓР¶Рё
РєРѕРјРїРѕРЅ
Р°РјРµСЂРёРєР°РЅСЃРєРѕР№
РїРѕРґРґРµСЂР¶РєР°
РњР°РєСЃРё
РєРѕРјРјСѓРЅР°
##ett
РЅРµР№СЂРѕ
sub
##Р“РЈ
СЃРѕРѕР±С‰РµСЃС‚РІР°
Р¶СѓСЂРЅР°Р»
РїСЂРѕР±Р»РµРјРѕР№
##СЉРµРє
РїСЂРёСЂРѕРґ
Georg
РґР°РІР»РµРЅРёСЏ
РґРёСЂРµРєС‚РѕСЂР°
СЃС‚Р°С‚РёСЃС‚РёРєР°
РёСЃСЃР»РµРґРѕРІР°РЅРёРµ
Andrew
##РґРёРјСЃСЏ
Р°СЂРіСѓРјРµРЅС‚С‹
Р­Р»Рё
СЃРїСЂР°РІРµРґР»РёРІРѕСЃС‚Рё
РїРѕРґРїРёСЃР°Р»
Р§Р°СЃС‚СЊ
СЌРєСЃРїР»СѓР°С‚Р°С†РёРё
Р¤РёР»
СЂР°Р±РѕС‡РёРµ
РґРЅСЏС…
##ness
Mario
##С…СѓСЏ
##ani
##СЃРїРё
God
РњР°СЂРёСЏ
##С„РµРє
С‡Р»РµРЅС‹
##Р±Р»Р°
РѕСЃС‚Р°СЋС‚СЃСЏ
##anov
Р¦РµРЅС‚СЂР°
РєСЂР°СЃРѕС‚Р°
Р±РµР»С‹С…
РїСЂРѕРЅРёРє
РґРІРѕСЂСЏРЅ
Bad
Р±РѕР»СЊРЅРёС†Сѓ
РҐРѕР»
Р·Р°РјРµСЂ
##РјР°Р№
##РїРѕР»Рµ
РїСЂРѕС€Р»РѕРµ
##Р±РёС‚СЊСЃСЏ
В»?
РєСѓР±Рё
СЃСЂР°РІРЅРµРЅРёСЏ
##СѓРЅРµ
СЃР»Р°Р±
Р“РµР№
РїРѕР»РѕСЃ
РЎСѓС‰Рµ
РєРѕР»РµСЃР°
РєСЂСѓС‡Рµ
fi
##pr
РјРµР¶РґСѓРЅР°СЂРѕРґРЅС‹С…
125
Р‘РµР»РѕСЂСѓСЃСЃРёРё
С…РѕР»
XIV
РЈРІС‹
РґРµР»Р°Р»Р°
РЎРїРё
РЎС‚Р°Р»Рё
Online
Р Р‘
##ella
##РІР»РёРЅ
Р’РёРґРµРѕ
Р·Р°РЅРѕРІРѕ
РїРѕРЅСЂР°РІРёС‚СЃСЏ
Р±РµСЂРµС‚
СЃРµРІРµСЂРµ
##С‚СЂРµ
СЃС‚СЂРµР»СЊ
Р¶РµРЅС‰РёРЅСѓ
Р·РѕРЅРµ
СЃР»РµРґСѓСЋС‰РµРј
РРІР°РЅРѕРІРёС‡
РѕСЃРё
Р±СЂР°Сѓ
СЃРІСЏС‰РµРЅ
РїСѓР·С‹
С„РёР·РёС‡РµСЃРєРё
##РјРµРЅС‚РёСЂРѕРІР°С‚СЊ
РјСѓРґР°Рє
##РґРёРІРёС‚РµР»СЊРЅРѕ
СЂРµС„
##РЅСЊРєСѓ
СЌРєСЃРїРµСЂС‚
РЅР°СЃС‚Р°Рё
##РЅР°Р±
С€РёСЂРѕРєРѕ
РјРѕС‰РЅРѕСЃС‚Рё
##РґСЂСѓ
open
РєРѕР»Р»РµРєС‚РёРІ
РЅРµРґРѕРІРѕР»СЊ
##СЃС‚РѕРЅ
Hot
РґРµРґ
Р±Р°Р±РєРё
РєСѓС…РЅРµ
run
РћС‚СЃСЋРґР°
XII
С„Р°С€РёСЃС‚
С„Р°РјРёР»РёСЏ
##РґС†Р°С‚Рё
РґРѕСЂРѕРіР°СЏ
СЃРѕРІРµС‚С‹
РїСЂРµРёРјСѓС‰РµСЃС‚РІРµРЅРЅРѕ
РџР°С‚
РѕР±СѓС‡РµРЅРёСЏ
Р·Р°РЅРёРјР°Р»
Р–РµР»Р°
СЃР»С‹С€Р°С‚СЊ
РЅРµРІР°Р¶РЅРѕ
Р·Р°СЃС‚
EP
Р”Р°Р»
СЃРёР»Рѕ
СЃРѕРІРїР°Рґ
Р±СЂРѕСЃРёС‚СЊ
РёР·Р±Р°РІРёС‚СЊСЃСЏ
РќР°РёР±РѕР»РµРµ
РѕР±СЃСѓР¶РґРµРЅРёСЏ
РІРІ
С†Р°СЂСЏ
РїСЂРѕСЃРёР»
##С‚РЅРёРє
101
##СЃС‚СѓРїР»РµРЅРёРµ
РґРµСЂРµРІСЏРЅ
РЁРѕ
С‡РµР№
С‡РµС‚РІРµСЂРі
Р РёС‡
РїРµСЂРµРїРё
РїС‹С‚Р°Р»Р°СЃСЊ
##way
##С„РёРєСЃРё
СЃРєР°С‡Р°С‚СЊ
Р±РµРЅР·РёРЅ
color
РїСЂРёС†Рµ
РІС‚РѕСЂРЅРёРє
##herj
Р·Р°РїР°РґРЅРѕР№
СѓР»РёС†
##РїСЂРµРґ
Point
РѕРєСЂСѓРіРµ
СЃС‡РёС‚Р°Р»Рё
РїС‹С‚Р°РµС‚РµСЃСЊ
РїРѕР№Рј
Р–Р°РЅ
РёР·СЂР°Рё
РќР°С‚
РїСЂРѕРІРµР»Рё
СЃРµРјРё
РїРѕСЃС‚СЂР°РґР°
СЃРµРєСѓРЅРґС‹
##РµРЅРёС‚
РїСЏС‚РЅРёС†Сѓ
РѕРєСѓ
С†РµРїРѕ
Р¶РµР»РµР·РЅРѕР№
РєР°Р±РёРЅ
einherj
РҐРµ
РѕСЂРіР°РЅРёР·Р°С†РёР№
РІРѕР»РЅ
РђРЅРі
СЋРіРµ
С‚СЂР°РґРёС†РёРё
РІС‹С…РѕРґРµ
РµР¶
##РїР°С‚СЊСЃСЏ
РїСЂРѕРІР°Р»Рё
РєРѕР»РѕРЅРё
Victor
РґР°Р»Р°
РјРЅРѕРіРѕРј
Р»РёС‡РЅС‹Р№
РѕС€РёР±Р°СЋСЃСЊ
Р•РІРіРµРЅРёР№
human
РїСЂРµР±С‹
Second
РЅРёС‚СЊ
##ha_
##С‡РєР°Рј
РїРёС€РµС‚Рµ
РЅРµР·РЅР°РєРѕ
С…СѓР»Рё
##РґРѕРЅРµ
РїСЂРёСЃР»Р°
Entertainment
РїРµСЂРёРѕРґР°
РїРѕРґРїРёСЃС‹
РїРѕР»РѕРІРёРЅРµ
РҐСЂСѓ
##СЃС‚РІРѕРІР°Р»Р°
С„Р°РЅ
##РґРёС‚РµР»Рё
##РїРѕРІРµ
##СЃРѕР»
##С‚СЏРЅСѓС‚СЊ
##СЊСЏРјРё
##Р·Р°С…
Р·РµРјРµР»СЊ
action
РїРѕРѕР±Рµ
СЃС‚СЂРµР»СЏС‚СЊ
##Р—Рђ
СѓС‡РёС‚РµР»СЏ
С„Р°РєСѓР»СЊС‚РµС‚
##zer
Tim
##una
##iro
РїРѕРІРѕСЂР°С‡Рё
РїРµСЂРµР±
РћСЃРѕР±
РљРѕРјРјСѓРЅРё
##oci
Р”Р°РЅ
РїРѕРµС…Р°С‚СЊ
СЃРѕР·РґР°РЅРёРё
РІС‹СЂ
СЌРЅРµСЂРіРѕ
Р»СѓРє
##РІР°С‚РµР»Рё
##С€С‚Рµ
##РќРљ
РїРѕР·РІРѕР»РёС‚
РјРµС‚Рµ
Р»РёС‡РЅС‹Рµ
Р–РёР·РЅСЊ
РЎРІРѕР±Рѕ
РРѕР°РЅ
every
People
РќР°С…РѕРґ
РЅРµСѓРґР°С‡
Р±Р°СЃСЃРµ
##gr
СѓСЂРѕРІРЅРµРј
РїРµСЂРµС‡
СЂР°Р·СЂРµС€РµРЅРёСЏ
РЎРёРЅ
СѓС‚РІРµСЂР¶РґР°С‚СЊ
РјРµРЅС‚Р°
РёСЃС…РѕРґ
Miss
РІСЃРїС‹
anti
##illa
##РЅРѕРІС‹Р№
РіСЂР°Р¶РґР°РЅСЃРєРѕР№
РїСЂРµРґСЃС‚Р°РІР»СЏРµС‚Рµ
РєРѕРїРµ
Ford
##СЂРѕР»
С„РµРЅРѕ
##РµРЅСЊРµ
Р¶РёРІРµРј
Р±РѕРіРѕ
Dan
СЂР°СЃРїР»Р°
РРёСЃСѓ
РІРІРµСЃС‚Рё
СЃС‚Р°СЂС€РёР№
РѕС‚РЅРѕСЃСЏС‚
РїСЂРѕРїР°РіР°РЅРґР°
Sam
СЂРёСЃРєРѕ
С‡Р°СЃС‚РµР№
РџРѕРІС‚Рѕ
РЈРєР°Р·
РјРµС‚Р°Р»
СЂР°Р·РјРµСЂРѕРј
С‚РѕР»РєРѕРј
РґРµР¶Сѓ
Р Р
РЅР°С‚
С…РѕР·СЏР№СЃС‚РІР°
РРіРѕСЂСЊ
Р»РёР±РµСЂР°Р»С‹
Р·Р°Р±Р»РѕРєРё
РґРѕС…РѕРґР°
РњРµСЂРєСѓ
РїРѕРґС‡РµСЂРєРЅСѓР»
РјР°СЃСЃРµ
Mount
РѕС‚СЃС‚Р°РІРєСѓ
Р»РµРіР°
##РґР°РЅР°
РІРѕР·РґСѓС…Рµ
##Р»РµР±
РїСЂРёРјРµСЂРѕРІ
РІРѕСЋ
СѓС…Сѓ
РµР·РґСЏС‚
СѓС‡Р°СЃС‚РЅРёРє
РїСЂРѕС…РѕРґСЏС‚
NAS
Project
РђРІСЃС‚СЂР°
СЃРµРєС‚РѕСЂ
СЃР»РѕР№
##Р¶РґРµРЅРёСЋ
СЃР»СѓС‡Р°СЏ
Р®СЂРёР№
##СЃРєР°РЅ
СЃСѓРґСЊР±Р°
РѕРїРµСЂР°С†РёСЋ
РјРѕС‚РёРІ
RS
РІРѕР·РґРµР№СЃС‚РІРёСЏ
С‚СЂРѕР»Р»Рё
СѓСЃС‚Р°РЅРѕРІР»РµРЅ
##Stal
РїСЂРѕРґРѕР»Р¶РµРЅРёРµ
##ues
Р±РѕРёС‚СЃСЏ
##cus
РїРѕР·РІРѕР»СЏСЋС‚
Be
РЅР°РїСЂР°РІР»РµРЅ
РіРѕР»РѕСЃРѕРІР°РЅРёСЏ
##Р·Р°С†РёРµР№
##РєРѕС‚
Fort
С€С‚Р°Р±
##РїСЂРµСЃСЃ
##СЃС‚РІРµРЅРЅРѕРј
##С€РµРЅРЅРѕР№
РїРѕРµР·РґРєРё
СЂР°СЃСЃР»РµРґРѕРІР°РЅРёРµ
##any
РІС‹Р·РІР°С‚СЊ
РґРѕС‡РµСЂРё
##ori
РІС‹СЃРѕС‚Рµ
IX
РїРѕР»РЅРѕРјРѕ
##55
РїР°СЂР°С€
##РїР°СЂРё
Р‘Р°Р№
Р·Р°РїСЂР°РІ
Р’Р°РЅ
##DI
РЅРѕСЃРёС‚СЊ
СЃРїСЂР°С€РёРІР°С‚СЊ
РРЅРґРёРё
СЃРѕСЃС‚Р°РІРёР»Р°
Р°РІР°СЂРёРё
РёСЃРєР»СЋС‡Р°
##Р»РѕС‡РєСѓ
РїСЂРѕРёСЃС…РѕР¶РґРµРЅРёСЏ
Р±СЂРѕСЃРёР»
Р•РґРёРЅСЃС‚РІРµРЅРЅРѕРµ
Line
##СЋС‰РµР№СЃСЏ
##oen
СЃРєРѕРЅС‡Р°Р»СЃСЏ
Most
##isk
Gold
Р»РµС‚РёС‚
РѕСЃС‚СЂРѕРІРµ
РјРѕРґРµСЂ
РњСѓСЂ
Р±РµРі
РїСЂРѕС…Рѕ
Р°СЂРѕ
Р”Р¶РµР№Рј
Р»РµС‡РёС‚СЊ
РґР»РёРЅРѕР№
С…РѕСЂРѕС€СѓСЋ
РІР·СЂС‹РІР°
1090
##РЅРѕСЃС‚СЏС…
РїРѕР»СѓС‡С€Рµ
syn
СЃР°РјСѓ
Р±РѕСЏС…
РїРѕС‚РµСЂСЏР»Рё
##hin
##С‚РєР°С…
РїРµСЂРµРё
##РќРµ
##СЂР°С†РёСЏ
РїРѕРІР°
РјС‹С€Р»РµРЅРёСЏ
Valley
РґРѕР±СЂС‹Р№
Р¶РµР»Р°РЅРёРё
РІРѕСЃС‚РѕС‡РЅРѕР№
СѓРµС…Р°Р»
##Р»РєР°РјРё
##onyx
Р¤РµСЂ
Model
СЂР°СЃС‚СЏ
РѕС‚РєСЂС‹Р»
Р°Р±Р·Р°
РєРѕРЅС‚СЂРѕР»РёСЂРѕРІР°С‚СЊ
##fi
РёРјРїСѓР»СЊСЃ
РІС‹РІРµСЃС‚Рё
СЂРµР·СѓР»СЊС‚Р°С‚Р°Рј
С‚СѓРїС‹Рµ
РќР°С†РёРѕРЅР°
СЃС†РµРЅР°СЂРёР№
##РїСЂРѕРµРєС‚
##ins
РїРµСЂРµРґРІРё
Р·Р°РіРѕР»РѕРІ
С‚РµРѕСЂРёСЋ
##gar
СЌРєСЃС‚СЂР°
РІСЂР°РіРё
##РіР°РµС‚СЃСЏ
РѕСЂР±РёС‚С‹
##ille
РїР°С†РёРµРЅС‚
##С†РµРІР°
##РЅРѕРІС‹С…
news
##osha
РќР°СЃС‚РѕСЏ
РѕС‚РґРµР»РµРЅРёРµ
Golden
РІРµСЂРёС‚Рµ
СЃР»РµРґСѓСЋС‰РµРµ
С‚СЋСЂСЊРјСѓ
РќР°Р№
РґРёСЃРєСѓСЃСЃРёРё
##san
##ike
##39
Carlo
РїРѕР№РґСѓС‚
##РЅСЃРєРѕР№
РјСѓР·РµСЏ
##Р¶Р°СЋС‚СЃСЏ
PC
РћР»РµРі
.).
РїСЂРѕС‚РµРєР°РµС‚
##ful
DC
РЎРёСЃС‚
С†РµР»Рѕ
##38
РІРЅРёР·Сѓ
РЅРµР±Рµ
Sur
РєРѕРјРµ
С‚СѓСЂРЅРёСЂ
Corporation
##РЅРѕРІРёС‡
##С–РЅ
РєРѕРЅС†РµСЂ
##РІРµР»Р°
РЅР°РїРѕР»
СЃРєР°Р¶СѓС‚
##Р¶СѓСЋ
РїРµСЂРµР№С‚Рё
РђРјРµСЂРёРєРё
РђРєР°РґРµРјРёРё
РѕС‡РєРѕРІ
РџРѕСЃР»СѓС€Р°Р№
##С„РѕСЂРјСѓР»Рё
Р’РЅРµ
##РґРЅРѕРјСѓ
РІС‹СЃС‚СѓРїР»РµРЅРёСЏ
РјР°СЃСЃРѕРІРѕ
С„РѕС‚РѕРіСЂР°С„
РЅРµРЅ
РЁР°С‚С‚
##Р±Р°СЂРґРё
РџР°РЅ
РЎРљ
РѕРїРµСЂР°С‚РёРІ
РІРєР»Р°РґС‹
РѕР±РІРёРЅРµРЅРёСЏ
РЎРјРѕ
##uar
##РќР 
##РјР°Р»
РјСѓРЅРёС†РёРїР°
##set
РСЃРїРѕР»СЊ
РґРѕРіРѕРІРѕСЂР°
С‚РІРѕРµРјСѓ
РїСЂРёРІРµР»Рё
##Р¶Р°Р№С‚Рµ
РёР·РІСЂР°
Gen
##_d
##РїР°Рј
СЃС‚Р°РґРёРё
put
СЂСѓР±Р»СЏ
Games
РїРѕР»РёС‚РёС‡РµСЃРєРёРµ
РІРёСЂСѓ
Out
РЅР°РїР»Рµ
РґРёРІРёР·РёСЏ
РґР°Р№С‚Рµ
##СЂРёРЅРѕРІ
РЅРµСЂР°
1280
##СЂР°РµС‚
СЃРїР»Р°
РЅР°РЅРµСЃ
РёРЅСЃРїРµ
##С‘РЅРЅС‹Рј
Who
РёР·РІРµСЃС‚РЅС‹С…
РџР°С‚СЂРё
105
СЂРѕСЃСЃРёСЏРЅРµ
Roy
РѕС‚СЃР»Рµ
РєРѕРЅС†РµРЅС‚СЂР°
##Р»СЏС‚РѕСЂ
176
СЃСѓРїСЂСѓРі
СЂР°Р·РЅРѕРѕР±СЂР°Р·
РїСЂРѕС‚РёРІРѕРїРѕР»Рѕ
РљР»РёРјР°С‚
СѓС‡РёР»СЃСЏ
##С‰РёРµСЃСЏ
РџРѕСЌ
Р°РєСѓ
Р±С‹РґР»Рѕ
If
РёС‰Сѓ
##РЅРѕРІС‹Рј
РћСЃС‚Р°Р»СЊРЅС‹Рµ
Post
РґРѕР¶РґСЊ
Р¶РёСЂ
##ments
РІСЂР°РіР°
РѕС„
Р’Р
Р§Р°СЂ
РїР°СЂРє
СЃС‚Р°СЂС€Рµ
РѕР·РµСЂР°
Р·Р»Р°
СЃСЂРµРґСЃС‚РІРѕ
Р±РµР¶Р°С‚СЊ
РїСЂРѕРіСЂРµСЃСЃРё
Р—Р°РІС‚СЂР°
РїРѕР»СѓС‡РёР»СЃСЏ
РІСЃС‚СѓРїРёР»
РІС‹РїРёС‚СЊ
##С‚РѕСЂР°РјРё
СЃРµСЃС‚
Foundation
СѓС‚РІРµСЂР¶РґР°РµС‚
РџСЂРѕРІРµСЂ
Sin
РєРѕСЂРµР№
РїРѕРµС…Р°Р»
##РµРІС‹Рј
##РІРєРµ
РіСЂСѓР·Рѕ
##ose
РІР»Р°СЃС‚РµР№
РІРѕР·РѕР±РЅРѕРІ
СЃРµСЂС‚Рё
СЃРєР°РЅРґР°
Р Рљ
Р¶РёРІРѕС‚РЅРѕРµ
РїСЂРѕРёР·РІРµРґРµРЅРёСЏ
РґРёР·Рµ
РїРѕСЃС‚СЂРѕРёР»Рё
СЃС‚РµСЂРµ
Р¤СЂРёРґ
РІРµСЂРµ
##nar
РїСЂРѕРёР·РѕС€РµР»
РїСѓС‚С‘Рј
##ces
РїРѕРІРµРґ
СЃРѕРїРµСЂ
РЎРёР»
Р‘СЂ
##РёРІР°СЏ
##РЅРёР»РёСЃСЊ
РїРѕСЃС‡РёС‚Р°
РґРµР»Р°Рј
РњРёС‚
##РґРµРЅРёРё
СѓСЃРёР»РёСЏ
Pacific
##РђРЎ
РґРёРїР»РѕРјР°С‚
С„РёСЂРјС‹
##fe
##С‚РµСЃ
stand
Р±РёР»РµС‚С‹
##С€РЅС‹Рµ
РёРґРµР°Р»СЊРЅРѕ
##РїСѓСЃС‚РёРј
san
СЃСЂР°РІРЅРµРЅРёРµ
РґРёР°РіРЅРѕР·
РїРµС€РєРѕРј
Master
Р·Р°Р№С‚Рё
Р¶РµРЅРµ
РЅРѕСЂРјР°Р»СЊРЅР°СЏ
РћРєР°Р·Р°
С‡РёРЅРѕРІРЅРёРєРё
РњРёСЂРѕ
СѓРІРµСЂРµРЅРЅРѕ
РјР°Р»СЊС‡Рё
РљРµРї
##РіР°С‚СЊСЃСЏ
РїРѕРґРІРµСЃ
СѓРїРѕСЂРѕ
РїРѕРґРІРѕРґ
РєР°Р¶РґС‹Рµ
РѕР±РѕСЂСѓРґРѕРІР°РЅРёСЏ
РђРєС‚
РЅР°С€РµРјСѓ
РґРІРѕСЂРѕРІ
##С†РёРїР»Рё
С„СѓРЅРєС†РёРё
##РЅР°РґС†Р°С‚СЊ
РѕС‚РЅРѕС€РµРЅРёСЏС…
Р’РїРµСЂРІС‹Рµ
Web
РѕР±РіРѕ
##oi
##РґРёР»Рѕ
##ante
##С‚РёР·Рј
СЂСѓР±Р°
С‚Р°СЂР°
РџР°РїР°
СЃР»С‹С€Р°Р»Р°
РљРџРЎРЎ
Mutter
Kingdom
##РіРµР»СЊ
##РґРµРЅС‚
СЃРїРµС†СЃР»СѓР¶
РіР»СЏРґСЏ
РђРІСЃС‚СЂР°Р»РёРё
РІРµРЅС‚Рё
##РЅСЋРґСЊ
Story
Р‘РѕР»СЊС€РѕР№
Ass
Р·Р°РїСѓСЃС‚РёС‚СЊ
С‚РµРѕСЂРµС‚РёС‡РµСЃРєРё
РїРѕСЃС‚РµРї
РЅРѕСЂРјС‹
РЅРµРё
Russia
Р·Р°РїСѓСЃРєРѕРІ
С…Р°Рј
Р РџР¦
РїСЂРѕРїРѕСЂ
Р¦Рљ
РєРѕРјРїРµРЅСЃР°
РїРѕРґРѕР·СЂРё
РіРѕСЃСѓРґР°СЂСЃС‚РІРѕРј
Р°РјРµСЂРёРєР°РЅСЃРєРѕРіРѕ
РњР°СЂСЃРµ
СЂРµРєРѕРј
РјРµР»СЊ
РїРѕСЃРјРµ
##mar
##РўРЎ
РЅР°Р»РµРІРѕ
##С„РёРє
РёР·Р±РёСЂР°С‚РµР»РµР№
РєСЂР°СЃРёРІР°СЏ
С‚РѕРІР°СЂРёС‰Р°
Р—Р°Р±Р°
РЅР°СЃС‚Сѓ
С„СѓРЅРґР°РјРµРЅС‚Р°
").
##Р°Р»СЊРЅРѕРјСѓ
СЂР°СЃРїРѕР»РѕР¶РµРЅС‹
Р±РёР»Р°
Р‘Р°С‚
##С‹СЂ
РїРµСЂРµРіРѕРІРѕСЂС‹
РїСЂРµСѓ
Р’С‹СЃРѕ
##ournal
""
РѕРєСЂСѓР¶Р°СЋС‰РёС…
РїРёРє
РѕР±С‰РµРµ
СЃСѓР±Р±РѕС‚
РІС‹Р±РѕСЂР°РјРё
##РіР°Р№
РџРµСЂРІРѕРµ
##Р»РµРЅРЅРѕСЃС‚СЊ
##РїСЂР°РІРѕ
РїР°Р»СЊС†РµРј
РѕС‚РїСѓ
РџРѕСЂРѕС€РµРЅРєРѕ
##Р•Р™
РїРѕРµС…Р°Р»Рё
РџРќ
РїР»РѕС…Р°СЏ
Order
eng
РјР°Рј
##РґР°СЋ
С‡РµРјРїРёРѕРЅРѕРј
##СЃС‚С‹Рј
Р°СЂРјСЏРЅ
##С‡РµС‚Рµ
Va
##eta
РІРёРєРёРїРµ
РњРµРґРІРµРґ
РІС‹СЃРѕРєРёР№
##ifir
РїСЂРёРґРµСЂР¶Рё
СѓРІР»Рµ
РґРµРІСѓС€РµРє
РџР°СЂРёР¶Рµ
РР·СЂР°РёР»СЏ
Port
sm
##СЃРєРѕС…РѕР·СЏР№
РіСЂР°Рґ
СЂР°СЃСЃС‚СЂРѕР№
РџСЂРёРЅ
##РёРґС‹
Sea
РІРѕР»Рё
РєРѕРјРїРµРЅСЃРё
СЂРµРіРёСЃС‚СЂР°С†РёРё
РїСЂРѕРёСЃС…РѕРґРёР»Рѕ
С„СѓРЅРєС†РёРѕРЅР°
РўРђРЎРЎ
С‚РµСЂСЂРёС‚РѕСЂРёСЏ
РёРјРµРЅРµРј
Р›РѕРЅРґРѕРЅРµ
##РµРЅС‚Сѓ
РїСЂРѕР»РµС‚Р°
СЃРІРёРґРµС‚РµР»СЊСЃС‚РІ
РЎРїРёСЃРѕРє
Р­С‚РѕРіРѕ
Bo
РР
##РіР°СЋ
##wood
Р·Р°С‰РёС‚РёС‚СЊ
РїСЂРѕРїРёСЃР°
РїРѕС‚РµСЂСЏС‚СЊ
СЌР»РµРјРµРЅС‚С‹
Р›СѓРЅС‹
РЅРѕРІРѕСЃС‚РµР№
##ete
##СЂС‚Рµ
Part
СЌРїРёР·РѕРґ
С‚РІРѕРёРј
!..
СЃРЅР°СЂСЏ
РґРёСЃС‚Р°РЅ
##Р»РµР»
РЅРµР·Р°РІРёСЃРёРјРѕ
СЃС‚РѕР»РёС†С‹
РіСЂР°Р¶РґР°РЅРёРЅР°
##Р»РёС†
##chifir
РіР»Р°РІРЅС‹С…
РІРѕР·РіР»Р°РІРёР»
РїРѕР¶Р°СЂ
РґРІРёР¶Сѓ
##ha_chifir
РёРЅС‚РµР»Р»РµРєС‚Сѓ
##hen
leha_chifir
Р»РµР№С‚РµРЅР°РЅС‚
РЅР°СЃРёР»Рё
Р’РѕР»Рѕ
Р‘СЂРёС‚Р°РЅ
СЃРѕСЃС‚Р°РІР»СЏР»Р°
РёР·РјРµРЅРµРЅРёРµ
never
##Р”Рџ
Р›РѕСЃ
РѕР±РёРґРЅРѕ
РЈРјРµСЂ
##СЃСЊРєР°
##РµСЂРµР№
##ood
РІС‹Р·С‹РІР°СЋС‚
РєРѕРјР°РЅРґРёСЂР°
Р±РёР»
РІРѕРµРЅРЅС‹Р№
РЎРµРІРµСЂРѕ
Р”СЂСѓРі
СЃРёСЃС‚РµРјРѕР№
РІР»РёСЏРЅРёСЏ
Battle
РјР°СЂРєРµС‚
Last
РїСЂРёСЃС‚СѓРї
##РЅРґСѓ
##Р»РёРЅРі
##С‚Р°Р¶
РѕСЂРіР°РЅРёР·Рѕ
102
Р¶Р°Р»Сѓ
Can
##СЂРѕРІР°РЅРёРµРј
РїСЂРѕСЃРјРѕС‚СЂР°
РјРµР»РєРёРµ
РїСЂРѕРјС‹
РїСЂРѕР±Сѓ
Р”СЌРІРёРґ
РѕР±РѕСЃ
РџРѕР·РґРЅРµРµ
С„Р°Р»СЊСЃРё
Family
РІР°С‰Рµ
РѕС‚РєСЂС‹РІ
СѓРјРµСЋ
РїРѕС…СѓР№
РЎР»РѕРІ
СЂР°СѓРЅ
РЅРµРІРѕР·РјРѕ
##Р»РµС‚РµС‚СЊ
РђСЂРјРёРё
РµРґСѓС‚
РїСЂРѕС†РµСЃСЃС‹
##ette
РіСЂСѓРїРїРѕР№
##und
С‡СѓРґРµ
СЃР°РјРѕСѓР±РёР№
РєСЂРёС‚РёРєСѓ
РїР°РЅ
РњР°С…
##СЂРµРґРѕС‚Рѕ
РѕР±РµС‰Р°Р»
Р’Р°С€РёРЅРі
Р°РїС‚Рµ
##fer
РІР»Р°РґРµР»РµС†
РѕР±С‹С‡РЅРѕРіРѕ
РґРѕСЃ
##РµСЃРё
РЎСЌРј
Douglas
СЃС‚Р°СЂС‚Р°
СЃСѓС…
СЃР°РїРѕ
СЃРѕР±Р°РєСѓ
##ivo
##РІРёР»РёСЃСЊ
##РґРЅС‹
##РґРµСЂР¶РёС‚
Р”РѕР±СЂС‹Р№
##РІРµР·С‚Рё
Р‘СЂСЋ
СѓРµС…Р°С‚СЊ
РїРѕРјРѕРіР°СЋС‚
Р—РѕР»Рѕ
Р‘СЂРµ
map
##С‚РёРјРµС‚
РЈРёР»СЊСЏРј
Р°РґРјРёРЅРёСЃС‚СЂР°С‚РёРІРЅРѕ
Fox
СЃРїРµС†РёР°Р»РёСЃС‚С‹
Р·РѕРЅС‹
##СЃРѕСЂР°
##С‚СЏРЅСѓ
РґРёР°Р»РѕРі
Р»РёС‚РµСЂР°С‚СѓСЂС‹
С‚РѕС‚Р°
СЂР°РґРѕСЃС‚СЊ
##СЌС„
СЃС‚РёС…Рё
##Р¶РµС‚Рµ
Р¤Р»РѕСЂ
РєСЂРµСЃС‚СЊСЏ
РёРЅС‚РµР»Р»Рё
РѕСЂР±РёС‚Р°
СЃС‚СЂР°С…Р°
РЎРѕР·РґР°
Gordon
##С‚РµР»СЊРЅРѕСЃС‚СЊСЋ
##РЅРµСЃР»Рё
Р’Рњ
##СЂРѕРІР°РЅРЅРѕРµ
РїРѕР·РІРѕРЅРёС‚СЊ
##РєС‚РёРІРЅС‹Р№
СЃРѕРґРµСЂР¶Рё
Civil
РёР·Р±РёСЂР°С‚РµР»СЊ
##get
Disney
Ex
СЃС‚РµРЅСѓ
РєРѕР·
##oz
РљР°Р»РёС„РѕСЂ
С‚РѕРє
С…СѓРґРѕР¶РЅРёРє
ant
РґСЏРґСЏ
Р”РµРІ
СѓСЃРїРµС…Р°
Р’РµСЃ
##С‚РѕРІС‹Рµ
СЃРѕС‚СЂСѓРґРЅРёРєРё
Final
Du
РќРµРѕ
С…СЂР°РјР°
РґР°РІР°Р»
РїРѕСЃС‘Р»РєР°
Р°РІРёР°РєРѕРј
##Р·РёС‚СЊСЃСЏ
##РёРІР°С‚СЊСЃСЏ
Р§РµРјРїРёРѕРЅР°С‚
РђРјРµСЂРёРєР°
СѓСЃРєРѕСЂ
##РђРќ
СЃР»СѓР¶Р±Рµ
РЅР°С‡Р°Р»СЃСЏ
РІСЂР°С‚СЊ
РЇСЂРѕСЃР»Р°РІ
СЃРІР°СЂ
##enko
##С†РёРѕРЅРЅСѓСЋ
СЂРµРєРѕРЅ
##ora
Р°РІС‚РѕСЂС‹
С‚Р°Р»
##С‚СЃ
##Р·РЅРµ
##ych
##С‡РµРЅРЅРѕРіРѕ
Р”Р¶РµРЅ
Р Р°СЃСЃРєР°Р¶РёС‚Рµ
##С‚С‹РІР°РµС‚
##РїРїР°СЂР°
##min
РґРёР°РїР°
РџР°СЂС‚
Р±СЂРёРіР°РґС‹
РґРѕР±Р°РІРёР»
РґРѕРїСѓ
How
СѓР±РёРІР°РµС‚
СѓРїР°РєРѕРІ
РћРј
##РІРµРґРµРЅ
РЅРµР¶РµР»Рё
РќРёРєРѕР»Р°СЏ
РѕРєСЂСѓРіСѓ
РјРѕРЅР°СЃС‚С‹СЂСЏ
РґРѕР»СЏ
##РѕРё
РёРЅР¶РµРЅРµ
СѓРіР°
РѕСЂРіР°РЅРёР·РѕРІР°РЅ
РѕС‚РєСЂС‹С‚РёСЏ
РїРѕРїСѓС‚
СЃР°РјРѕРѕ
РљРѕРјРїР°РЅРёСЏ
РєРѕРЅРєСЂРµС‚РЅС‹Рµ
Р±РѕРє
##С†РёРѕРЅРµ
##erc
РєР°Р»Рё
##less
":
vs
Major
cas
##iya
С‚СЂРµС‚СЊРёС…
350
##СЃСЃРёСЃ
##РµРјРё
РїСЂРёСЃСѓС‚СЃС‚РІСѓРµС‚
##my
Р±Р°Р»Р»Рё
РёСЂРѕ
РєРІР°СЂС‚РёСЂР°
##СЃС‚Р°РІРёР»Рё
РґРµРєР»Р°
##ould
##zza
Р”РёРЅР°РјРѕ
РџРµСЂРІС‹Рµ
##РІР°Р№СЃСЏ
(В«
##ans
РїСЂРѕР¶РёРІР°Р»Рѕ
РїРѕРіР»Рѕ
СЂСѓРєРѕРІРѕРґРёС‚РµР»СЊ
##РјР°С‚Р°
##Р’Р•
РїР°СЂС‚РЅ
СЌР»РµРєС‚СЂРёС‡РµСЃС‚РІРѕ
СЂР°СЃС‚РµРЅРёР№
С„Р°РєС‚Р°
СѓСЋС‚
РїСЂРµРґСЃРµРґР°С‚РµР»РµРј
##С‚РµР»СЊРЅР°
РёР»Р»СЋСЃС‚СЂР°
Microsoft
С€РѕСЃ
##СѓР°
##РґСѓСЋС‚
РґРѕРІРµСЂСЏС‚СЊ
РєРїСЂС„
##vet
Tot
Р»СЋР±РѕРІ
##С‚СЏС‚СЃСЏ
РўР°СЂ
mil
##СЃРєРѕРї
РљРёСЂРѕРІ
РџРµСЃ
##РћРћ
РљР°Р±
Р·Р°СЏРІРёР»Р°
СѓС‚РёР»Рё
РјР°РЅРµРІ
person
РўСѓСЂС†РёРё
РєСЂСѓРїРЅРµР№С€РёС…
black
Р±РѕРєСЃ
РјР°РєР°
СЃС‡РёС‚Р°РµС€СЊ
РїРѕСЂРѕРґ
pot
##oft
СЂР°Р±РѕС‚РЅРёРєРѕРІ
РєР°РјРµСЂР°
Р¦РµСЂ
РќР°Р·РІР°РЅРёРµ
##РґРёС‚РµСЃСЊ
Р·Р°РїРёСЃРµР№
РёСЃРїС‹С‚Р°РЅРёСЏ
##С‚РёС‡РµСЃРєРёС…
СЃРїРµРєС‚Р°Рє
##С‚Р°Р»Р°
Sport
СЃСЂРµРґРЅСЏСЏ
##С„Р»Рѕ
РїР°СЃСЃР°Р¶РёСЂ
Р—Р°СЃ
Р»РµРґ
РіРёС‚Р°СЂ
РЅРµРґР°Р»РµРєРѕ
##unt
109
СЂСѓР»СЊ
С…РѕР·СЏРёРЅ
РЅРѕСЂРјР°Р»СЊРЅС‹Рј
РєРѕРјРїРѕР·Рё
РіРµРЅРѕС†Рё
РќРёРєРѕР»Р°РµРІ
Hong
##С‡РёР»Р°СЃСЊ
СѓСЃР»С‹С€Р°Р»
РЅР°РїСЂР°РІРѕ
РЎРµСЂР±
Р±Р°Р±СѓС€РєРё
РІРѕРїР»Рѕ
Р›СЋР±РѕР№
РїРѕРѕР±
Р·Р°С…РѕС‡РµС‚
СЃС‚СѓРґРµРЅС‚РѕРІ
РёСЃР»Р°Рј
##Р»РµС‚РёС‚
РЅС‹РЅС‡Рµ
РїРѕРєР°Р·Р°РЅРёСЏ
С‚РѕСЂРѕ
РїРѕР»РЅС‹Рј
Heart
Р·Р°С„РёРєСЃРё
##РґРѕРІР°РЅРёРµ
##СЂР°С‚СЊСЃСЏ
РїСѓР±Р»РёРєСѓ
##РІР°РµРјС‹Р№
РїРѕР»РѕСЃС‹
РіСѓРјР°РЅРёС‚Р°СЂ
Р—Р°Рј
РЎР»С‹
Like
РњРµР»
СЃРµР»СЊСЃРєРѕС…РѕР·СЏР№
СЃРѕР»РЅРµС‡РЅРѕ
##Р¶СЊРµ
РЅР°СѓС‡РёС‚СЊСЃСЏ
СЃРѕР±СЂР°Р»РёСЃСЊ
РЅР°С†РёРё
Р±РѕРјР±Р°СЂРґРё
Р±РµР»РѕСЂСѓСЃ
104
##СЂР°СЃС‚Р°
##С†РёР°Р»Рё
СЂРµР°Р»СЊРЅР°СЏ
##С‡РµР»РѕРІРµ
С„СЂР°Р·С‹
С‚РµСЂРїРµС‚СЊ
Р”СѓР±
РІРµСЂС‹
РµРґСЏС‚
##С‚РµС‚СЊ
##СЂР°Р±РѕС‚РєРё
my
РєРЅСЏР·СЏ
Ltd
РѕРєСЂРµ
С‚СѓСЂРёСЃС‚РѕРІ
РџР°РІРµР»
Р“РѕСЃРґСѓРјС‹
РЁРІРµ
РїРѕРєСѓРїР°СЋС‚
СЂР°СЃРїРѕР»РѕР¶РµРЅРѕ
##РїСЂРёСЏС‚
process
РїРѕР»РёРєР»Рё
##34
Р»СЋР±РёС‚РµР»СЊ
Р±РѕР»СЊРЅРёС†С‹
СЂСЋРє
РјС‹С€Р»РµРЅРёРµ
##С‰РµРЅРЅС‹Рµ
РђРї
##РЅРµС„
РЅРµРІРµСЂРѕСЏС‚РЅРѕ
##ama
РІРµС‰РµСЃС‚РІ
РїСЂРѕРґРѕР»Р¶Р°СЋС‚
##Р¶РґРµРЅ
РћР±С‰Рµ
##ola
РџР»РѕС‰Р°РґСЊ
Р”РµСЂРµРІ
РІС‹РЅСѓР¶РґРµРЅ
Wh
РєР»СЏ
##РІРµРґРµРЅРёР№
РЅР°С†РёРѕРЅР°Р»СЊРЅРѕРіРѕ
РґР¶Рё
##РґРёР»Р°СЃСЊ
##РЅРёРЅСѓ
hy
РЎРµР»Рѕ
СЃРѕР·РґР°РЅР°
##РёРЅС‚РµСЂ
РїРµСЂРµРІРµСЃС‚Рё
СЂР°Р·РІР»РµРєР°
РёРґРёРѕС‚С‹
Р Р°Рј
РєР°Р»
РІР·РіР»СЏРґС‹
##РґРЅС‹РјРё
СЂРµР»РёРіРёСЏ
РЅРµР±РѕР»СЊС€Р°СЏ
##С–Р№
РѕС…РѕС‚
СЌРєСЃРїРµРґРё
##ava
pl
РєРѕСЃРјРёС‡РµСЃРєРёС…
РјР°Р»РµРЅСЊРєРёС…
РіРµРЅРµСЂР°Р»Р°
Р·Р°СЃС‚СЂРµ
РґРѕРєС‚РѕСЂР°
РҐРѕСЂРѕС€Р°СЏ
Р°Р»Рё
Р±РµР·РЅР°
РіСЂР°РЅРёС†
##ota
СЃРѕС‡Рё
РЅР°Р·РІР°Р»Рё
Р±РµР·РѕРїР°СЃРЅРѕСЃС‚СЊ
##Р·Р°Р»Рё
СЂР°Р·Р±РѕСЂ
good
СЃРѕС†РёР°Р»СЊРЅРѕР№
РІСЃС‚СЂРµС‡Сѓ
С„РѕС‚РѕРіСЂР°С„РёР№
РїР°СЂР»Р°РјРµРЅС‚Р°
РЅР°РєСЂС‹
##Р»Р»РёРІСѓ
Planet
##РЅР°Р№
РџРѕРІ
##С€С‚Р°Р±
РѕР±СѓС‡РµРЅРёРµ
РїРѕСЃС‚СЂРѕРµРЅ
СѓРµ
##Р”Р 
РѕСЃС‚Р°РІРёР»Рё
Ad
СЂР°СЃСЃС‚РѕСЏРЅРёРё
РЇРІР»РёРЅ
Р’РїРѕСЃР»РµРґСЃС‚РІРёРё
РѕС‡РєРё
СЃС‚СѓРґРёРё
РѕС‚СЃС‚СѓРї
РєРѕСЂР°Р±Р»РµР№
Mic
ev
##Р¶РµРЅРЅРѕР№
СЂР°Р·РґРµР»СЏ
РєРёР»РѕРјРµС‚СЂР°С…
Р·Р°РєРѕРЅРѕРј
РёСЃРєР°Р»
С„РёРєСЃРё
hand
РїРµСЂСЃРѕРЅ
РёР·РјРµРЅРµРЅРёР№
С„СЂР°Р·Сѓ
РҐРІР°С‚РёС‚
РїРѕРґРѕР¶
РїСЂРёРЅС†РёРїСѓ
Р°СЃРїРµ
РєРІР°РґСЂР°С‚
РµР»Рµ
РІР·СЂРѕСЃР»С‹С…
РїРµС‡
##РєС‚РѕСЂС‹
РїРѕСЃС‚СЂРѕР№
Russ
РґРµС‚Р°Р»РµР№
##РЅР°С‡Р°Р»Рµ
source
РїРѕРЅСЂР°РІРёР»Р°СЃСЊ
РєРѕР¶
РїСЂР°РІРѕРј
##СЂС‹РІР°
РЅР°РґРїРёСЃСЊ
РЅРµС…РѕСЂРѕ
РёСЃРїСЂР°РІРёС‚СЊ
##С€С‚РµР№
РєР°РїСѓ
РёРјРїРµСЂР°С‚РѕСЂР°
РѕРєРѕРЅС‡Р°РЅРёРё
С„СЂР°РЅС†СѓР·СЃРєРёР№
РѕРїРїРѕР·РёС†РёСЏ
Р»СЋР±РёРјС‹Р№
СЃС‡РёС‚Р°СЏ
РљРѕСЂРѕР»РµРІ
С€РѕРєРѕР»Р°
РЎС‚Сѓ
РіРІР°СЂРґРёРё
Р’РѕСЃС‚РѕС‡РЅРѕР№
РѕРїСЂРµРґРµР»С‘РЅ
РџСЂРµР·РёРґРёСѓРјР°
РїРёР»РѕС‚РёСЂСѓ
РјР°СЂРєРё
##СЃС‚РІР°С…
##Р»СЊС„
РѕСЃРЅР°
РїРёСЃС‚РѕР»РµС‚
##СЃСЂРѕ
Soviet
РѕРїРµСЂ
СЃРІС‹С€Рµ
РЈРІРµСЂРµРЅ
Business
С‚СЂРµС‚СЊРµР№
##РіСЂРµРґРё
##Р±Р¶Рµ
РІР·СЏР»Р°
РІРѕР·СЂРѕ
РґРѕР±СЂРѕРІРѕР»СЊ
##СЃРёР±РёСЂ
РјРµР»РєРёС…
СЃРґРµР»Р°РµРј
РЎРІРё
РЎРµСЂСЊРµР·
РєСЂСѓРїРЅС‹Рµ
##СѓР¶Рµ
##РµС‚СЂРѕ
РІРѕСЃРїРѕРјРёРЅР°РЅРёСЏ
РЅР°С‡Р°Р»РѕРј
##С‚РЅРёРєРё
##Р»РѕРєР°
РџРѕР»СЊС€Рё
Р¶РµСЂ
Р±Р°Р±Р»Р°
РњРёС…Р°РёР»Р°
:)))
##С€Р°РІ
С„СЂРѕРЅС‚
##inist
##Р»СЏСЋС‚СЃСЏ
РѕР±СЂР°С‚РёС‚СЊСЃСЏ
РёСЃРїРѕР»СЊР·СѓСЋС‚СЃСЏ
##РѕСЃРµ
РР»
РґРѕР±СЂР°С‚СЊСЃСЏ
##С‚Р°СЃРєРё
##Р±РєРё
РєРѕРјРїРµС‚
РІС‹СЃС‚СѓРїР°РµС‚
РЎРІРµСЂ
РїРѕРєРёРЅСѓР»
##С‡РµРјСѓ
##СЂРѕРІР°РЅРЅС‹Рј
РїР°РјСЏС‚РЅРёРє
Р»РёРЅРёСЋ
СЂС„
Р»РёРЅРёСЏ
РІРїРѕ
РљРѕРіРѕ
РїСЂРѕРІРё
get
##С‰РёС‚Рµ
gen
С†РµРЅРѕР№
3000
РљР°Р·Р°С…СЃС‚Р°РЅР°
Р’СЂР°
РїРѕС‚РёС…Рѕ
РЈРЅРё
##Р¶СЊСЏ
РћС‚РЅРѕ
СЂРµС†
РЅРµРЅР°РІРёСЃС‚СЊ
##iga
##vy
РіСЂСѓРґСЊ
##СЏРЅР°
СЂСѓРєРµ
РїСЂРѕС€РµРґ
РЎС‚РёРІ
##РїРѕС‚СЂРµР±
С„СЂ
РџР°РІР»РѕРІ
С‚СЋСЂСЊРјРµ
РњРёРЅРёСЃС‚РµСЂСЃС‚РІР°
РєР°РјРїР°РЅРёРё
##РІСЏС‚СЃСЏ
Р›РµС‚РѕРј
РјРµРј
СЌРЅС†РёРєР»РѕРїРµРґРёСЏ
##Р¶РґР°СЋ
415
РєРѕРјРїСЂРѕ
РєРѕРЅРµ
С‡СЂРµР·РІС‹
РґРІРѕРёС…
РІРѕРїСЂРѕСЃР°Рј
СЃСЂР°РІРЅРµРЅРёРё
РљР°Р»РёРЅ
РїСЂРѕРёР·РІРµРґРµРЅРёР№
РѕР±РµСЃРїРµС‡РµРЅРёСЏ
РїРµСЂСЃРѕ
##Р¶РєРѕРІ
СЂР°РґРѕСЃС‚Рё
Р±РѕСЏС‚СЊСЃСЏ
РЅР°Р·С‹РІР°Р»Рё
СЂРѕРґСЃС‚РІРµРЅРЅРёРєРё
СЃРµРіРѕРґРЅСЏС€РЅРёР№
РѕС‚СЂР°СЃР»Рё
СѓР±Р»СЋ
##РІРЅРё
Will
РЇРІР»СЏРµС‚СЃСЏ
РІС‹СЃРєР°Р·Р°
nev
Boy
##here
РѕРґРµР¶РґСѓ
РЎС‚СЂРѕ
##ries
СЌР»РµРєС‚РѕСЂР°
РђР±СЃРѕР»СЋС‚
##РіСЂР°С„РёСЏ
Р‘Р»
Р¶РёРІРѕС‚РЅС‹Рµ
СЃРѕРµРґРё
##РІР°СЂРґ
##СЃРѕРІРѕР№
##РРљ
##РіР°РЅР°
Р±РёСЂ
Stanley
РјРµР¶РґСѓРЅР°СЂРѕРґРЅРѕРіРѕ
РёРјРµРµС€СЊ
##РґРѕРІРѕ
Р·Р°РЅСЏР»Р°
СЌР№
СЂР°Р№РѕРЅРЅРѕРіРѕ
Р·Р°РјСѓР¶
С‚РµС…РЅРёРєР°
РўСЂР°РЅ
170
РЁР°С…
##РЅРµС‚Рµ
РїРѕРєСЂР°
РїРѕСЃСЂРµРґ
РїСЂРµР»Рµ
РЅР°СЃС‹
##С€РµРЅРЅС‹Р№
##stand
РҐР°РЅ
##С‚РЅРёРєРѕРІ
РїРѕРІРѕСЂРѕ
РјРµР»РѕС‡Рё
РєРѕРјР°РЅРґРѕРІР°РЅРёРµРј
##aria
Р”СЂСѓРіРѕРµ
Human
СЃРѕРІРµСЂС€РёР»
Р±РѕСЂС‚Сѓ
СЃРѕР·РґР°Р»Рё
РІСЃР»РµРґ
Р°СЂРіСѓРјРµРЅС‚Р°
##РєР°Р·С‹РІР°РµС‚СЃСЏ
РєР°С‚Р°СЃС‚СЂРѕС„
##ott
##РґРµСЂРѕРј
РѕРєСЂР°
РҐРѕС‚РµР»РѕСЃСЊ
РјРµС‡С‚С‹
РґРёСЂРµРєС‚РѕСЂРѕРј
СЃС…Рѕ
Middle
СЂР¶Р°
РѕР±С‰Р°СЏ
Р›РµР№
РїРѕРіРёР±С€РёС…
Р§Р°СЃС‚Рѕ
РјР°Р»РµРЅСЊРєРѕР№
РїРѕР±РµРґРёС‚СЊ
РІР·СЂРѕСЃР»Рѕ
СЂРµС„РѕСЂ
РєР°СЃС‚
Р РѕР±РµСЂС‚
change
СЃС‚Р°РІРёС‚
Р­Р»РµРєС‚
fix
СЃСЋСЂРїСЂРё
##РІРµР·Р»Рё
FM
##Р·СЊСЏ
##Р±РєР°
РЅР°Р·РІР°РЅ
Р±Р°РЅРґ
РїСѓР»РµРј
##ias
РїСЂРѕС…РѕРґРёР»
Death
Р»РёРіРµ
С‚РѕС‚Р°Р»Рё
Р Р°СЃСЃС‚РѕСЏРЅРёРµ
РІРѕСЃРєСЂРµСЃРµРЅСЊРµ
РёС‰РµС‚
?&
Р§РёСЃР»РµРЅРЅРѕСЃС‚СЊ
РґРµРІСЏС‚
РўРµР±СЏ
##С‡РµРЅРЅР°СЏ
##vin
РѕС‚РјРµС‡Р°
РґР°РІРЅРѕСЃС‚Рё
РІРёР·Рё
РІСЃРїР»С‹
##Р±СЏС‚
СЂРµР±РµРЅРєСѓ
СѓРґР°СЃС‚СЃСЏ
РЅРµРєРѕРј
##imo
С‚СЏРіР°
Р‘РѕР±
СЂР°РІРµРЅ
РІСЃСЏРєРѕРј
СЌРєР·
РІС‹Сѓ
РІР»Р°СЃС‚СЊСЋ
Р’Р°СЃРёР»РёР№
РљРѕР·
РїРµСЂРµСЃРјРѕС‚
ins
##С‚РѕРІРѕ
СЃРЅСЏР»Рё
СЂР°Р№РѕРЅРѕРІ
РњР°СЂСЃР°
##С‘Р№
РїС‹С‚Р°СЏСЃСЊ
СЂР°Р·РјРµСЂРµ
РЅРµСЃРµС‚
Р‘СЂР°Р·РёР»РёРё
##its
РЈРґ
Р”Рђ
СѓС‡Р°СЃС‚РёРµРј
##26
РєРѕСЂРѕР»СЊ
РєРёСЂ
СЂСѓР±РµР¶
СЃРЅР°Р±
РџСЂР°РєС‚Рё
РџРµС‚СЂР°
РёРіСЂРѕРєРѕРІ
##port
Bell
С‚РµРЅРЅРёСЃ
##ated
##СЃРѕСЋ
РѕР±РјР°РЅС‹
##РІР°РЅРЅР°СЏ
##С„РѕС‚Рѕ
РЈС‚
РјРµСЃС‚РЅС‹Р№
РїРѕРЅРёРјР°РЅРёРё
СѓСЃС‚Р°РЅРѕРІР»РµРЅС‹
РїРѕРµР·РґР°
Р°Р»РєРѕРіРѕР»СЏ
РїРµСЂРµС…РѕРґР°
Р¶С‘Р»
Ze
РЎСѓС‚СЊ
РЅРµРјРµС†РєРёР№
##РїРµС†
СЃРѕРІСЂРµРјРµРЅРЅРѕРіРѕ
СѓРґР°С‡Рё
РїРѕРґСЃР°Р№С‚Р°
РјР»Р°
РїРѕРґРґР°
##РџРљ
##reat
Р“РµРЅСЂРёС…
##РјРёРЅСѓ
РѕР±РЅР°СЂСѓР¶РёР»
РќРµРІ
РџРѕРїСЂРѕР±СѓР№С‚Рµ
С†РёС‚
103
Р—Р°РєРѕ
С…РѕРєРєРµ
СЃРёРґ
РјРѕРґРµСЂРЅ
РђСЃ
РќР°С‡Р°
С‚РѕРЅРЅС‹
##dom
##house
РјРµСЃС‚РЅРѕСЃС‚Рё
РµС…Р°Р»
РѕР±РёС‚Р°
sol
##СЃС‚Р°С…
СЃСЂРµРґРЅРµРІРµ
##ical
##РїРєРѕР№
РЎРѕРµРґРёРЅ
С‚СЂРѕС‚СѓР°
РІРµСЂР°
СЂР°Р·РіРѕРІРѕСЂС‹
##РїР»РѕРј
Р·РІС‘Р·Рґ
СЂРµР¶РёСЃСЃС‘СЂР°
РџРµС‚РµСЂР±СѓСЂРіР°
РѕРґРёРЅР°РєРѕРІС‹Рµ
РјРѕР»РѕРєР°
##leg
РІРµСЃРѕРј
С†РµРЅС‚СЂР°Р»СЊРЅРѕР№
РїСЂРѕРІРµР»
##РіРѕС‚
Р·Р°Р±СѓРґСЊ
##ios
РЅРѕСЂРјР°Р»СЊРЅРѕРіРѕ
СЃСѓРІРµСЂ
РёРЅС‚РµСЂРї
РѕРіСЂРѕРјРЅР°СЏ
РѕР±СЉС‘Рј
Р”РµРІСѓ
СЂР°Р±РѕС‡РµРіРѕ
Ab
Est
СЂРµСЃРїСѓР±Р»РёРєР°РЅ
СЌРєСЃРєСѓСЂ
РјР°СЃР»РѕРј
РЅРёР·РєРѕ
##itch
##С„РёР»СЊ
Р»РёС‡РЅРѕР№
РґРЅРµРІ
##Р±РµСЂСѓС‚
РіСѓР±РµСЂРЅР°С‚РѕСЂ
mid
mod
РїРµСЃРЅСЋ
РґРѕРєР°Р·Р°С‚РµР»СЊСЃС‚РІРѕ
##С‚РѕР»РѕРіРё
##din
Р±СѓРєРІ
РљР°СЃСЊСЏРЅРѕРІ
РЎРІСЏС‚РѕРіРѕ
С‡РµСЂС‚Р°
##ient
СЏРІР»РµРЅРёСЏ
СЃРїСѓС‚РЅРёРєРё
##С‚РµР»Рµ
mon
##РІРµРґРµРЅРѕ
РҐСЌ
С‚С‰Р°С‚РµР»СЊРЅРѕ
РµРІСЂРµРё
low
СЃСЉС‘Рј
##bb
РјР°Р»СЊС‡РёРєР°
СЃС‚СЂРѕСЏ
Ivan
РІР»Рµ
tri
РљР°РєРёРј
СЃРѕРѕСЂСѓ
##С‚РёРЅСѓ
РїСѓРЅРєС‚С‹
СЂРµРєР»Р°РјСѓ
СЃРѕСЋР·Р°
РґСѓС…
##С‰Р°СЋС‚СЃСЏ
РЇСЃРЅРѕ
С‚РµР°С‚СЂРµ
РІС‹РїСѓС‰РµРЅ
Р‘Р°Рі
##РёРЅРєР°
РїРѕРґРіРѕС‚РѕРІРєРё
СѓСЂР°РІ
##РјРѕСЃР°
##С‡Р°РЅ
РћРі
##alo
РіСѓРі
РїСЂР°РІРѕРѕС…СЂР°РЅРёС‚РµР»СЊРЅС‹С…
РґРѕСЃС‚Р°С‚СЊ
##РїРµРґ
##С…Р»Р°
РіРѕРґР°Рј
Р±РѕР»СЊС€РѕРјСѓ
РєР»СѓР±Рµ
Way
РѕР±СЏР·Р°РЅРЅРѕСЃС‚Рё
СЂРµР№С‚РёРЅРіРµ
##РїР°СЂС‚Р°
СЂР°СЃРїРѕР»Р°РіР°РµС‚СЃСЏ
Cross
РёР·РЅСѓС‚СЂРё
РЅР°СЃРѕ
СЃРєР°С„Р°РЅ
Р±СѓС…РіР°Р»
РҐР°СЂСЊРєРѕРІ
РњР°СЃ
##СЌРґ
##500
РїРѕСЃРѕР»СЊ
СЃРєР»Р°Рґ
Р±РѕСЋ
С†РµРЅР·Сѓ
РґРЅРѕ
115
С‚РµС…РЅРёРєСѓ
Light
##РґРёР»РѕСЃСЊ
РїСЂРѕСЃРёС‚
СЃС‹РЅРѕРІ
РўСЏ
СЃРІРµР¶Рµ
ba
##С€РёС‚СЃСЏ
РїСЂРѕРІРµСЂСЏС‚СЊ
РїРµСЂРµРїСЂРѕ
РѕР±РЅР°СЂСѓР¶РёР»Рё
РјРѕСЂСЃРєРѕР№
ku
РЎСѓРї
РІРј
РёР·Р±Рё
РґРµСЂРµРІСЊСЏ
РЅР°РіР»Рѕ
##Р·РёР»СЃСЏ
##СЂРµР»СЊ
С„РѕСЂРјР°Р»СЊРЅРѕ
РїРѕРґРµ
Over
РґРµС‚СЃРєРёР№
РїСЂРёРїР°
##СЂРі
##РєСѓР»СЊ
РґРѕСЂРѕРіР°С…
СЃС‚Р°С‚РёСЃС‚РёРєСѓ
##red
СЂРµР°Р»РёР·Р°С†РёРё
РїРѕРїРѕ
РјРѕР±РёР»СЊ
С€РёР·Рѕ
РїСЂРµРґРїСЂРёСЏС‚РёР№
РєР°РїРёС‚Р°РЅ
РїРѕР»РѕР¶РµРЅРѕ
СЃРєР°Р·РєРё
РІРѕР¶
##orw
РЎСѓРј
СѓРґРѕРІР»РµС‚РІРѕСЂ
РєРѕРјР±РёРЅР°
Р¤РёР»СЊРј
РѕР¶РёРґР°РЅРёСЏ
##РІР°РµС‚РµСЃСЊ
Р—Р°РїР°РґРЅРѕР№
Name
Рґ3
##РЅРёРјР°РЅРёРµ
Р»РµР¶Р°
СЃРѕРіР»Р°С€СѓСЃСЊ
СЃС‚СЂР°С€РЅРѕРіРѕ
РџР°Рї
РЎРѕСЂ
РјРµРЅСЋ
РґРµР№СЃС‚РІРёС‚РµР»СЊРЅРѕСЃС‚Рё
РїР°СЃСЃР°Р¶РёСЂРѕРІ
Р·Р°С†Рµ
РїСЂРѕРёР·РѕС€РµРґ
СЌРјРѕС†РёР№
Р“Р°Р·РїСЂРѕРј
РЅРµРЅР°РІРёСЃС‚Рё
СЂС‹РЅРѕ
##РґС‹С…Р°
РїРѕС…РѕР¶Р°
##РµРІС‹Рµ
РїСЂРѕРґСѓРєС†РёРё
##box
РґРµРјРѕРєСЂР°С‚РёСЏ
##С‘РЅРЅРѕРµ
##РєРѕСЂРґ
РґСѓР±
РІРµС‚РµСЂР°
##РІР°РµРјС‹С…
Р·Р°Рё
!".
##С‚РµСЂРЅ
РІРїРµСЂС‘Рґ
Р‘Р»Р°РіРѕРґР°СЂСЏ
font
РЇРєРѕРІ
С‚РµРєСЃС‚Рµ
light
РґРѕРјСѓ
СЃСѓР±Р±РѕС‚Сѓ
РїСЂРµРјРёСЋ
СѓС‡Р°СЃС‚РєРµ
##Р°РјРµСЂРёРєР°РЅ
##С€РЅРёРєРѕРІ
##mit
С‚РµСЂР°РїРµРІ
##gh
Р·РµРјРµ
РќР°С‡РёРЅР°
С‚СЂР°РЅСЃРїРѕСЂС‚Р°
##ork
Р–Р°
##Р»Р»РµС‚
РјР°РјРµ
СЂСѓРєРѕРІРѕРґСЃС‚РІР°
РёРЅС‚РµСЂРµСЃРЅС‹С…
Р“РµСЂРѕР№
С‡Р°СЃС‚РёС†С‹
РћРђРћ
##Р±СЋ
СѓР¶Рё
РєРѕРЅРІРµСЂ
double
Р°С„СЂРё
СЃРёРґРµР»Рё
РїСЂРµРґРјРµ
РїРµС‡Р°Р»СЊРЅРѕ
СѓРїРѕРјРёРЅР°РµС‚СЃСЏ
РѕР¶РёРґР°Р»
РїРѕРґСЂРѕР±РЅРѕСЃС‚Рё
##Р»С‹Рє
__
Р±Р°СЃСЃРµР№РЅ
Р±РµР¶РµРЅ
Р–РµР»
РєРѕРјРЅР°С‚С‹
РєРѕР°Р»Рё
Р¶СѓСЂРЅР°Р»Рµ
##Р°Р»СЊРЅРѕСЃС‚Рё
РѕС‚СЃСѓС‚СЃС‚РІСѓРµС‚
СЃС…РѕРґ
##СЌС„С„РёС†Рё
##СЃС‚РµСЂРѕРё
Р·Р°Рµ
РЅР°СѓС‡РЅРѕР№
РјРµСЂРѕРїСЂРёСЏС‚РёСЏ
РїР°СЂРЅР°СЃ
##РёРІР°РЅРёРµ
РїСЂРѕСЃРё
220
Marcus
РґРѕСЃС‚СѓРїР°
РїСЂРѕР·СЂР°
111
Р“СЂР°Р¶РґР°РЅ
Р°С‚Рј
С‡СѓРІСЃС‚РІ
Р±СЂ
!&
РєР°СЂС‚РѕС„Рµ
Р·Р°РєР°РЅС‡РёРІР°РµС‚СЃСЏ
СЌС„С„РµРєС‚РёРІРЅРѕСЃС‚СЊ
РїСЂРѕС€С‘Р»
С‚РёРїРѕ
СЏС…
Р·Р°Р±РѕР»РµРІР°РЅРёСЏ
Р’СЃРµС…
РІРµР»РёРєРѕР»РµРї
РљРѕС‚
РїСЂРёРІРµР»Рѕ
СЃРѕРґРµСЂР¶РёС‚
test
РіРѕСЃРїРёС‚Р°
РіРѕРґРѕРј
СЃС‚Р°СЂРѕРіРѕ
##С‚РёРІРЅРѕРµ
РЅР°СЂРєРѕС‚РёРєРё
РїР°СЂР°Р·Рё
РѕС‚РјР°
##oli
РІС…РѕРґРёР»Р°
##РґРµСЂС‹
СЃРїРµСЂРІР°
РЁРёСЂ
##Р¶РєР°РјРё
##РјРѕСЂРѕ
СЃС„РѕСЂРјСѓР»Рё
Р§РўРћ
##РѕР»Рё
Р­Р№РЅ
РєСЂСѓРіСѓ
ISO
РѕС‚РґРѕС…
РІРѕРё
##well
##rot
Р§РёСЃ
##over
РёР·СѓС‡Р°С‚СЊ
РѕРїРёСЃР°С‚СЊ
РёР·Р±С‹
РїРµРґР°
##РќР•
РѕС‚РєР°Р·Р°Р»РёСЃСЊ
РїР°С†Р°РЅС‹
РёР·РѕР±
Р Р°Р±
РљРѕРї
Р”Р°Рі
СЃР°РЅС‚РёРјРµС‚
Р°РЅРіР»Рѕ
Ann
##ions
РџР°Рє
СЃР±РѕСЂРЅР°СЏ
Stand
РІС‹С‚
РЅР°С…РѕРґРёР»Р°СЃСЊ
РЅР°СѓС‡РЅС‹Р№
РєРѕСЂСЂСѓРїС†РёРё
РїРµСЂРµРµС…Р°Р»
Falcon
РѕР¶РёРґР°С‚СЊ
##РјРѕРЅР°
С„РёРЅР°Р»Рµ
РџРµСЂРІРѕРЅР°С‡Р°Р»СЊРЅРѕ
РїР»Р°РЅРµС‚Р°
РєСѓР»СЊС‚СѓСЂР°
Р“РёС‚Р»РµСЂР°
РїРѕРїСЂРѕР±СѓСЋ
СѓРїРѕСЂ
Wild
СѓРіРѕР»РѕРІРЅРѕРµ
РїСЂРµРґСЃС‚Р°РІСЊС‚Рµ
Р¶РёРґ
РїРѕР»СЊР·СѓСЋС‚СЃСЏ
Р·РІР°РЅРёСЏ
СЃРѕР±СЃС‚РІРµРЅРЅРѕСЃС‚СЊ
С…СѓРґРѕР¶РЅРёРєР°
Р±РѕРµРІРё
РџР°Рј
РєРѕРјРїР»РµРєСЃР°
Р·Р°РєСЂРµРї
СЃРѕРіР»Р°С€РµРЅРёРµ
СѓС…СѓРґ
Р»РµРІРѕР№
РїСЂРёРІС‹РєР»Рё
##РІР°Р»Рµ
##27
СѓСЃР»РѕРІРёРё
РёРїРѕС‚Рµ
РђС„РіР°РЅ
С‚РµР·Рё
РќРѕРІР°СЏ
РїРѕРґРґРµСЂР¶Р°С‚СЊ
РѕС‚Р±РѕСЂ
СЃРІРµРґРµРЅРёСЏ
Back
РїСЂРёСЏС‚РµР»СЊ
##СЃС‚РІСѓСЋС‰РёС…
Р“Р°Р»Рё
РЅРµРїРѕРґ
С‚СЂРµР№Р»РµСЂ
Health
РµР¶РµРіРѕ
РЅРёРєР°РєРёРµ
РїСЂРµРІСЂР°С‰Р°РµС‚СЃСЏ
Р’РЈ
СЃС‡РµС‚Сѓ
РџСЂР°РІРѕ
##oon
Р°С‚РјРѕСЃС„РµСЂС‹
РџР Р
Inter
##РјРёР»РёСЏ
СЃРµР»СЊСЃРєРёР№
##РіРёРј
##Р»РµС‚РѕРј
More
СЃС‚СЂР°РЅРЅС‹Рµ
СЂРµР¶РёСЃСЃС‘СЂ
Р°СЂРјСЏ
##СЃС‚РІРµРЅРЅРѕСЃС‚СЊ
РїРµСЂРµРЅРµСЃ
РЇСЂРѕ
СЂРѕРґРёР»Р°СЃСЊ
СѓСЂ
СЌРєР·РµРј
Р”РѕСЂ
Р СЌР№
Р·Р°РєРё
##phin
СЃРµСЂРёСЋ
РєР»РёРЅ
РјРѕС‰РЅРѕСЃС‚СЊ
Р›РµС‚
Р”РЅРµРїСЂ
РїРѕРґСЂРѕР±РЅРµРµ
##РґР°Р№
Р»РѕРіРёРєРё
СЃРµРґ
РјР°С‚СЂРё
РЅР°СЂСЏРґ
##uit
РѕРїРµСЂР°С†РёСЏ
Del
СЃРѕРѕР±С‰РµСЃС‚РІРѕ
РЎРѕР»РЅС†Рµ
##yan
##РіРµС‚Р°
РєСЂСѓРіРѕРј
Р¶РёР»СЊРµ
##СЏС‰РёР№
РєРѕРЅС„Р»РёРєС‚Р°
РЎР°СЂ
##car
Р•РґСЂРѕ
Edition
РѕР±С‰РёРЅС‹
Р‘Р°Р±
Р·Р°РІРёСЃРёРјРѕСЃС‚СЊ
РёРЅС‹С…
С…РѕР»РѕРґ
СѓР±РёР№С†Р°
Р°СЃС‚
РѕС‚РїСЂР°РІРёР»СЃСЏ
РІРІРѕРґ
Р°РєС‚СЂРёСЃР°
РіРµРѕРјРµС‚
РџРѕС€Р»Рё
С‡РµС‡РµРЅ
РєР°РЅР°Рґ
СѓРґРµСЂР¶Рё
РїСЊРµСЃ
Р±РѕРјР±Р°СЂРґРёСЂРѕРІ
Field
СЃС‡С‘С‚РѕРј
Down
Р“СЂРµС†РёРё
##СЂРµР·Р°С‚СЊ
РђРЅР°С‚Рѕ
РњР°СЂРёРё
##РјРїРёР№
Fire
СЃС‚СЂСѓРєС‚СѓСЂР°
##ades
РѕС„РёС†РёР°Р»СЊРЅС‹Р№
С…РѕСЂРѕС€РµРј
РќР°РІ
240
##С‚Р°Р»СЃСЏ
##СЊСЏРЅ
РѕРґРЅРѕРєР»Р°СЃСЃ
РЅР°Р±СЂРѕ
РѕРґРЅРѕСЂР°Р·Рѕ
С„СЂСѓРє
##СЂРѕРІРѕРє
РіСЂР°С„РёРє
РґРёСЃС†РёРїР»Рё
##РіРѕРЅР°
РЎРµР»
СЂР°СЃСЃР»РµРґРѕРІР°РЅРёСЏ
СЂР°Р·РіРѕРІРѕСЂР°
Р·Р°РІРѕРґРµ
СЃРїСѓС‚РЅРёРє
РЎР°Рґ
РћР±СЂР°Р·
РіР»СѓРїРѕСЃС‚СЊ
Р’РµСЂРЅРѕ
Р“РµРЅСЂРё
С‚Р°Р»Р°РЅС‚Р»Рё
##gel
Not
СЃРµСЂРёР°Р»Р°
РїРѕРєСЂС‹С‚
РњРР”
##arm
Studio
СЃРѕС†РёР°Р»СЊРЅС‹С…
СѓРєСЂР°РёРЅСЃРєРёС…
РїРёР°СЂ
СЃРЅСЏР»
РџСЂРѕРІ
Р·РІРѕРЅРѕРє
РїСЂРѕС€Р»С‹Р№
РћРєС‚СЏР±СЂСЊ
Voen
Р±Р°СЃРєРµС‚
С‚РµСЂР°Рє
DJ
РІРёРєРё
РїРѕРІР»РёСЏ
Р·РґР°РЅРёРё
СЃРёСЂРёР№
РЅРµР±РѕР»СЊС€РёРµ
##С€РµСЂ
РіРѕСЃСѓРґР°СЂСЃС‚РІРµРЅРЅС‹С…
РІСЃС‚СЂРµС‡Р°РµС‚СЃСЏ
Р·РІС‘Р·
С‡РёСЃР»РµРЅРЅРѕСЃС‚СЊ
РіСЂСѓСЃС‚РЅРѕ
##ones
РїСЂРёС‡Р°СЃС‚
РїСЂРёРєРѕР»С‹
СЃС‚СЂРѕСЏС‚
##РќРѕ
СЂР°Р·СЉСЏСЃ
РїСЂРёР·РЅР°Р»
Р°СЂС…РµРѕР»РѕРі
РЅР°РєР°Р·Р°РЅРёРµ
РєСЂРѕРІСЊСЋ
##РєС‚РѕСЂСѓ
ptuch
##hed
РѕР±СЂР°Р·Рµ
Р·Р°РјС‹
106
РїРѕРґРґРµСЂР¶РёРІР°СЋ
Moon
РїСЂРµРґРµР»Р°РјРё
РЅР°Р±Рѕ
РїСЂРѕРґР°Р¶Рµ
Fran
РІРѕС€С‘Р»
РЅРµРїСЂРµРґ
##uan
Р·Р°СЂР°Р±Р°С‚С‹РІР°С‚СЊ
РЅРµР±С‹
Р»СЋР±РёС‚РµР»РµР№
##С‚РµРЅРёСЏ
Р¶РµР»Р°СЋ
РѕР±СЃСѓР¶РґРµРЅРёРµ
РјРѕРЅРѕРїРѕР»Рё
##РІРµСЃРё
РќР°С€Р°
Р°СЃС‚СЂРѕРЅРѕРј
РќРѕСЂРІРµ
##sy
Voen47
РјРµРґРёС†РёРЅР°
С‚Р°СЂРё
##С‡СЊСЋ
СѓРјРµСЂР»Р°
СѓРІРёРґРµР»Р°
##_tosha
##61
РІС‹РєР»СЋ
##ule
##sky
Р°РїРѕ
Р›РѕРЅРґРѕРЅ
РўР°РЅ
##mal
##С€РЅРёРє
Free
РўРѕС‡РЅРµРµ
Р”Р°СЂ
РЎРѕС„
Nick
Р”СѓРјРµ
СЃС‚РµРє
РїРѕРґСѓРјР°Р»Р°
Р·Р°С‚Рµ
##РєС‚РёРІРЅРѕРµ
РљРµСЂ
РѕС„С„
РїСЂРѕСЃРІРµС‚
##С‚РєРѕРј
##СѓС‚Р°
Р»СѓС‡С€РёРј
love
РјРµРґРёС†РёРЅС‹
##С‰РµРЅРЅС‹С…
СЃРєРѕРїРё
РѕР±СЉСЏСЃРЅРµРЅРёСЏ
РўРµР»РµС„РѕРЅ
##РђР—
СЃРєР»РѕРЅ
РёР»
Jazz
##РЅСЊРµ
РїРѕСЂР°Р¶РµРЅРёРµ
РљРѕРјРјРµСЂСЃР°РЅС‚
РєР°СЂСЊРµСЂС‹
РіСѓР±РµСЂРЅР°С‚РѕСЂР°
##РЅРµСЂРѕРІ
Val
РЅРёС‰
an_tosha
РџРѕРіРѕ
РІРѕРґРЅРѕРіРѕ
РљР°СЃС‚
РєРѕРЅРєСЂРµС‚РЅС‹Р№
С…СЂРµРЅР°
РіРѕРї
##РІР°РЅРЅРѕР№
РЎРёРґ
##РµРЅРєР°
РїРѕСЃР»РµРґРЅСЏСЏ
РёРЅРґРµР№
СЃРѕРІРµСЃС‚Рё
С€РѕСЃСЃРµ
РЎРѕРІРµСЂС€РµРЅРЅРѕ
РіСЂР°С„Р°
С€Р»СЏ
Sc
СЃС‚СЂСѓРєС‚СѓСЂС‹
Р±СЂР°Р»Рё
РЈРё
РїРѕР№РјСѓ
РєРѕРµРј
##Р¶РµРЅРЅРѕРіРѕ
РіР°Р·РµС‚Рµ
С„РёР»Рё
##СЂСѓР№С‚Рµ
Р Р°РґРё
РЅР°СЃС‚РѕСЏС‰Р°СЏ
СЃРѕС†РёР°Р»РёСЃС‚
С†РµРЅРЅРѕСЃС‚СЊ
РѕР±С‰РµРЅРёРµ
РІС‹С€Рё
unl
С†РµРї
Р±СѓРјР°Рі
##РґРµРєСЃР°
Dark
##С†РІРµС‚
##СЂСЏСЃ
128
##РµСЂС‚РІРѕ
РєРѕСЃС‚Рё
РїРµСЂСЃРїРµРєС‚РёРІ
##ech
РіР°СЂР°РЅС‚РёРё
РёСЃРїРѕР»СЊР·СѓСЏ
РїРѕР»РѕР¶РёС‚СЊ
СЃРѕСЃСЂРµРґРѕС‚Рѕ
175
##stein
С„Р»Рµ
РёРЅСЃС‚РёС‚СѓС‚Рµ
РљРѕРЅСЃС‚РёС‚СѓС†РёРё
С„РёР·РёРєР°
СѓРєСЂРѕ
СЂР°Р·РЅРѕРѕР±СЂР°
РїСЂРѕРµРєС‚РѕРІ
pol
РїСЂРѕС‚РёРІРѕСЂРµС‡РёС‚
##bes
##РЅРёР·Рј
Р·Р°РєР°Р·Р°
СЃРµРІРµСЂРЅРѕР№
##fall
СЃСЃС‹Р»Р°
СѓСЃС‹
Р±Р»РёР·РєРёС…
С‡РµС€
РРѕ
РјР°Р»РµР№
РѕРїР°СЃРЅРѕСЃС‚СЊ
РІРѕСЃСЊРјРё
##РґР°С‡Р°
РљР°Р·Р°С…СЃС‚Р°РЅ
##РµРЅС†РёСЏ
РїРѕРґРѕР¶РґР°С‚СЊ
РЎРµСЂРіРµСЏ
РїСЂРѕС„РµСЃСЃРѕСЂР°
Р¶РµР»Р°СЋС‰РёС…
##Р¤Рђ
РџРѕСЃРјРѕС‚СЂРё
##СЃР°Р»Рё
##uz
РЅР°СЃСЂР°С‚СЊ
РЎР
Anton
##РµРЅСЊРєРёР№
Р”РµРЅСЊРіРё
Med
РїСЂРѕР»Рё
Р‘РµСЂРЅ
##uto
С„РѕРЅРґР°
Hun
##С‚РµР»СЊРЅРµРµ
РџСЂРµР·РёРґРµРЅС‚Р°
РѕР±СЉРµРєС‚С‹
СЃРµСЂСЊРµР·РЅС‹Рµ
##РѕР»РѕРіРёСЏ
##СЊСЃСЏ
РѕС‚РЅСЋРґСЊ
##_m
РёРјРїРѕСЂС‚
РїСЂРёР»РѕР¶РµРЅРёСЏ
Р»СЋР±С‹Рј
##РІСЊС‚Рµ
##СЃР°Рґ
РїРѕРєРѕР№
РїР»Р°РЅРёСЂСѓРµС‚СЃСЏ
СЂР°СЃСЃС‚Р°
РµРїР°СЂС…РёРё
РСЂР°РЅ
cl
РїСЂРёС‘Рј
РРјРїРµСЂРё
##ches
РўРѕРє
Р‘СѓС€
СѓСЂРѕРґ
РѕС‚С‡Р°СЏ
Code
РёСЂ
РІС…РѕРґРёР»
Р»Р°Рї
РєР°РјРЅРё
РІРѕР·РіР»Р°РІР»СЏР»
РїСЂРµРґР»РѕР¶Рё
##СЂРµС‚Рµ
##Р°Р»РёР·Р°С†РёРё
РћС‡
##РґР°СЂР°
Rec
Р‘Р°Рє
РїСЂРёС‡РёРЅСѓ
РїРµСЂРµРІРµСЂ
##РјРµРЅРЅС‹Р№
СЃРѕРІРѕРє
Р·Р°С‰РёС‚Р°
С†Р°СЂСЊ
РїРёР·РґРµ
##ving
СЂР°СЃРїСЂРµРґРµР»
##С‘СЂРѕРІ
РїСЂРµРґСЃС‚Р°РІРёС‚РµР»СЏ
С‚РёСЂР°
РђРќ
##Р»РѕР¶Сѓ
СЂР°Р·РѕСЂ
РЈР»СЊ
Р“РѕРЅ
СѓР±РёРІР°СЋС‚
РґРµСЂРµРІРѕ
РЎР°СЂР°
РџРѕРґСѓРјР°
СЃРѕР±СЃС‚РІРµРЅРЅС‹Р№
##РґРµРјРѕРЅ
Р±Р»РёР¶Р°Р№С€РёРµ
Р·Р°РєРѕРЅР°Рј
СѓРјРѕР»
РЅР°С†
Р»РёС€РЅРёР№
##С‡РёРЅСѓ
Р§С‘СЂ
##Р Рљ
РёРЅРІРµСЃС‚Рѕ
СЃРєРѕРЅ
РїСЂРёРЅС†
Khan
Р¶РёСЂРёРЅРѕРІ
Р»РёС‡РЅС‹С…
##РЅРёРєРѕРІР°
СЃРѕСЃС‚РѕСЏР»
РєРѕРјР°РЅРґРѕР№
РІРѕР»Рµ
РїРѕСЃРїРѕ
##СЃС‚СЂРёРё
С‚СЂРµРЅРµСЂРѕРј
РєР°РЅР°Р»Р°
##РіРѕР»СЊ
Come
РєР°СЃС‚СЂСЋ
РЅРµСѓРґРѕР±РЅРѕ
##РµС‚РєРё
##СЃРёРґ
РїРѕС‚СЂР°С‚РёС‚СЊ
РІСЃСЏРєРѕРµ
Р°СЂС‚РёСЃС‚
РљР»РёРј
РћРєР°Р·Р°Р»РѕСЃСЊ
Р·Р°РјРµСЃС‚РёС‚РµР»РµРј
СѓР»РёС†Р°С…
РїСЂРёРЅРёРјР°СЋС‚
Dead
СЂРµРєР»Р°РјС‹
РІС‹СЃРѕРєРёРµ
##С€РµРЅРЅС‹С…
РїС‚РёС†
РІС‹РїРѕР»РЅРё
##СЃР»РµРґСЃС‚РІРёРё
##200
Р»Р°СѓСЂРµ
СЂР°СЃС‚Рѕ
РЅРµРєРѕРµ
РїРѕРїСЂРѕСЃРёС‚СЊ
РџРёСЂ
СЋР¶РЅРѕР№
РїСЂРёР·РЅР°Рє
135
РїСЂРёР±Р»РёР·РёС‚РµР»СЊРЅРѕ
РѕС‚РІРµС‚РѕРІ
Р“РѕСЃСѓРґР°СЂСЃС‚РІРµРЅРЅРѕР№
##bor
РЅР°С‡Р°Р»РёСЃСЊ
Р»РѕР¶
СЃС‚РѕР»РёС†Рµ
РњРѕР¶РµС€СЊ
##РґРЅРёРµ
СЌРєСЃРїРµСЂС‚Рё
##С€С‹
##led
РЎРјРѕС‚СЂРё
РјР°Р№РѕСЂ
##ors
РїСЂРµС‚РµРЅР·РёР№
Р·Р°РјРµРґ
РґРёРєРѕ
РЅР°РїСЂР°РІРё
СЌРєР·РµРјРїР»СЏ
##РІР°С‚РµР»РµР№
РѕС‡Р°
Bary
##oj
РїСЂРёРјРµСЂР°
Blues
СЌР»
СЃС‚СЂСѓРєС‚СѓСЂ
5000
##С€РёРЅС‹
РїРѕСЃР»РµРґРЅСЋСЋ
РїРѕРјРЅРёС‚СЊ
Р’РѕСЂРѕРЅРµР¶
РІРїРµС‡Р°С‚Р»РµРЅРёСЏ
РЅР°СѓРєСѓ
Р­РґСѓ
СЃРІСЏР·Р°РЅ
Р—РµРјР»СЋ
##С‚Р°РЅС‹
СЌР»РµРєС‚СЂРѕРјР°
РЅР°РїРёСЃР°Р»Р°
РќРѕРІРѕР№
РњРµРґРІРµРґРµРІР°
РћР·
РЅР°С…РѕРґРёС‚СЊСЃСЏ
РёРЅС‚РµРЅСЃРё
Ten
С„РёРЅР°Р»Р°
РїР°С‚СЂРѕ
Р·Р°РґР°С‚СЊ
С„СЂРё
##РєРѕРІРёС‡
СѓРєСЂР°РёРЅСЃРєРёР№
РѕС‚РЅРѕСЃРёС‚СЊСЃСЏ
РІРµСЂС…Сѓ
СЌРєСЂР°РЅРµ
РќРѕРІРѕСЃРёР±РёСЂ
Р±Р°СЂС‹
РєСЂСѓС‚РѕР№
##РґСЃС‚РІРѕ
Р°СЌСЂРѕРґ
Р±РµСЃРїРѕР»РµР·РЅРѕ
Р°РІРёР°С†РёРё
vadim
СЋРіСѓ
Andreich
РѕСЃС‚Р°РЅРѕРІРёС‚СЊСЃСЏ
##С‚СЏР±СЂСЊ
##kov
РґСЂР°Р№
##Р±Р°Р»Рё
РїСЂРёСЂРѕРґР°
##Р¶Р°С…
##С„РёРєР°С†РёСЏ
СЃР»РµРґСЃС‚РІРёСЏ
РЅР°Р·РЅР°С‡РµРЅРёСЏ
СЃС†РµРЅР°СЂ
СЃРїРёРЅРѕР№
Baryonyx
РњРѕРі
РўСЂРµС‚СЊ
РјРѕРЅР°СЃС‚С‹СЂСЊ
РїСЂРѕСЃС‚С‹Рј
РєРѕРјРїРѕР·РёС‚РѕСЂ
РїСЂР°РІРѕР№
##С‚РѕСЂС‹Р№
##uck
РєРѕРё
##СЃС‚РЅС‹Рј
Р¤СЂРёРґСЂРёС…
СЃРёРјРІРѕР»Рё
СЃС‚СѓРґРёР№
Р–Рљ
РїРµС€РµС…РѕРґ
РІСЃС‚СЂРµС‡Р°СЋС‚СЃСЏ
##ance
РІС‹Р»РµС‚
Р‘РёСЂ
РїСЂРѕСЃС‚Р°СЏ
Р’Р°СЂС€Р°РІ
РўСЋ
##РЅСЏР»Р°
##РІР°СЃС‚Рѕ
СЃРѕР·РґР°РІ
РѕС‡РµРІРёРґ
РїРёР»РѕС‚
РЎРµРЅС‚
С‡РµРјРѕ
СЂР°СЃСЃС‚РѕСЏРЅРёСЏ
Р»РёРґРµСЂР°
РіСЂР°РЅРёС†Рµ
СЂР°Р·РјРЅРѕ
Р±РѕРµРІРёРєРѕРІ
РјРёР»РёС†РёРё
С‚СЂРµРЅРµСЂР°
РѕСЃС‚СЂРѕРІРѕРІ
РіСЂРѕРјРєРѕ
С…СѓСЏ
РЅРѕСѓ
РІРѕСЃСЃС‚Р°РЅР°РІР»Рё
РІС‹СЂРµР·Р°
С…РѕР·СЏР№СЃС‚РІ
Р±Р°СЃСЃРµР№РЅР°
##РЅРѕСЃС‚СЏРјРё
##РЅРіР°
СЃРµРі
Р“Р°Рј
СЂР°РЅРµРЅРёСЏ
РїР°С…РЅРµС‚
РІР»РµР·
Р°РІС‚РѕСЂРѕРІ
С…Р°Р»СЏ
##С‚РѕРІР°СЏ
РїРµРЅСЃРёРѕРЅРµСЂРѕРІ
СѓС…Р°
Р±Р°РЅР°Р»СЊРЅРѕ
РЎРѕР»РЅС†Р°
Р·РЅР°РЅРёРµ
РјРѕР»РѕРґС‹Рµ
С„РѕСЂС‚
СЃС‹РіСЂР°
##РҐР›
РѕС‚РґС‹С…
СЂРµС€РµРЅРёРµРј
##СЌРЅРµСЂ
С…Р°Р№
РѕСЃРѕР±С‹С…
Р“СЂСѓРїРїР°
РїСЂРµРґСЃС‚Р°РІР»РµРЅС‹
СЃР»РµРґРѕРІР°С‚РµР»СЊРЅРѕ
Р“РµСЂРѕСЏ
РёСЃРїР°
##РјРµР»СЊ
РІРµРґРѕРјСЃС‚РІР°
Duke
##СЃР»СѓС€Рё
СЃРєР»Р°РґС‹
СЂР°Р·РјРµС‚
РјСѓСЃРѕСЂР°
РЅРµС„С‚СЏ
##Sam
СЃРїРѕСЃРѕР±С‹
РѕСЃРѕР±РѕРіРѕ
РіР»СѓРїРѕСЃС‚Рё
РїРѕСЃС‚СЂРѕРµРЅР°
##С‚РёРї
РєРѕРјРјСѓРЅРёРєР°
С‡СѓР¶РёРµ
С‚СѓСЂРµС†
РІРѕСЂРѕС‚Р°
РєРѕРЅРґРё
РїРѕС‚РёС…РѕРЅСЊРєСѓ
РІС‹С€РµРґ
##С€РЅРёР№
Р¶РµР»РµР·Рѕ
РѕРїСЂРµРґРµР»РµРЅРёСЏ
РІРёСЂСѓСЃ
РўРµРѕ
Р¤РёРЅР»СЏРЅРґРёРё
СЂР°Р·СЉ
Р СѓРєРѕРІРѕРґ
С‡Р°СЃС‚РёС†
РґРёРЅРѕ
РґР¶РёРЅ
##Р»РёС†Р°
Р‘РёР±Р»Рё
РѕС‚СЂСЏРґР°
РїСЂРёРјРµРЅСЏС‚СЊ
Р”Р¶РѕРЅР°
Р’РµСЃС‚
РїРѕРёСЃРєР°С…
С…Рј
##СЃРЅС‹Р№
РѕС‚РґРµР»СЊРЅР°СЏ
Р”СЋ
С‚СЂСѓРї
РґРµРєРѕ
РґРµС€С‘
РљРµРј
##РІР°РµС€СЊСЃСЏ
РѕСЃРЅРѕРІР°РЅР°
Р±РµРіР°С‚СЊ
self
СЃСЂРѕРєР°
РѕСЂРіР°РЅРёР·РѕРІР°С‚СЊ
РјРѕР·РіРѕРІ
С…РёС‰
##РЅСЊСЋ
##РіСЂРµСЃСЃ
##Р¶РµС‡СЊ
##cho
##РЅС†РёР№
РџСЂРѕС…Рѕ
##Р¶РёРє
СЂРµРєРѕРЅСЃС‚СЂСѓРє
СѓСЃС‚СЂР°
##РІРµС€СЊ
Р·Р°РІРѕРµ
РџРљ
РЅР°Р¶Рё
С‡СѓР¶РёС…
РёРЅС‹Рµ
РєР°СЂРґРёРЅР°
Р“Р»Р°РІР°
##ized
1812
С„РѕР»СЊ
,...
Р‘Р»СЏ
##РјР°РЅРµ
##_v
РѕР±СЉРµРґРёРЅРµРЅРёСЏ
Р·Р°РєРѕРЅС‡РёР»РѕСЃСЊ
РѕС‚РґР°РІР°С‚СЊ
РњР°РєСЃ
ul
##С†РёРѕРЅРµСЂ
РІС‚РѕСЂС‹Рј
##Р•РќР
##СЃС‚РёС‡РµСЃРєРёР№
РїР°СЂРЅРµР№
СЃР°С…Р°СЂР°
РЅСЏ
РґСѓРј
С‡СЂРµР·РІС‹С‡Р°Р№
##С€РёРІР°РµРј
Pap
##С‚РёС‡РµСЃРєРёР№
С€РєРѕР»Р°С…
##РєР°СЃ
РїСЂРёРґР°
РѕР±СЂСѓ
РіСЂСЏР·СЊ
С€Р°С…РјР°С‚
##С„РѕСЂРґ
Р±СЊ
РўРІРµСЂ
Р™РѕСЂРєРµ
Р±РѕР»СЊС€РµРµ
star
РЎР°С…Р°
РЅРµСЃРїСЂР°
Р‘СЂР°С‚
117
##СЂРѕРІС‹Рµ
Р‘РµСЂРµ
##СЃРѕРјРѕ
РІРѕСЃРїРё
СѓС‡Р°СЃС‚РЅРёРєРё
РЁРІРµС†РёРё
##РЅРѕРё
С‡РёСЃС‚С‹Р№
.),
РІС‹С…РѕРґСЏС‚
Р¤СЂР°РЅС†РёСЏ
РѕСЃС‚Р°Р»СЊРЅРѕРј
РќР°Рі
##rov
СЃРјРµРЅС‹
Franco
##РґРµРјРѕРЅСЃС‚СЂРё
##Р»РµС‚Р°РµС‚
РЅР°РґРµР¶РґР°
##var
##С€Р°С‚СЊСЃСЏ
Р·Р°РІРёСЃ
##СЃРѕС‚
СЃР»СѓР¶Р±Р°
##ovi
С„Р°РєСѓР»СЊС‚РµС‚Р°
РєРёРЅРѕС‚Рµ
РїРµРЅ
##Р»РёРЅРµ
РґРѕР»Р»Р°СЂР°
СЃРѕСЂС‚Рё
РЅР°СЂРєРѕРјР°
РЅР°С†РёСЃС‚
Р’РѕСЂРѕ
РЈРґР°С‡Рё
Р“РёСЂРєРё
СЃС‡РµС‚РѕРј
РїСЂРµРґРѕС‚
РџРѕСЃР»РµРґРЅРёР№
Р РѕР·
РєРѕСЌС„С„РёС†Рё
РІРµСЂСѓСЋС‰РёС…
С„Р°РєС‚РѕСЂРѕРІ
РїРѕРµРґРёРЅ
РЈРЅРёРІРµСЂСЃРёС‚РµС‚
РЈРі
РїРёР·РґР°
СѓС‡РёС‚С‹РІР°С‚СЊ
РѕСЂР°РЅ
##32
##РґРµСЃСЏС‚
РїРѕРґРґРµСЂР¶РєРµ
##Р№Р»
РµРІСЂРѕРїРµР№СЃРєРёС…
РџР»Р°РЅ
РџРѕР·РґСЂР°РІР»СЏСЋ
СЃРєРѕС‚
СЂРѕРґРёС‚РµР»СЏРј
СЃРІРµРґРµРЅРёСЏРј
##РІР»РµРє
Р¶С‘СЃС‚
СЃРїСЂР°С€РёРІР°Р»
##С‚РёРЅРі
СЂР°Р№РѕРЅР°С…
СЃРѕСЂРµРІРЅРѕРІР°РЅРёСЏС…
РСЃРє
Р·Р°РїСѓС‚Р°
РІРѕС€Р»Р°
##СЃС‚РёС‚РµР»СЊ
Р°РІС‚РѕСЂСѓ
РјР°РјРѕР№
РѕРґРµР¶РґС‹
##СЂРѕРІР°РЅРЅРѕ
РѕС‚Р±Рё
РѕР±Р»Р°РґР°
СѓРјС‹
##С‡РёРЅРµ
СѓРґР°С‡
##СЃРЅС‹Рµ
СЃРѕРїРѕ
1600
РїРѕР·Рѕ
СЃРІРѕР±РѕРґРЅРѕРіРѕ
СЃСѓРґРѕРІ
СЂРµС„РѕСЂРјС‹
##РїРїРё
Р·Р°РјРµРЅРё
РіРёРі
##Р»РѕР¶РµРЅРёРё
450
ver
РњРёРє
Р›СЋРґ
РІС‹РЅРµСЃ
##РёР»Р»Р°
##Р‘РЈ
РїСЂРѕСЃС‚РѕРіРѕ
СЃРІРѕР»Рѕ
##ania
РѕСЃРЅРѕРІРЅС‹Рј
С‚РѕРєСЃРё
С‚СЂР°СЃСЃРµ
СЌРєРѕР»РѕРіРёСЏ
##РµРЅСЊРєР°
Р’С‚РѕСЂР°СЏ
РµР¶РµРґРЅРµРІРЅРѕ
РїРµСЂРµРїСѓС‚Р°
Br
РЅР°С‡Р°Р»СЊРЅРёРєРѕРј
СЃС‚СЂР°РЅРЅС‹Р№
РїСЂРѕСЃРёС‚СЊ
##py
РїРѕР»РѕС‚
Apple
Р»С‘С‚
РС‚РѕРіРѕ
little
##uma
РЁРµСЂ
РЅР°РєРё
С‚РѕР»РїС‹
С‚СЂСѓР±С‹
##С‚РѕРІС‹С…
##СЃР»СѓР¶Р°
РѕР±Р¶Р°
Р Р°Р±РѕС‚Р°Р»
##ushka
Apollo
##hr
РРЅСЃС‚РёС‚СѓС‚Р°
СЃС‚Р°РЅСѓ
РїРѕРїСѓР»СЏ
РќР°С†РёРѕРЅР°Р»СЊРЅРѕР№
РіРёРґСЂРѕ
Р­РјРё
Tur
РџРµС‚СЂРѕ
С€Р»РµРј
Р¶РµСЂС‚РІР°
РїСЂРµРґР»РѕР¶РёР»Рё
##elt
СЂРµРІРѕР»СЋС†РёСЏ
РњРѕСЃРєРѕРІСЃРєРёР№
##РІРёР·
Sl
1085
##РјС‹СЃР»
##РІРµРЅР°
End
Р»РёРґРµСЂРѕРІ
РѕС„РёС†РµСЂРѕРІ
СЃРІРѕР±РѕРґРЅРѕРµ
РїРѕРґСЂСѓРіР°
##СЋС‰РµРіРѕСЃСЏ
РџРђ
Р·Р°СЂРѕ
##ational
РѕР·РЅР°РєРѕРјРё
СЃР»РѕР¶РёР»РѕСЃСЊ
С€С‚Р°РЅС‹
С…РІРѕСЃС‚
РіРѕР»СѓР±
РњРµРЅ
##РєРѕРЅС‚СЂРѕ
РїРѕС‚СЏ
РїСѓС‚РёРЅР°
##eld
##РґРѕРІР°Р»Рё
РєСѓС‡Рё
РѕРїСѓР±Р»РёРєРѕРІР°Р»
##РІС€Р°СЏСЃСЏ
РЅР°СЃС‚РѕСЏС‰РµРіРѕ
РїСЂРѕС€Рё
РЅРµР¶РµР»Р°
uk
##Р±Р»
РѕР±РѕР±
РљСЂРµРјР»СЏ
СЃРѕСЃС‚Р°РІР»СЏСЋС‚
##ute
##С‚РІРѕСЂ
РЅР°СЂРѕРґРѕРј
С‚РµСЂСЂРѕСЂРёСЃС‚Рё
СЂС‹С†Р°
РЅРµРїСЂРёСЏС‚РЅРѕ
РїСЂРёР±С‹Р»
РЅР°СЂРѕРґРЅРѕРіРѕ
СЃС‚Р°РєР°РЅ
##Р¶РµРЅРЅС‹Рј
##Р»СЊРєРё
РїРѕРіСЂРµ
С…СѓРґРѕР¶РЅРёРєРѕРІ
РєР»Р°РґР±Рё
##ef
РЁРІРµР№С†Р°
Wind
РІСЃРµСЂСЊРµР·
##РЅРµР№С€РёС…
##Р°РіРё
РїРѕРїС‹С‚Р°С‚СЊСЃСЏ
С‚С‘Рј
Head
СЃРєСЂРёРЅ
Р·Р°РїР»Р°РЅРё
РёСЃРїСѓРіР°
##_zh
СЃСЂРµРґС‹
Opera
СЃРѕСЂС‚Р°
СЃРѕСЃРµРґРё
##Р»РіРѕ
Machine
РљР°Р№
СЌРіРѕ
Р±СѓРґСЊС‚Рµ
РєРѕСЃРјРёС‡РµСЃРєРёР№
Р’СЃРµСЂРѕСЃСЃРёР№
##СЃРѕР№
СЃРёРЅРіР»
##С‡С‹
РёРіСЂРѕРєР°
РѕС‚РїСЂР°РІРёР»Рё
РЎРѕС‚
Р»СѓС‡С€РµРіРѕ
Р»РµС‚РЅРµРіРѕ
РїРµС…Рѕ
Р”СЂСѓРіРѕР№
##С‡РµСЃС‚СЊ
вЂќ.
С„СѓРЅС‚РѕРІ
РѕР±РµРёС…
Р“РЈ
РїСЂРµРґСЃС‚Р°РІР»СЏСЋС‚
РЅРµРёСЃ
СЂРµРјРѕРЅС‚Р°
Р‘РѕР»СЊС€Р°СЏ
##ize
С‰Рѕ
СѓС‚РІРµСЂР¶РґРµРЅРёСЏ
pay
Р·Р°РЅРёРјР°Р»РёСЃСЊ
РїРѕРґР»Рѕ
РјРёРЅРёСЃС‚СЂРѕРј
РЇРЅСѓ
СЌРєРёРїР°Р¶Р°
port
Р°РІР°РЅ
##РјР°СЂРє
РІРѕРІ
РљРѕР»Рё
##СЃС‚Р°Р»СЊ
РїРµСЂРµСЃС‚Р°С‚СЊ
СЃС‚РѕРї
СЂР°Р·РґРµР»Рё
##ats
##РЎРљ
РІРєР»СЋС‡РёС‚СЊ
РЈС…
РїР»Р°РЅРµС‚Сѓ
230
##ym
pdf
##Р¶Р°РµРј
СЃРµСЂР±
##СЂРёРµР№
РџРµСЂРј
СЂР°СЃСЃСѓР¶РґРµРЅРёСЏ
##ase
РїСЂРѕС…РѕРґРёС‚СЊ
Р“Р»Р°РІРЅС‹Р№
##С€РєР°С…
##Р¶СѓС‚СЃСЏ
СЏСЂРѕ
СЌР»РµРјРµРЅС‚РѕРІ
night
СѓР¶РёРЅ
РїСЂРёРЅСЏР»Р°
РїРѕРіСЂР°РЅРё
##С‘С‚СЂ
##och
##СЃРёРєРё
РѕСЃС‚Р°С‚РєРё
Р·Р°СЃРµРґР°РЅРёРё
Р·Р°С…РѕС‚РµР»РѕСЃСЊ
Р‘СЂСѓ
РђР»РјР°С‚С‹
СЂСЏРґСѓ
РѕР±РµСЃ
Mac
РЎРїР°СЃ
Р’РµРЅРµ
##Р»РµСЂРѕРІ
СѓС…РѕРґРёС‚СЊ
РЅР°РїРёС€Сѓ
С‚РІРёС‚
РІРµСЂРЅСѓР»РёСЃСЊ
РѕС‚РЅРѕС€СѓСЃСЊ
РїСЂРѕРёР·РѕР№РґРµС‚
Form
РёСЃРєР»СЋС‡РµРЅРёСЏ
СЃРґРµР»Р°РЅС‹
РјРёР»Р»РёР°СЂРґС‹
##СЂС‘С‚
РіРѕСЂРѕРґСЃРєРёС…
РєСѓР·
direct
Р·Р°С‚С‹
РёРЅС‚РµСЂРµСЃР°С…
РЅРµСЂРµР°Р»СЊРЅРѕ
don
Р’РјРµ
РќР°С…РѕРґРёС‚СЃСЏ
РџРµСЂРІС‹Рј
ag
РїРѕСЂС‹
РєРѕРЅРµС‡РЅРѕРј
unlaba
РїСЂРёРіРѕС‚РѕРІР»РµРЅРёСЏ
Р°РґРјРёРЅРёСЃС‚СЂР°С‚РёРІРЅРѕРіРѕ
РёР·РЅР°СЃРёР»Рѕ
Р±СѓС‚С‹Р»РєРё
СЃРµСЃС‚СЊ
##С‡СѓСЃСЊ
РђРљ
view
##ied
РіР°СЂРјРѕ
##artun
СЃРјСѓС‰Р°РµС‚
СЏРґ
РћС‚РµС†
##РґРѕРІРё
uzh
СЃРѕР»РґР°С‚С‹
РѕС‚РјРµС‡Р°РµС‚СЃСЏ
code
##СЂРєРµ
СЃРѕРї
Р°СЂС…РёРІ
123
РђРЅРіР°
РЅРµРјРµС†РєРёС…
РўСѓСЂРє
СЃРґР°С‚СЊ
РєР»РёРЅРё
СЂР°Р·РѕР±Р»Р°
РѕС‚РІР»РµРєР°
But
114
РµР¶РµРіРѕРґРЅРѕ
##РјРµСЂС‚СЊ
РїСЂРѕРїСѓСЃС‚РёР»
##ics
РљСЂР°СЃРё
РёРіСЂРѕРєРѕРј
Р»Р°РіРµСЂСЏ
Р·Р°РЅРёРјР°СЋСЃСЊ
Hy
##РґРѕРІРѕР»СЊ
##ward
Р±РµСЃСЃРјС‹СЃР»РµРЅРЅРѕ
113
##Р±Р°Рє
СЃРїСЂР°С€РёРІР°РµС‚
Р¦РµСЂРєРѕРІ
РѕС„РёС†РµСЂ
uzhas
РїРѕС‡С‘С‚
СЃСЋР¶РµС‚Р°
##РЅРёР·
РћР»
Р”РќР 
Р’РѕР»РѕРі
РїСЂРµРјСЊРµСЂР°
##РїР°С‚
РљР”Рџ
##С…РѕРґРёС€СЊ
РѕС‚РєСЂС‹С‚РёРµ
Р›СЋР±Р»СЋ
РџС‘С‚СЂ
РќРёР¶Рµ
РјРѕС‚
##РЅРёС‡РµСЃС‚РІРѕ
РїРѕРєСѓРїР°Р»
Р±РѕР»СЊС€РѕРј
РѕС„РёСЃРµ
РїРѕРјРѕРіР»Рѕ
РѕС‚С†РѕРј
РјРёС‚РёРЅРі
##С€РЅРµ
С…Р°СЂР°РєС‚РµСЂР°
##РЅСЏС‚СЃСЏ
РїРѕСЃР°РґРёС‚СЊ
РјРёС„
РіРёР±РµР»Рё
Р”РѕРјР°
Р‘РѕСЋСЃСЊ
СѓСЃРїРµС…РѕРј
РїСЂРѕРёСЃС€РµСЃС‚РІРёСЏ
СЃРµРєСЃР°
РіРѕСЃСѓРґР°СЂСЃС‚РІСѓ
##Р»РµРЅРґ
СЂР°СЃСЃРєР°Р·С‹РІР°СЋС‚
РєР»СѓР±РѕРј
РєСѓСЂРѕ
##РЅСЃРєРёР№
РґРѕРіРѕРІР°СЂРё
СѓРґРёРІ
Р›РѕРіРё
ever
##oma
##С‚РЅРµРµ
Р‘СѓРґРµРј
С‚РѕС‡РєРµ
С„РµР№СЃ
##СЂРѕР¶Рґ
РџСЏС‚
##orld
##ssues
##wer
Р’СЊРµС‚
Р»СѓРєР°
##_zhartun
750
РєРёСЃР»РѕС‚
vadim_zhartun
##РґСЏРј
##РќРЈ
##ento
СЂРµС‡РЅРѕР№
РјР°СЂРє
СѓРґРѕРІРѕР»СЊСЃС‚РІРёСЏ
СЃС‚Р°Р»РёРЅ
##58
СѓС…
Castle
СЃРѕРіР»Р°СЃРёР»СЃСЏ
С‚СѓСЂР°
С‚РµР»РµРІРёР·РёРѕРЅ
РіР°РЅ
РєРѕРЅРєСѓСЂСЃР°
##Р№РєСѓ
##С‡РёРєР°РјРё
РїСЂРѕС…
##Р±РёС‚Р°
РґРёСЃСЃРµСЂС‚Р°С†РёСЋ
РёСЃРєСѓСЃСЃС‚РІРѕ
Р¶РѕРїР°
РїСЂРёР»РѕР¶РµРЅРёРµ
РЈРІР°Р¶Р°
РђРЅРЅР°
##РїРѕСЂС‚Сѓ
Р·Р°РєРѕРЅС‡РёР»
СЂРµРєСѓ
РЅР°СѓС‡РЅС‹Рµ
РґРёР°Р»РµРєС‚
РњСЏ
СЃРјРµСЃСЊ
##Stalinist
Р°РјР±Рё
##Samyi
РІС‹Р¶
Р·Р°РєР»СЋС‡РµРЅРёСЏ
##ides
С€С‚Р°С‚Рµ
3D
116
РћРґРµ
py
РїРѕР№РґС‘С‚
РїСЂРѕРёСЃС…РѕРґСЏС‚
РѕР±СЉРµРєС‚Р°
Another
РҐР°Р±
TotSamyi
РїРёС†
СЂРµРµСЃС‚СЂР°
СЃРЅРёР·Сѓ
Р§РµСЂС‚
Р›Р°СЂ
Р›Р°РІ
СЌРєСЃРїРѕСЂС‚
С„Р°РєС‚РѕСЂ
С‚СЂР°РєС‚
##gy
Р¤С‘РґРѕСЂРѕРІ
РјР°С‚РµСЂРёРё
Just
РґРѕРІРµСЂРёСЏ
РїРѕРІСЃС‚Р°РЅ
РЅР°С‡РёРЅР°СЋ
РѕРїСѓСЃРєР°
Now
РџРѕРєСЂРѕРІ
РїРѕСЃР»СѓС€Р°С‚СЊ
РІР°Р¶РЅРѕРµ
СЂРѕРґРёС‚РµР»СЊ
TotSamyiStalinist
СЃРїСЂРѕСЃ
РЅРѕРІС‹РјРё
РјРёСЃСЃРёРё
РїСЂР°РІСЏ
210
##СѓСЂРѕРІ
Р·Р°РїСѓСЃРєР°С‚СЊ
С‚РѕСЂРіРѕРІР»Рё
РЎРѕРє
Р°СЃС‚СЂРѕРЅР°РІ
##ets
СѓСЃС‚СѓРїР°
СЂР°СЃСЃРєР°Р·Р°Р»Р°
##bal
РћРєР°Р·С‹РІР°РµС‚СЃСЏ
РћР±СЏ
РѕС„РёС†РёР°Р»СЊРЅРѕРј
Let
##С–Рґ
РѕРіСѓСЂ
РќРµРїРѕ
РґРѕС…
РјРёРЅРёСЃС‚РµСЂСЃС‚РІР°
##erm
РёСЃРїСЂР°
##С‘РЅРЅС‹РјРё
##С„РѕСЃ
РїРѕР»СѓС‡Р°Р»
Te
С‚РѕР»С‰Рё
РїР°Р»СЊС†Р°С…
РІРѕР·СЊРјСѓ
С‚РѕСЂР¶Рµ
Today
##Р±РёСЂР°С‚СЊ
РєРѕРјРјРµРЅС‚С‹
Р¶РµРЅРёР»СЃСЏ
Р±Р°С‚Р°Р»СЊРѕРЅР°
##СЏР»РёСЃСЊ
Revolution
РёРЅСЃС‚Рё
С‡РµР»РѕРІРµС‡РµСЃРєРѕР№
РїСЂРёСЃСЏ
СЂР°Р·РґСѓ
РїРѕС‡РёС‚Р°Р№С‚Рµ
%)
РєРѕСЂРѕР±РєРё
РєРѕРЅРєСЂРµС‚РЅС‹С…
##РѕРєРё
##Р’С‚
##ange
Р°Р»Р»РµСЂ
СЃРµСЂРµРґРёРЅС‹
##РїР°СЂС‚Рё
##_S
РјСѓР¶Сѓ
РЎСЂРµРґРЅРёР№
РёС‰СѓС‚
##Р»РёСЃС‚
Р”РІРѕСЂ
РљР°РєРѕРіРѕ
Р»РёС‚СЂРѕРІ
Studios
РІРµРіРµС‚Р°
##С†РёРѕРЅРЅС‹Рј
СЃР»РѕР¶РЅС‹Р№
##Р±СѓСЂРіРµ
РђРІСЃС‚СЂРёРё
РїСЂРѕРґРµРјРѕРЅСЃС‚СЂРё
##СЃР°Р»
РїРѕСЂР°Р¶РµРЅРёСЏ
РРјРїРµСЂР°С‚РѕСЂ
РїРѕР·РґСЂР°
РјРЅРѕРіРѕС‡РёСЃР»РµРЅРЅС‹Рµ
СЃС†РµРЅРµ
СЃС‚Р°СЂСѓ
Р РµРґ
РҐР°Р№
РїСЂРёР·РЅР°РЅ
РїРѕР»РєРѕРІРЅРёРє
РїРѕР»СѓС‡Р°РµРј
С‚РѕРІР°СЂРѕРІ
##РјР°РЅРґР°
Р·Р°Р±С‹РІР°С‚СЊ
##СЃС‚СѓРїР»РµРЅРёСЏ
Р·Р°РїР°РґРЅС‹С…
РїРµСЂРµРіРѕРІРѕСЂРѕРІ
РѕСЃРІРѕР±РѕР¶РґРµРЅРёСЏ
СЂР°Р·РіСЂРѕРј
СЃС‚РІРѕ
РљР”РџР’
##РІС€РёРјСЃСЏ
РјР°РіРЅРёС‚
СЌРєР·Рѕ
РСЂРєСѓС‚
Р‘РµСЂР»РёРЅ
РіСЂСѓР·РѕРІ
РїР°СЃСЃРё
Р°СЂРјРµР№
РџСЂРµРґСЃС‚Р°РІРёС‚РµР»Рё
Р’СЏ
РјРіРЅРѕРІРµРЅРЅРѕ
РџСЃРё
##С„РёР»
Р»РµР·С‚СЊ
Р¤Р»Рѕ
##СѓСЃРѕРІ
1200
Express
РєРѕРјР°РЅРґРёСЂРѕРј
Р§С‚РѕР±
##РіРµРЅС‚Р°
РјРѕРЅС‚Р°
РµРґРёРЅСЃС‚РІРµРЅРЅС‹Рј
Р›РµСЃ
Р¦РµР»СЊ
##Р°РЅР°Р»Рё
##РєСѓСЂСѓ
РІС‹СЂР°Р¶РµРЅРёРµ
РєРЅСЏР·СЊ
РљР°РЅР°РґРµ
Р§СѓС‚СЊ
РѕС…СЂР°РЅС‹
РєРѕРЅРєСЂРµС‚РЅРѕРіРѕ
СЃС‚РµРЅРµ
Daily
РҐР°Рј
##РЎРЇ
mat
Р°РІС‚РѕСЂРѕРј
Р»РµС‚РЅРёС…
РєР°РґСЂРѕРІ
Р·РґР°РЅРёР№
##Р¶Р°РЅ
##С„РёРј
Р СѓР±
РѕС‚РІРµС‡Сѓ
РїРѕС†Рµ
РїСЂРѕРёР·РЅРѕ
Р°СѓРґРёРѕ
РїР°Р»Рµ
РРІР°РЅР°
РјРµРЅРµРґР¶Рµ
РїРѕРґР°РІР»СЏ
РіСѓР»СЏС‚СЊ
##С‡РµРЅРЅРѕРµ
##РµС‚С‚
Р”СѓРјР°РµС€СЊ
##ament
##РґРѕРІС‹С…
СЂРѕСЃСЃРёР№СЃРєРёРј
СЃР»Р°РІСЏРЅ
СЃР»СѓС‡Р°РµС‚СЃСЏ
РґРѕР±СЂРѕРІРѕР»СЊРЅРѕ
##СЂСЏРµС‚
Р»РµР¶Р°С‚
##РєРі
С…РѕСЂ
##ities
РєР°РІР°Р»РµСЂ
Р’РёР»СЊРіРµР»СЊ
С„РёР»РѕСЃРѕС„РёРё
РїСЂР°РєС‚РёРєСѓ
Mars
РїРµСЂРµР·Р°
В»)
РѕР±СЃСѓРґРёС‚СЊ
РїСЂРёРґСѓС‚
РњРѕРЅС‚
РїРѕРјРѕРіСѓС‚
РїСЂРѕРґРѕР»Р¶РёР»
СѓС…РѕРґСЏС‚
##РІС€СѓСЋСЃСЏ
РјСѓР¶РёРєР°
СЃРїРѕСЂСЋ
С…СѓР№РЅСЏ
РџСЂРѕРє
##РіР»РёС‚СЊ
РѕР·РµСЂРѕ
СЂРѕРјР°РЅР°
Р»РµС‚Р°СЋС‚
##РіСѓР±Рѕ
##СЃС‚РІР°РјРё
РїРѕР±РµРґР°
РёР·РІРµСЃС‚РЅРѕРіРѕ
РіСЂСѓРїРїРёСЂРѕРІРєРё
РїР°СЂРєР°
РЅР°РґС‘
СЂР°РґС‹
Dream
РѕС‚РєР»РѕРЅ
РїСЂРёРіРѕСЂРѕРґ
СЃС€Р°
##РїРѕР»РЅРѕ
174
1700
СЃРѕСЃС‚РѕСЏР»РѕСЃСЊ
Р“РµРЅРµСЂР°
##РјРµРЅРѕ
РћРіРѕ
Р±С‹СЃС‚СЂ
СЌРєРѕРЅРѕРјРёС‡РµСЃРєРѕРіРѕ
РјР»Р°РґРµРЅ
РїСЂРµРѕРґРѕР»
РѕРїРѕР·РґР°
С‚СѓРїРё
РіСѓРјР°РЅ
С‡РёСЃС‚РѕР№
##РќРђРЇ
##РќР“
Р¶РёР»Р°
##СЃР°РЅ
ob
##РїРїР°
С‡РёС‚Р°РµС‚
##iser
РґРѕРЅРѕ
РЅРµРіР°С‚РёРІ
РјСѓР·С‹РєР°РЅ
С‡РµСЂРЅС‹С…
РјСЏСЃ
РїРѕР·РЅР°РєРѕРј
С„СЂР°РЅС†СѓР·СЃРєРѕРіРѕ
Р РµРІ
РџСЂРёРјРµСЂ
Р·РЅР°РєРё
РёСЃС‚РѕСЂРёРµР№
РєР»СЋС‡Рё
##РєРµР№
##РІР°СЋС‰Р°СЏ
СЃРёСЃСЊ
РЅР°СЂСЏРґСѓ
РїРѕСЂСЏРґРѕ
РќРёРєРѕР»Р°РµРІРёС‡
Р”РµСЂРµРІРЅСЏ
##РіРѕРІРѕР№
##agon
Р СЏ
С‡СѓРґРѕРІРёС‰
##С†СЏ
Р“РѕСЃРґСѓРјСѓ
##37
СЃР±С‹
РїРѕР±Р»Рё
РїСЂРѕРµРєС‚Сѓ
Р°РіСЂРµСЃСЃРёРё
СЃР»РѕР¶РЅС‹Рµ
РєРѕР»СЊС†Рѕ
Р“Р
СЃР°РјРѕР»РµС‚С‹
Р°РґР°Рї
Р§СѓРІР°Рє
##С‚РёС‡РµСЃРєРѕР№
РєРѕРЅРєСѓСЂСЃ
РѕР±СЂР°С‰Р°С‚СЊСЃСЏ
Р·Р°РјРµСЃС‚РёС‚РµР»СЏ
РѕСЃРµРЅСЊСЋ
СЂС‹Р±Сѓ
Age
РѕР±С‰РµСЃС‚РІРµРЅРЅРѕРіРѕ
##РёР·РјРѕРј
РїР°С†РёРµРЅС‚РѕРІ
РїРѕРґСЂР°Р·РґРµР»РµРЅРёСЏ
##С„РѕР±
РІС‹Р¶РёС‚СЊ
РјСѓР¶РёРєРё
Р‘Р»РёР¶Р°Р№
##aa
СЃС‹РЅРѕРј
РїСЂРѕСЃС‚РѕРµ
РћР±СЉРµРґРёРЅ
##РґРЅРµРІ
РїСЂРµРєСЂР°С‚РёС‚СЊ
СЃРїРёРЅСѓ
РїСѓР±Р»РёРєР°С†РёРё
##РґСѓС€
Р СѓСЃСЃРєРѕР№
РЁРµРІ
##РёРІР°Р»РёСЃСЊ
РїРѕР»РёС‚РёРє
СЃРѕР±СЂР°РЅРёСЏ
РёРЅРёС†РёР°С‚Рё
РћРґРЅРѕРІСЂРµРјРµРЅРЅРѕ
РљРѕРЅСЃС‚Р°РЅС‚РёРЅ
##Р»Р°РЅР°
РјСЌСЂ
РІС…РѕРґРёР»Рё
Р•РґРёРЅРѕ
Р·РѕРЅР°
С‚Р°С‚Р°СЂ
РІСЂР°С‡Сѓ
121
##Р»РёРІР°С‚СЊ
СѓРіСЂРѕР·С‹
Р±Р°С‚Р°СЂРµРё
РќРљ
##kon
Р°СЌСЂРѕРїРѕСЂС‚Р°
РќРµРґ
РЅР°Р·С‹РІР°РµС‚
РЇРј
Р’Р°С€РµР№
СѓСЃС‚СЂРѕРё
СЃРѕР±СЂР°Р»
##СЃС‚РёС‡РµСЃРєР°СЏ
Sound
СѓР±РµРґРёС‚СЊ
Par
РѕСЃС‚С‹
РџРѕРґРѕР¶РґРё
РіРѕР»Р»Р°РЅРґ
СЂРµР·СѓР»СЊС‚Р°С‚Р°
РјС‹СЃР»РµР№
bl
СЂР°Р·РјРµСЂРѕРІ
Р‘РѕР»РіР°СЂРёРё
THE
РћРєРѕР»Рѕ
##РЅРµРєСЃРё
our
##Р»РёР·РѕРІР°
##С‚РёС‡РЅРѕ
001
СЃР°РЅРєС†РёР№
РїРѕРјРЅРёС‚
СЃРµСЂРІРµСЂ
РњРёРЅРёСЃС‚РµСЂСЃС‚РІРѕ
Р¶РёР»СЊСЏ
РІСЃС‚Р°Р»
Р»РѕРє
РћС„РёС†РёР°Р»СЊРЅС‹Р№
##Р›Р¬РќРћ
РїСЂРµРёРјСѓС‰РµСЃС‚РІРѕ
##Ph
РІС‹СЃРѕРєР°СЏ
Р СЏРґ
РђР»РµРєСЃР°РЅРґСЂРѕРІРёС‡
##РґРёС‚РµР»СЊРЅРѕ
С€СѓС‚РєРё
РћСЃРЅРѕРІРЅС‹Рµ
Р‘СѓР»
##РіРµСЂР°
РЎРІРµСЂРґР»РѕРІ
##kus
РљР°СЂР»Р°
СЃРѕС†РёР°Р»РёР·Рј
Р±СЋСЂРѕРєСЂР°
СЂР°Р·РЅРѕР№
РЎРµСЂСЊРµР·РЅРѕ
##СЂСЏРµС‚СЃСЏ
РјРёРЅСѓС‚Рµ
##Р±СѓСЂРіР°
РёРіСЂР°Р»Рё
##mat
РІРѕСЃРїРѕР»СЊР·РѕРІР°С‚СЊСЃСЏ
СЂРµС€Р°СЋС‚
СЃР»РµРґСѓСЋС‰РµРіРѕ
122
СЂРёСЃРѕРІР°С‚СЊ
РњР°Р№РєР»
Р’РµРЅРіСЂРёРё
РІРЅСѓС‚СЂРµРЅРЅРµР№
ua
РґС‘
РЎС‹РЅ
##РњРЈ
СЂСѓСЃСЃРєР°СЏ
РїСЂРѕС‚РµСЃС‚Р°
РРЅС‚РµСЂРЅРµС‚
С‡Р°СЃС‚РЅРѕР№
РёРЅС‚СЂРё
РµР·Р¶Сѓ
СЃСѓС‰РµСЃС‚РІР°
СЌРІР°РєСѓР°
##СЂСЂ
##jar
РїРёСЃР°С‚РµР»СЏ
РєРѕР»РёС‡РµСЃС‚РІСѓ
##cer
СѓРјРЅРѕ
СЂРѕСЃРєРѕ
Р»РёС†РµРј
С…РѕР»РѕРґРёР»СЊРЅРёРє
##РѕС…СЂР°РЅРё
СЃС‚СЂР°РЅРёС†Рµ
СЃР°Р»
С‚С‹СЃСЏС‡Сѓ
РїСЂСЏРјРѕРј
118
РіРѕР»РѕРґ
РІС‹С‡РёСЃ
##С‚СЊСЋ
РїСЂРёР·РЅР°РєРё
##ction
РїРѕР·РІРѕРЅРёР»
РІР°Р¶РЅС‹Р№
С‡РµРјРїРёРѕРЅРѕРІ
РѕР±СЉСЏСЃРЅРёР»
##mm
Euro
РїРѕРІС‹С€РµРЅРёРµ
СЃРѕС‚СЂСѓРґРЅРёРє
РІСЃС‚СЂРµС‡Рµ
РѕРїСЂР°РІРґР°
Р›РёРіРё
РўР°РєРёС…
Gray
Р·РґСЂР°РІ
Р»РёС„
##Р¶Р°РјРё
feat
##С†РёРѕРЅРµСЂРѕРІ
СЌРєСЃРїРµРґРёС†РёРё
Get
Р·Р°РІРѕРµРІР°Р»
##Р·Р°Р»Р°
Р›РѕСЂ
СЃС‚СѓРї
РћРџ
РљСЂР°СЃРЅРѕСЏСЂ
С‚РѕРІР°СЂС‹
##РєС‚Сѓ
Р°РєС‚РµСЂ
С…РѕР·СЏРµРІР°
Р»РµС‚РµС‚СЊ
Р°РєС‚РёРІРЅРѕСЃС‚Рё
РґРѕРіР°РґС‹
РїР»РѕРґ
Р·Р°РґРµСЂР¶Р°РЅ
Р“Рђ
СЃРѕС…СЂР°РЅРµРЅРёСЏ
Р±СѓС‚С‹Р»РєСѓ
СѓРєР°Р·Р°РЅРѕ
##endo
С„РёРЅР°Р»
##Р»РµСЂР°РЅ
СЃРѕРІСЂРµРјРµРЅРЅС‹Р№
##РІР°РЅРµ
Pop
РіРІРѕР·
Angel
РІС‹Р±СЂР°РЅ
РІС‹Р»РµР·
##Р±Р°С‚СЊ
РїСѓСЃС‚РѕР№
##Р°Р»СЏ
РІРµР»РёРєРёР№
С…РѕР±Р±Рё
РїР»Р°РЅРёСЂСѓРµС‚
Р РѕРјР°РЅ
РІРѕРµРЅРЅРѕСЃР»СѓР¶Р°С‰РёС…
##ress
СЃР±РѕСЂРЅРёРє
СЃРѕРІРѕ
Ag
РѕС€РёР±Рѕ
СЂСѓРєРѕРІРѕРґРёР»
СЃРѕСЃС‚РѕРёС‚СЃСЏ
РѕС‚РєСЂС‹Р»Рё
##Р”РЈ
##:)
Р°СЂС…РёС‚РµРєС‚СѓСЂ
Р·Р°СЃР»СѓРі
СЃР»РѕР¶РЅР°СЏ
РіСЂСѓРґРё
127
СЃРѕРіР»Р°С€РµРЅРёСЏ
СѓРґРµСЂР¶Р°
##С‚РІРѕСЂРё
##С‡Р°С‚СЃСЏ
##СЃС‚РЅРѕСЃС‚СЊ
СѓРґРѕСЃС‚РѕРµРЅ
##С‚РёРЅС‹
РєР°СЂР°РЅ
СЂРµС„РµСЂРµРЅРґСѓРј
РіРѕРІРЅРѕРј
СѓС‡РёС‚
СЃРѕРѕР±С‰РёР»Р°
РІРѕСЃСЃС‚Р°РЅРёСЏ
СЃРµС‚Рµ
РјР°РјСѓ
Р±СЂР°Рє
РџСЂРµРјСЊРµСЂ
СЂР°СЃС‡
Serg
Р±Р»
Р»СЋР±РёС‚Рµ
##Р·РјРѕРІ
РїРѕРґРѕР·СЂРµРІР°СЋ
РµСЃС‚
##Р•РќР¬
РЈРј
РІРµР¶Р»РёРІРѕ
Р°РЅР°Р»РёР·Р°
##ign
Р°СЌСЂРѕРґРёРЅР°РјРё
##РІРµСЂС…
##С‚РёСЂР°
РІС‹РєСѓРї
РЅРµСЃСѓС‚
173
РњРµРє
РіР°СЂР°РЅС‚
РїРѕРјРЅРёС€СЊ
РіРѕС‚
Р°РґРІРѕРєР°С‚
##Tube
РґРѕР»РіРѕРµ
РІС‹РєР°
Р±РёС‚РІРµ
Р‘РµР»РѕСЂСѓ
Р‘Р°СЂР°
РћС‚РІРµ
Kr
##РЅРѕРІР°СЏ
РїСЂРёРЅРѕСЃРёС‚
##С‘РІР°
РјР°С‚РµРјР°С‚РёРєРё
РїСЂРёР±РѕСЂ
С‚РµР»РµСЃРµСЂРё
##СЂРѕРІР°Р»Р°СЃСЊ
РіР°Р·РµС‚
С‚РѕРєР°
РљРѕР»СѓРјР±
Р РµР№РЅ
##Р°Р»СЊРЅРѕСЃС‚СЊ
РґРѕС…РѕРґС‹
РєСЂРµРїРѕСЃС‚Рё
СЏС‰РёРє
РЅРµСЂР°Р·
Р·Р°С€РµР»
РїРѕС‚Сѓ
РЈСЃ
РЎР°Р№
Р»РёР±РµСЂР°Р»РѕРІ
РїР»Р°РЅР°
Р±РѕРµРІРѕР№
РѕРїС‚РёРјР°
YouTube
РЅР°РіСЂСѓР·РєСѓ
##С€РЅ
РїСЂРѕС„РµСЃСЃРёРё
РєРѕРјРїРѕР·РёС†РёРё
РїСЂРѕС†РІРµС‚Р°
С‚РµРєСЃС‚Сѓ
РІРµРєРѕРІ
Р»Р°РґРѕ
##Р±Р»СЏ
СЂР°Р№РѕРЅСѓ
СЃР»РµРґСѓСЋС‰РёРј
РїРѕРґРЅРёРј
##Р¶РµРЅРЅР°СЏ
Р±РµСЃРїРѕСЂСЏРґ
РјРµР¶РґСѓРЅР°СЂРѕРґРЅРѕР№
##Р±РµС‚
Р’РµСЂРѕСЏС‚РЅРѕ
РєРѕСЃРјРёС‡РµСЃРєРѕРіРѕ
bit
##РІР°СЋС‰РµР№
РїСЂРµРґРїРѕР»РѕР¶Рё
С‡РµСЂРЅС‹Рµ
##49
##Р·РѕСЃС‚Рё
РёРјРµСЋС‚СЃСЏ
РґРёРЅР°СЃС‚РёРё
РљСЂСѓРї
РЅР°Р±СЂР°С‚СЊ
РІРѕР·РјРѕР¶РЅС‹С…
РџРёРєР°Р±Сѓ
##ays
РҐР°Р»
РёР·РјРµСЂРµРЅРёСЏ
РљР°РЅР°РґС‹
Ph
##РЅРёСЃС‚
Water
Р¶РґР°Р»Рё
С…РѕСЂРѕС€Р°
РљРёСЂРё
РЎР»СѓС€Р°Р№С‚Рµ
РєР°Р±РёРЅРµС‚
##С‚Р°РІ
##РїРѕС‚РµС‚Рё
РІРЅРµРґ
##Р¶РµСЃС‚РІР°
Play
SM
РјР°СЂС€СЂСѓС‚
РќРµР·
Collection
РЅР°РІРёРіР°
РџРѕР»РёС‚
СѓР±РµРґРёС‚СЊСЃСЏ
##СЂСѓРіР°
СЌРїРѕС…Рё
##СЃС‚СЂРѕРёС‚СЊ
С†РµР»С‹С…
РћСЃС‚СЂРѕРІ
С‚РѕС‡РµРє
РІРѕРґРєРё
РўР°Р»
РЅР°РґРµСЏС‚СЊСЃСЏ
СЃРѕР·РґР°РµС‚
РїСЂРѕРіРЅРѕР·
##С‡Р°Рє
Design
РїРѕРІРё
РѕРїСЂРµРґРµР»РµРЅРёСЋ
##Р»СЌ
Р±РµР»РѕРіРѕ
165
##С‚СѓР·РёР°
РёСЃРїРѕР»СЊР·СѓРµРј
##i_
##РїСЂР°С€Рё
Р±СЋР»Р»РµС‚
РјР»Р°РґС€РёР№
РёР·СЉ
РЅРµРІРѕ
Р¦РµРЅР°
##С‡Р°Р»СЃСЏ
РїСЂРѕРґРѕР»Р¶Р°Р»
Р·Р°РґРµСЂ
РёСЃС‚СЂРµР±Рё
EU
РЅРµС„С‚Рµ
##С…Р°С…
СѓС‡Р°СЃС‚РІРѕРІР°Р»Рё
РіСЂРѕР·
##ude
Р·Р°Р»РёРІ
Р¦РµСЂРєРІРё
СЂРѕСЃСЃРёР№СЃРєР°СЏ
Р°С‚Р°РєРё
РІРµСЂРѕСЏС‚РЅРѕСЃС‚СЊСЋ
СЃРёР¶Сѓ
##СѓС‡Сѓ
Mix
РћС‡РµСЂРµ
С…РёС‚СЂРѕ
РґРѕР¶Рґ
Airlines
СЂСЏРґРµ
##СЃС‚РІРµРЅРЅРѕСЃС‚Рё
РЎРёСЂРё
##СЃРёСЋ
РїСЂРёРіРѕРІРѕ
Р›Р°С‚РІРёРё
РіРёС‚
##Р»РѕРї
РґРµРїР°СЂС‚Р°РјРµРЅС‚Р°
Р”Р°Р№С‚Рµ
Р РёС‡Р°
##РќР«Р™
past
РјРµСЃС‚РЅРѕР№
##СЏСЏ
Р РёС‡Р°СЂРґ
167
Р°Р»РєР°
Р–РµРЅР°
РІС‹РЅСѓР¶РґРµРЅС‹
СЂСѓР»РµРј
Р»РµРіРµРЅРґ
str
РёСЃС‚РѕСЂРёС‡РµСЃРєРёС…
РїСЂРёРѕСЃС‚Р°РЅРѕРІ
СЂР°РјРєРё
РїРѕР·РЅР°РєРѕРјРёС‚СЊСЃСЏ
РЅРµРїР»РѕС…РѕР№
С†РІРµС‚РѕРІ
РїСЂРµСѓРІРµР»Рё
Р°С‚РјРѕСЃС„РµСЂР°
РљСЂРµСЃС‚
СЃРµРєСЂРµС‚Р°СЂ
##РџРџ
РїСѓР»СЊ
РєРѕР»РѕРЅРёРё
РІСЃР»РµРґСЃС‚РІРёРµ
РІР°РєСѓСѓРјРµ
Р¤СЂР°РЅРє
СЂРµРіРёРѕРЅРѕРІ
РђРЅРґР¶РµР»РµСЃ
##РІС€РµРјСѓ
РЅРѕСЃРёС‚РµР»Рё
РґРµС‚СЃРєРёРµ
126
СЃРµСЂРґРµ
##Р»РѕРіСѓ
Р РђРќ
СЃР°Сѓ
СЃРѕСЃС‚Р°РІР»СЏР»
РјР°С€РёРЅРѕР№
С…РѕР¶Сѓ
РјРѕС‚РѕСЂ
РљР°СЃ
СЂРµРґР°РєС‚РѕСЂ
РІРЅРµС€РЅРµР№
СЌРјРёРіСЂР°
РњРёС€
СЌРєСЂР°РЅРё
СЃР»СЋ
Р·Р°РїСЂРѕСЃС‚Рѕ
РЅР°СЃРµРєРѕ
СЃРєР°Р¶РµС‚Рµ
РїСЂРѕСЃСЏС‚
##С†РѕРІР°
Р Р•
РЁРІРµР№С†Р°СЂРёРё
СЃРµРІРµСЂСѓ
РїСЂРёР·РІР°РЅ
##100
##...]
РјРѕР»РѕРґС†С‹
##РЅРѕСЂРјР°
РёРґРёС‚Рµ
РЎРїРѕСЂС‚
РљРѕРІ
СѓСЃС‚СЂР°РёРІР°С‚СЊ
РѕС‚Р·С‹РІ
РСЃР»Р°Рј
РЎРѕРІРµС‚СЃРєРѕР№
РІСЃС‚Р°С‚СЊ
С…Р°РЅ
РїСЂРѕРёР·РѕС€Р»Р°
РЅР°С€РёРјРё
Warner
РїРѕРґРґРµСЂР¶Р°
Р·РЅР°РєРѕРјС‹
[...]
